<pad>	0
<unk>	0
[CLS]	0
[SEP]	0
[MASK]	0
.	-3.08103
,	-3.12792
▁a	-3.8533
▁na	-4.31185
▁v	-4.31232
▁se	-4.3383
▁#	-4.42689
▁je	-4.72248
m	-4.80048
▁s	-4.88866
a	-4.91649
▁to	-5.03843
y	-5.08411
u	-5.17347
▁z	-5.21136
▁pro	-5.32389
▁že	-5.32943
▁o	-5.33461
▁do	-5.3608
i	-5.38034
▁i	-5.48856
▁za	-5.59309
ch	-5.64019
▁ale	-5.64203
▁k	-5.64932
▁po	-5.68771
▁si	-5.70002
▁tak	-5.79156
▁jsem	-5.79667
ho	-5.82577
o	-5.84274
▁nebo	-5.93127
▁jsou	-5.9414
▁ve	-5.94719
▁jako	-5.96923
em	-5.97055
▁které	-6.01881
▁od	-6.03039
?	-6.04255
▁u	-6.05795
▁jak	-6.09721
ů	-6.09916
▁#.	-6.12665
e	-6.14626
...	-6.21986
s	-6.2707
▁co	-6.27438
▁hry	-6.30764
▁by	-6.31063
í	-6.33104
▁při	-6.36202
▁bude	-6.39612
mi	-6.40064
▁ne	-6.41259
▁který	-6.43169
▁když	-6.43629
▁jen	-6.47604
▁už	-6.52413
▁vy	-6.54003
▁online	-6.5471
#	-6.5509
!	-6.57132
▁také	-6.58998
te	-6.5995
▁jsme	-6.63077
ou	-6.63189
▁byl	-6.67384
é	-6.70158
▁zdarma	-6.70323
▁pokud	-6.71403
▁být	-6.71508
ka	-6.74959
▁mi	-6.75711
▁hrát	-6.76632
▁má	-6.76907
▁před	-6.77814
ní	-6.79417
me	-6.79916
▁než	-6.84472
▁automaty	-6.86169
▁jeho	-6.87552
ky	-6.87723
▁kde	-6.88287
▁není	-6.88994
ové	-6.89073
á	-6.89383
▁aby	-6.89659
▁sloty	-6.8971
▁pak	-6.9395
▁ze	-6.9564
▁více	-6.95843
▁bez	-6.95864
t	-6.96649
▁casino	-6.96932
▁další	-6.97168
▁ještě	-6.97262
▁až	-6.98229
▁bylo	-6.98632
▁která	-6.98959
▁byla	-7.01095
▁jejich	-7.03759
▁podle	-7.04042
ně	-7.04332
▁kasino	-7.06174
ě	-7.07868
▁své	-7.0936
▁	-7.10109
▁pod	-7.12005
▁mě	-7.13732
ce	-7.13941
▁vám	-7.15411
▁ho	-7.16471
▁může	-7.16578
k	-7.16863
▁tam	-7.16953
ku	-7.17298
ý	-7.18709
▁ani	-7.19094
š	-7.20276
▁mezi	-7.22206
ová	-7.22547
▁tím	-7.22984
▁velmi	-7.23401
▁já	-7.24103
d	-7.24919
l	-7.25926
▁první	-7.28472
né	-7.29618
▁či	-7.30769
▁mají	-7.31085
mu	-7.32349
▁let	-7.32412
▁zde	-7.33736
n	-7.33776
▁tu	-7.33935
ná	-7.34493
ech	-7.34646
▁asi	-7.36763
▁ke	-7.36928
▁jste	-7.36987
▁již	-7.37218
▁...	-7.38464
▁toho	-7.38568
▁vás	-7.38911
▁protože	-7.38927
▁nás	-7.39052
v	-7.40019
na	-7.41429
▁všechny	-7.41539
▁ten	-7.44041
▁každý	-7.45072
ovat	-7.46126
▁kdy	-7.46402
▁ty	-7.47397
▁kteří	-7.47779
▁tedy	-7.4793
▁bych	-7.47934
▁takže	-7.48639
c	-7.49543
▁pře	-7.50009
▁#,#	-7.50312
▁mu	-7.50427
nou	-7.50759
▁tom	-7.50788
▁tento	-7.5179
▁něco	-7.53106
▁však	-7.53151
ek	-7.53227
▁pouze	-7.53331
▁.	-7.53787
▁proto	-7.5427
▁nad	-7.54713
▁moc	-7.54749
it	-7.55151
▁,	-7.55642
z	-7.56596
▁třeba	-7.56739
p	-7.56996
▁ji	-7.57343
▁den	-7.57389
r	-7.59445
▁přes	-7.59708
▁nic	-7.60476
▁roce	-7.60758
▁roz	-7.60972
▁tomu	-7.61075
▁můžete	-7.61395
▁peníze	-7.61676
▁praha	-7.62229
ci	-7.62684
▁nové	-7.62954
▁roku	-7.63975
x	-7.64162
li	-7.64415
ových	-7.65565
▁někdy	-7.678
▁ta	-7.68457
▁mám	-7.68759
ový	-7.69162
▁dnes	-7.69736
▁nám	-7.70051
▁m	-7.70212
uje	-7.70395
ování	-7.70702
ný	-7.70801
▁měl	-7.72066
ých	-7.7217
▁proti	-7.73685
cz	-7.73958
cí	-7.74497
▁mít	-7.7476
ovou	-7.74906
▁stejně	-7.75168
▁hra	-7.7602
▁video	-7.76265
▁vůbec	-7.77095
▁dolarů	-7.77163
▁místo	-7.77595
▁opravdu	-7.78267
▁byly	-7.78352
▁díky	-7.78482
▁budete	-7.79079
▁práce	-7.79551
▁budou	-7.80883
kou	-7.81151
▁navíc	-7.81588
▁jim	-7.81695
ne	-7.82024
▁této	-7.82156
▁kasina	-7.82517
b	-7.83025
▁lze	-7.83287
la	-7.84082
▁kdo	-7.84232
▁d	-7.84631
▁tyto	-7.85182
▁vše	-7.85873
▁#.#.#	-7.865
▁hrací	-7.86978
▁ti	-7.87146
▁nabízí	-7.87451
▁jeden	-7.87876
▁což	-7.88216
ž	-7.88749
▁slot	-7.89181
▁možná	-7.89299
▁nejlepší	-7.89477
▁dobře	-7.90818
▁právě	-7.90887
▁brno	-7.90963
▁stále	-7.92087
ské	-7.92171
▁čas	-7.92229
▁vlastní	-7.93347
no	-7.93464
▁dva	-7.93646
▁některé	-7.94329
▁musí	-7.94448
▁no	-7.94546
ují	-7.95483
▁její	-7.95714
ovi	-7.96541
h	-7.96661
j	-7.96745
▁možnost	-7.97922
ni	-7.98411
▁nikdy	-7.98752
▁kč	-7.99152
▁b	-7.99162
▁případě	-7.99185
▁například	-7.9978
▁taky	-8.00489
▁během	-8.00745
▁všech	-8.01223
▁teď	-8.01275
▁vždy	-8.01363
▁bonus	-8.02169
▁mohou	-8.02379
▁době	-8.02632
▁velké	-8.02679
▁pár	-8.0269
▁naše	-8.02871
ny	-8.03178
▁plzeň	-8.03306
▁rozhodně	-8.03412
▁jde	-8.0394
▁ostrava	-8.04441
▁nich	-8.04613
ách	-8.0479
▁č	-8.05264
č	-8.05741
▁#.#	-8.05809
ům	-8.05834
▁p	-8.05841
▁proč	-8.06074
▁děti	-8.06407
▁zařízení	-8.0681
▁e	-8.07357
g	-8.07684
▁lidí	-8.07993
▁tato	-8.08535
▁poker	-8.091
▁české	-8.09261
ská	-8.093
▁možné	-8.09429
▁jiné	-8.09618
▁tohoto	-8.09781
f	-8.09818
▁kterou	-8.09956
▁poslední	-8.10191
▁získat	-8.1036
▁jinak	-8.10762
▁rok	-8.11209
▁vaše	-8.11536
▁informace	-8.11979
▁měla	-8.13353
▁hodně	-8.13436
▁tady	-8.13577
ných	-8.13708
▁kolem	-8.14422
▁těchto	-8.14584
▁tři	-8.15321
▁dále	-8.15602
▁jí	-8.15632
▁mnoho	-8.16459
▁jestli	-8.16725
▁hráči	-8.16892
▁společnosti	-8.1801
nu	-8.18034
▁několik	-8.18415
en	-8.18549
▁dvou	-8.18789
▁určitě	-8.19523
▁r	-8.19755
▁přímo	-8.20047
▁lidé	-8.20052
▁sebe	-8.20195
▁prostě	-8.20699
at	-8.20945
▁toto	-8.21208
▁nyní	-8.21321
st	-8.21429
▁ní	-8.21739
▁celý	-8.22904
▁re	-8.23113
il	-8.23693
▁někdo	-8.23861
▁největší	-8.24107
▁často	-8.24202
▁dvě	-8.24514
to	-8.24699
že	-8.24936
▁svou	-8.24947
▁oblasti	-8.25022
▁trochu	-8.25299
▁nejen	-8.26226
ového	-8.2628
▁víc	-8.26478
▁zase	-8.26936
▁svůj	-8.27142
▁snad	-8.27444
▁dokonce	-8.27993
ma	-8.28135
▁samozřejmě	-8.28208
oval	-8.28439
▁měli	-8.28538
▁opět	-8.28562
ský	-8.28735
▁c	-8.29068
le	-8.29136
▁dobrý	-8.29358
▁dne	-8.29701
▁především	-8.29946
▁ano	-8.30126
▁totiž	-8.30323
▁hazardní	-8.30323
▁problém	-8.30369
▁máme	-8.31663
▁ob	-8.31845
▁chcete	-8.31916
▁dalších	-8.32132
▁zejména	-8.32239
ého	-8.32297
▁lepší	-8.32367
in	-8.3276
▁jednou	-8.33082
▁de	-8.33138
er	-8.33166
ko	-8.33171
▁my	-8.33513
▁pomocí	-8.33629
▁tuto	-8.34033
ř	-8.34238
▁něj	-8.34908
▁dobré	-8.35248
▁všichni	-8.3575
▁nový	-8.36599
▁život	-8.36988
vá	-8.36999
▁hlavní	-8.37383
▁hlavně	-8.37522
▁tomto	-8.38062
▁byli	-8.38073
▁společnost	-8.38314
▁všechno	-8.38328
ově	-8.38349
▁nakonec	-8.38546
▁část	-8.38797
▁l	-8.38825
▁např	-8.39262
▁chce	-8.39324
▁patří	-8.39506
ta	-8.3965
▁hodin	-8.39813
▁řekl	-8.39916
▁systém	-8.39916
▁téměř	-8.40131
▁zcela	-8.40387
▁stroj	-8.40433
▁města	-8.40586
▁dost	-8.40638
▁jedno	-8.40891
▁jistě	-8.41319
w	-8.41609
▁hned	-8.42078
▁zda	-8.4221
je	-8.42253
▁svého	-8.42299
lo	-8.42677
▁dobu	-8.42791
▁dle	-8.43161
▁té	-8.43204
▁kromě	-8.43298
▁máte	-8.43393
▁práci	-8.43538
▁celé	-8.43554
▁člověk	-8.43684
▁základní	-8.44216
ra	-8.44246
▁nejsou	-8.44351
▁různých	-8.44798
▁akce	-8.44814
▁množství	-8.44825
▁větší	-8.45184
▁žádné	-8.45233
▁sice	-8.45356
▁včetně	-8.45459
▁části	-8.45486
▁sám	-8.45511
ských	-8.45892
ej	-8.46007
▁letech	-8.4608
al	-8.46292
▁druhé	-8.468
▁vyhrát	-8.46855
cích	-8.46979
▁kvůli	-8.47159
▁zatím	-8.47218
▁spolu	-8.47392
▁stránky	-8.47489
▁mohl	-8.47854
▁věci	-8.48119
▁lisu	-8.48875
▁čr	-8.48925
▁rámci	-8.49173
▁svých	-8.49186
▁f	-8.49218
▁myslím	-8.49427
▁těch	-8.49516
▁nej	-8.49663
▁mnohem	-8.49837
ie	-8.50107
▁tří	-8.50108
▁počet	-8.50495
▁ovšem	-8.51204
▁celkem	-8.51661
▁hráč	-8.51947
ti	-8.51956
▁prostředí	-8.52122
▁velký	-8.52139
▁úplně	-8.52367
▁dispozici	-8.5271
▁mimo	-8.52766
▁x	-8.52977
▁příliš	-8.53387
▁nebude	-8.53813
▁pan	-8.53995
▁nemá	-8.54363
▁cena	-8.54474
▁jan	-8.54503
▁nevy	-8.54798
▁vegas	-8.54817
▁kasinu	-8.5484
ného	-8.55248
ků	-8.55301
po	-8.55544
▁můj	-8.55643
se	-8.55748
▁program	-8.56056
▁stroje	-8.561
▁jedna	-8.56286
ova	-8.56287
▁hraní	-8.56796
▁ostatní	-8.57074
▁služby	-8.5729
ského	-8.57479
▁naší	-8.57524
▁řešení	-8.5801
▁místě	-8.58135
▁g	-8.58374
▁váš	-8.5842
ze	-8.58573
ým	-8.58633
ované	-8.59062
▁vlastně	-8.59081
▁stát	-8.59089
▁hráče	-8.59443
▁znovu	-8.59581
▁většina	-8.59642
▁dá	-8.59755
▁skutečně	-8.59756
▁různé	-8.59786
▁přesně	-8.59909
▁prostřednictvím	-8.60029
▁jedná	-8.60032
▁nějaké	-8.60189
▁ra	-8.6036
▁t	-8.60495
kem	-8.60562
▁dál	-8.60848
▁h	-8.61
▁svým	-8.61307
▁bonusy	-8.61389
▁peněz	-8.61904
ám	-8.62187
▁on	-8.62588
▁několika	-8.62596
▁auto	-8.62682
▁období	-8.62711
▁dlouho	-8.63038
▁hru	-8.63057
ba	-8.63149
▁j	-8.63161
▁ať	-8.63197
▁jej	-8.63647
ň	-8.63668
▁vidět	-8.63701
▁jackpot	-8.6398
▁světa	-8.63995
▁internetu	-8.64113
▁chvíli	-8.64363
da	-8.64506
▁pří	-8.6547
▁rád	-8.65479
▁korun	-8.65521
▁jsi	-8.65738
ích	-8.65876
▁řízení	-8.66149
▁stojí	-8.66163
▁kolo	-8.66545
▁kdyby	-8.66729
▁funkce	-8.66973
▁dělat	-8.67167
▁skutečnosti	-8.67383
▁n	-8.67679
▁něm	-8.67776
aci	-8.6806
nost	-8.68137
▁jo	-8.68149
▁všem	-8.68234
tě	-8.68706
▁ceny	-8.68761
▁nevím	-8.69168
▁nikdo	-8.692
ost	-8.69374
▁udělat	-8.69564
▁vyšší	-8.69644
tu	-8.69737
▁bohužel	-8.69899
▁poté	-8.70034
▁line	-8.70454
ší	-8.70705
▁doma	-8.70783
▁rychle	-8.70821
▁herní	-8.70884
skou	-8.7096
▁#%	-8.71063
▁sobě	-8.71189
▁zároveň	-8.71436
▁každé	-8.71532
▁znamená	-8.71573
▁minut	-8.7192
▁pocit	-8.7201
▁super	-8.7246
▁progresivní	-8.72483
ice	-8.72539
ji	-8.73052
▁našich	-8.73203
▁jenom	-8.73297
ovým	-8.73365
▁lidi	-8.73451
▁jednu	-8.73608
▁říká	-8.73727
▁nepo	-8.73945
ace	-8.7395
▁země	-8.74194
▁žádný	-8.74597
▁byste	-8.7467
▁alespoň	-8.74713
lí	-8.74751
▁článek	-8.74796
ec	-8.74891
▁pět	-8.75009
▁nachází	-8.75176
▁neu	-8.75237
▁najdete	-8.75243
ly	-8.75381
▁jít	-8.75638
▁la	-8.75656
▁zá	-8.75774
▁blackjack	-8.75946
▁uložení	-8.76056
▁chtěl	-8.76275
▁svět	-8.76305
▁neza	-8.76501
▁nejvíce	-8.76861
▁cca	-8.76889
▁celou	-8.76913
▁fakt	-8.7704
▁jednoho	-8.77362
ací	-8.77557
▁později	-8.77613
▁děkuji	-8.77977
▁vzhledem	-8.78084
▁vítězství	-8.781
▁půl	-8.78226
▁naopak	-8.78615
▁součástí	-8.78624
▁moje	-8.7863
▁strany	-8.78702
▁cenu	-8.7897
▁systému	-8.78994
ře	-8.79181
▁pořád	-8.79293
us	-8.796
▁milionů	-8.79653
▁budu	-8.79783
▁zatímco	-8.7985
▁nějaký	-8.80009
el	-8.8003
ující	-8.80062
▁času	-8.801
va	-8.80182
ným	-8.80409
nější	-8.80505
▁zkušenosti	-8.80548
▁chci	-8.80587
▁méně	-8.80948
ing	-8.81037
lu	-8.81039
ami	-8.81138
▁věc	-8.81471
ické	-8.81498
▁doby	-8.81551
▁of	-8.81632
▁najít	-8.81661
▁prostor	-8.8182
▁jedním	-8.8202
▁ú	-8.82038
▁kam	-8.82064
▁firmy	-8.82423
▁pracovní	-8.82475
▁#.#.	-8.82787
▁života	-8.82946
▁osobní	-8.83108
lé	-8.83138
▁praze	-8.83225
▁okolí	-8.83321
▁atd	-8.83458
▁takové	-8.83617
▁tohle	-8.83779
▁potom	-8.83856
▁způsob	-8.84116
ení	-8.8417
▁volné	-8.84202
ká	-8.84299
▁školy	-8.84311
ovali	-8.84459
ím	-8.84547
▁velice	-8.84559
▁rozdíl	-8.84654
▁světě	-8.85183
▁můžeme	-8.85675
▁malé	-8.85955
▁ni	-8.86067
re	-8.86428
ale	-8.86467
▁nez	-8.86487
▁dát	-8.86543
▁důležité	-8.86588
▁použití	-8.86682
▁sebou	-8.8669
▁spíše	-8.86797
ovala	-8.8697
▁docela	-8.86983
▁přesto	-8.8734
čí	-8.87489
▁nová	-8.87585
▁las	-8.87729
ním	-8.87925
▁místa	-8.87949
▁domácí	-8.87976
▁večer	-8.88554
▁nějak	-8.88626
▁město	-8.88706
▁moderní	-8.88726
▁bonusové	-8.88885
za	-8.8891
nice	-8.8927
▁mohli	-8.89397
▁tě	-8.89427
▁informací	-8.89494
co	-8.89517
▁letos	-8.89528
▁většinou	-8.89815
▁vklad	-8.89956
▁vody	-8.90153
nosti	-8.90376
če	-8.9046
▁málo	-8.90508
▁přístup	-8.90612
▁nebyl	-8.90826
▁prosím	-8.9088
▁web	-8.90944
▁zboží	-8.91059
wikipedia	-8.91192
▁jaké	-8.91328
de	-8.91416
▁cm	-8.91472
▁nebylo	-8.91491
▁rádi	-8.91585
▁trhu	-8.9175
▁tisíc	-8.9191
ila	-8.92008
▁takový	-8.92016
▁náš	-8.92118
▁in	-8.92416
pa	-8.92827
▁třetí	-8.92934
ří	-8.93063
▁hotel	-8.93192
▁kol	-8.932
▁kon	-8.9321
▁pc	-8.93632
▁www	-8.93703
▁umožňuje	-8.93964
▁httpsc	-8.93968
▁způsobem	-8.9423
▁dostat	-8.94321
▁petr	-8.94324
es	-8.94518
▁základě	-8.94716
ty	-8.94933
▁zemi	-8.95043
is	-8.95355
ve	-8.95356
▁naprosto	-8.9543
děl	-8.95451
▁jedné	-8.95521
▁dovede	-8.95783
ú	-8.95806
ru	-8.95954
an	-8.9599
▁finanční	-8.95998
▁druhý	-8.96035
▁vý	-8.96087
▁nes	-8.96242
▁sami	-8.96449
▁dříve	-8.96542
▁originální	-8.96549
▁platí	-8.96632
▁přitom	-8.96774
▁model	-8.9689
▁nového	-8.96935
▁číslo	-8.97209
▁použít	-8.9743
▁autor	-8.97435
▁tolik	-8.97691
▁mohu	-8.98119
▁štěstí	-8.98284
▁kvalitní	-8.98316
▁týden	-8.98356
ních	-8.98417
vy	-8.98418
ry	-8.9859
▁stav	-8.98616
▁the	-8.98858
▁výběr	-8.98866
▁webu	-8.98937
▁programu	-8.99027
▁názvem	-8.99073
▁století	-8.9925
ov	-8.99509
▁zpět	-8.99698
▁%	-8.99885
▁dětí	-9.00014
▁roztočení	-9.00143
▁film	-9.00174
di	-9.00694
lou	-9.00766
▁výše	-9.00817
▁rozhodnutí	-9.01027
▁ně	-9.01086
▁kolik	-9.01399
▁budeme	-9.01481
▁pohled	-9.01516
ická	-9.0168
vě	-9.01729
▁bychom	-9.01764
▁problémy	-9.01902
ro	-9.01923
▁mohla	-9.01988
▁zákona	-9.02025
uji	-9.0208
▁situace	-9.02093
ková	-9.02147
▁domu	-9.023
▁snadno	-9.02367
on	-9.02434
▁domů	-9.02443
do	-9.02486
▁ním	-9.02526
▁výsledky	-9.02597
▁dostal	-9.02604
▁obsahuje	-9.02659
▁straně	-9.02812
▁her	-9.02844
▁čtyři	-9.02875
▁mnoha	-9.02941
▁svém	-9.03095
ii	-9.03169
▁sociální	-9.03246
▁?	-9.03331
▁nových	-9.03818
▁vedení	-9.0394
▁roky	-9.04028
tr	-9.04052
ovaná	-9.04064
▁vypadá	-9.04109
▁konkrétní	-9.04508
▁mne	-9.04731
▁usa	-9.04785
#.	-9.04896
▁stejné	-9.04941
▁tzv	-9.04984
▁ná	-9.04997
▁stačí	-9.05058
▁ch	-9.05119
▁kola	-9.05312
▁možnosti	-9.05321
▁š	-9.05348
▁velkou	-9.05383
▁bar	-9.05496
▁vedle	-9.05594
ter	-9.05601
ili	-9.05721
et	-9.05791
▁new	-9.05824
▁kasinové	-9.05879
ic	-9.05945
▁pa	-9.06295
▁projektu	-9.06446
▁jiných	-9.06464
kách	-9.0651
▁aplikace	-9.06518
▁chtějí	-9.06532
▁stavu	-9.06535
▁tým	-9.06652
▁mm	-9.0688
▁využít	-9.06883
▁současné	-9.06919
▁pozici	-9.07437
▁prvním	-9.07463
▁snaží	-9.0768
▁zákon	-9.07975
▁zájem	-9.07985
!!!	-9.08049
▁ha	-9.08374
▁služeb	-9.08404
sko	-9.08437
▁jednání	-9.08591
▁jiný	-9.08696
▁plus	-9.08998
by	-9.09041
▁jiného	-9.09094
▁nicméně	-9.09108
▁sama	-9.09233
▁státní	-9.09489
▁mělo	-9.0952
si	-9.09574
▁nabídky	-9.09601
▁dal	-9.09626
▁pomoci	-9.09684
vat	-9.09793
▁kterých	-9.09849
▁skupiny	-9.10039
▁menší	-9.10125
▁výkon	-9.1027
▁vysoké	-9.10276
▁skutečné	-9.10326
▁každého	-9.10395
ců	-9.10445
▁nějakou	-9.10552
▁pomoc	-9.10754
▁w	-9.10844
ed	-9.10992
▁oba	-9.11064
▁téma	-9.11164
tí	-9.11202
▁naši	-9.11242
▁začátku	-9.11301
▁paní	-9.11311
▁hodnocení	-9.1146
ovaný	-9.11491
▁cestu	-9.11492
▁začal	-9.11513
▁ko	-9.11565
▁dům	-9.11627
▁šanci	-9.1165
kové	-9.11691
ť	-9.1184
▁přijde	-9.1205
▁webové	-9.12124
▁poměrně	-9.1224
▁projekt	-9.12246
ber	-9.12295
▁pěti	-9.12442
▁musím	-9.12518
▁hodiny	-9.12526
▁mně	-9.12577
▁činohra	-9.12578
▁skoro	-9.12604
man	-9.12623
▁speciální	-9.12639
jí	-9.12726
▁radost	-9.12727
▁odpověď	-9.12826
▁verze	-9.12836
▁soubor	-9.12918
▁jakmile	-9.12944
▁ba	-9.12982
▁klubu	-9.1301
▁cz	-9.13461
▁eu	-9.13508
▁jackpoty	-9.13598
▁našeho	-9.1361
▁procent	-9.13622
▁konci	-9.13682
ska	-9.13768
▁prý	-9.13793
▁výherní	-9.13878
▁vhodné	-9.13966
▁nedo	-9.14029
▁nutné	-9.14192
▁čím	-9.1428
▁druhou	-9.14299
▁dítě	-9.14347
▁česká	-9.14549
▁některých	-9.14734
▁soutěže	-9.14745
▁viz	-9.1483
▁rovněž	-9.14896
ání	-9.14906
▁ženy	-9.14963
▁občas	-9.15032
▁možností	-9.15055
?!	-9.15302
čka	-9.15474
ha	-9.15536
▁začít	-9.15549
▁podmínky	-9.15636
▁novou	-9.15641
▁poprvé	-9.15726
▁typu	-9.15967
▁motor	-9.16003
▁dr	-9.1609
▁software	-9.16098
▁velká	-9.16176
ovací	-9.1629
▁hráčů	-9.16303
▁tímto	-9.16405
▁vybrat	-9.16542
ák	-9.16645
▁září	-9.16757
▁dní	-9.1691
vi	-9.17054
▁ráda	-9.17102
▁martin	-9.17159
▁tradiční	-9.17497
▁náklady	-9.17616
▁muž	-9.17639
▁buď	-9.17656
▁popis	-9.17752
▁nejvyšší	-9.17811
▁potřeba	-9.17834
▁neo	-9.17978
▁území	-9.18041
▁společně	-9.18147
val	-9.18366
▁blaník	-9.18393
osti	-9.18429
ém	-9.18429
bu	-9.18483
▁kterým	-9.18492
▁jednoduše	-9.18575
ští	-9.18636
▁internet	-9.18726
▁zajímavé	-9.18754
▁osobně	-9.18929
du	-9.19053
▁foto	-9.19102
▁šance	-9.19198
▁spoustu	-9.19355
nout	-9.19444
ví	-9.19557
▁uvnitř	-9.19675
▁nemám	-9.19731
ina	-9.19801
▁dat	-9.1996
▁hrál	-9.19984
let	-9.20011
▁utkání	-9.20058
▁května	-9.2015
▁abych	-9.20153
▁posledních	-9.20222
▁neboť	-9.20292
or	-9.20448
▁nemůže	-9.20495
os	-9.20522
▁vím	-9.20548
▁spíš	-9.2062
▁případně	-9.20706
▁hod	-9.20809
▁škol	-9.20842
▁lépe	-9.20905
▁knihy	-9.21101
▁přece	-9.21558
▁konečně	-9.21581
▁sajid	-9.21613
▁sportovní	-9.21627
lá	-9.21791
▁km	-9.21861
▁vaší	-9.21935
▁pravděpodobně	-9.21999
▁někteří	-9.22055
▁mo	-9.2206
▁požadavky	-9.2215
▁seznam	-9.2219
▁existují	-9.22211
▁automat	-9.22357
▁dny	-9.2236
▁ma	-9.22391
▁říct	-9.22424
▁návrh	-9.22426
▁jehož	-9.22452
▁obou	-9.22478
▁maximální	-9.22548
pl	-9.22709
▁jednotlivých	-9.22883
▁energie	-9.22931
▁řadu	-9.23056
▁zřejmě	-9.23132
▁pozor	-9.23147
▁sv	-9.23293
▁stolní	-9.23348
▁jež	-9.23361
▁ovoce	-9.23402
▁republiky	-9.23471
▁typ	-9.23575
▁daleko	-9.23714
▁akci	-9.2384
▁článku	-9.2414
ři	-9.24167
▁ona	-9.24231
▁dělá	-9.24296
▁místní	-9.24753
mě	-9.24783
▁firma	-9.24863
▁ideální	-9.24912
sky	-9.25284
▁situaci	-9.2535
▁začíná	-9.25716
▁měsíc	-9.25748
▁činnosti	-9.25761
▁zdá	-9.25772
▁věcí	-9.25893
▁střední	-9.25931
▁provedení	-9.2601
ga	-9.26114
▁umístění	-9.26465
tak	-9.2669
▁druh	-9.26915
▁cílem	-9.26937
▁vašeho	-9.27085
ických	-9.27122
sa	-9.2718
▁českých	-9.27229
mo	-9.27377
ství	-9.27524
vý	-9.27622
▁pozice	-9.27626
▁zrovna	-9.27911
▁původní	-9.27958
▁vydělat	-9.2796
▁ráno	-9.28102
▁mil	-9.28226
▁text	-9.28262
▁konce	-9.28312
▁nimi	-9.28334
▁obvykle	-9.2836
tá	-9.2839
▁nelze	-9.28434
▁tehdy	-9.28468
▁celém	-9.28574
▁musíte	-9.28674
ickou	-9.29014
▁někde	-9.29021
▁státu	-9.29055
▁postupně	-9.29086
▁moci	-9.29127
▁tentokrát	-9.29224
▁dává	-9.29288
▁starší	-9.2934
dy	-9.29363
▁máš	-9.29427
ního	-9.29479
▁nemusí	-9.29682
▁zdraví	-9.29739
▁mé	-9.29796
▁člověka	-9.2981
▁nena	-9.30048
▁prodej	-9.301
▁soud	-9.30105
#,	-9.30232
▁tvoří	-9.30245
sku	-9.30293
▁jméno	-9.30432
▁takto	-9.30448
▁vyzkoušet	-9.30472
▁apod	-9.30691
▁dnešní	-9.30791
▁sobotu	-9.30873
▁bod	-9.30931
▁slova	-9.30933
ovaných	-9.30969
▁vede	-9.3097
▁český	-9.31016
▁jich	-9.31123
ček	-9.31152
▁pravidla	-9.31183
orgwiki	-9.312
▁oni	-9.31232
▁bodů	-9.31289
▁noc	-9.31308
▁mohlo	-9.31319
▁plán	-9.31461
▁cesta	-9.31493
th	-9.31517
▁měly	-9.31519
ými	-9.31546
str	-9.31586
▁noci	-9.3159
▁výši	-9.31932
▁stránek	-9.31993
▁trh	-9.32155
▁jiří	-9.3219
ala	-9.32245
▁ruce	-9.32281
▁podobně	-9.3236
▁názor	-9.32409
▁stažení	-9.32527
kon	-9.32528
▁nabízíme	-9.32574
▁ali	-9.32649
▁telefon	-9.32654
ají	-9.33116
▁stránkách	-9.3316
▁di	-9.33216
▁následně	-9.3338
ační	-9.33381
▁právo	-9.33417
▁došlo	-9.33535
▁stal	-9.33728
ický	-9.33829
▁led	-9.34002
stav	-9.34079
▁důvod	-9.34108
▁prahy	-9.34133
bo	-9.34207
▁kasin	-9.34311
▁týmu	-9.344
▁vývoj	-9.34484
▁le	-9.34685
▁nebyla	-9.34701
▁nejde	-9.34836
▁nepro	-9.34837
▁poskytuje	-9.35037
jší	-9.35207
▁brzy	-9.35233
ar	-9.35517
ník	-9.35593
▁hor	-9.35618
dě	-9.35693
▁organizace	-9.35807
▁obchodní	-9.35831
▁uvedl	-9.3584
▁lety	-9.35964
▁zhruba	-9.36123
ck	-9.36261
▁hot	-9.36429
▁příjemné	-9.36545
▁ředitel	-9.36636
▁karolínka	-9.36669
id	-9.3668
bí	-9.36729
▁dalším	-9.36789
ův	-9.36886
hod	-9.36902
▁pravda	-9.36947
hu	-9.3701
▁rady	-9.37049
▁vzrušující	-9.37147
▁existuje	-9.37172
▁každou	-9.3718
▁kterého	-9.37217
▁jenže	-9.37247
▁přišel	-9.37249
▁nastavení	-9.37297
▁provoz	-9.37504
▁míst	-9.37635
▁styl	-9.37695
▁evropské	-9.37719
▁čeká	-9.37762
▁příběh	-9.37762
▁celá	-9.37762
▁průběhu	-9.3779
▁obě	-9.37845
▁muset	-9.37864
▁zvláštní	-9.3791
▁výrazně	-9.37999
ke	-9.38028
▁cesty	-9.38071
▁normální	-9.38154
▁nově	-9.38173
pro	-9.38185
▁setkání	-9.38215
▁nabízejí	-9.38271
▁počasí	-9.38276
▁musel	-9.3833
▁ahoj	-9.38474
▁syn	-9.3848
▁postup	-9.38552
▁příležitost	-9.38722
ujeme	-9.38787
▁začala	-9.38803
▁materiál	-9.38903
▁obce	-9.38965
▁li	-9.39222
▁pi	-9.39348
com	-9.39363
▁kterém	-9.39384
té	-9.39413
▁vliv	-9.39504
▁mp	-9.3951
▁účet	-9.39559
▁jednom	-9.39594
▁komise	-9.39628
▁ubytování	-9.3964
▁nejprve	-9.39678
▁jaký	-9.39678
ovými	-9.39702
▁aktuální	-9.39971
▁osob	-9.39987
▁jednoduché	-9.40027
▁top	-9.40039
▁smlouvy	-9.4006
▁nemají	-9.40167
▁název	-9.40258
▁he	-9.40272
▁důvodu	-9.40296
▁populární	-9.40374
▁technologie	-9.40444
▁výsledek	-9.40559
▁stran	-9.40568
▁dostanete	-9.40727
▁mobilní	-9.40783
▁podstatě	-9.40855
▁činnost	-9.40948
▁neustále	-9.41047
▁národní	-9.41053
▁chtěla	-9.41076
▁podporu	-9.41111
▁jasné	-9.41139
▁horní	-9.41191
od	-9.41224
▁cen	-9.41228
▁řada	-9.41238
▁deset	-9.41258
ován	-9.41386
ovy	-9.41388
▁sport	-9.41393
▁umí	-9.41505
▁měsíce	-9.41547
▁stranu	-9.41577
▁měsíců	-9.41666
▁námi	-9.41774
▁filmu	-9.41799
▁směrem	-9.41809
▁provozu	-9.41848
čky	-9.41927
▁klub	-9.42184
▁pátek	-9.42224
▁klasické	-9.42252
▁změny	-9.42384
▁pokoje	-9.4247
▁okamžitě	-9.42497
▁mého	-9.42547
nej	-9.42549
▁zas	-9.42597
át	-9.42672
▁te	-9.42703
▁neměl	-9.42735
▁působí	-9.42928
▁vstup	-9.42938
▁podobě	-9.43072
▁stalo	-9.43091
bi	-9.43209
▁tv	-9.43323
ici	-9.43364
▁nechat	-9.43389
▁případ	-9.43478
▁byt	-9.43581
▁vytvořit	-9.43615
vol	-9.43638
▁malý	-9.43799
▁slov	-9.43883
▁me	-9.4401
▁spousta	-9.44026
▁plně	-9.44056
▁využití	-9.44134
▁zápas	-9.44154
▁tomáš	-9.44168
ční	-9.44186
▁bo	-9.44236
▁nepři	-9.44241
▁volný	-9.44242
▁auta	-9.44251
▁podobné	-9.44297
▁sto	-9.44311
▁městě	-9.44404
▁ihned	-9.44499
▁vždycky	-9.44706
▁mobil	-9.44801
▁oblast	-9.44851
▁jelikož	-9.44855
▁httpwww	-9.45017
▁středu	-9.45058
íme	-9.45163
▁takhle	-9.4524
▁oči	-9.45289
▁čtyř	-9.45493
sk	-9.45594
▁obraz	-9.45601
▁ruleta	-9.45674
▁podařilo	-9.45689
▁funguje	-9.45829
▁chtít	-9.45883
pe	-9.45937
▁hraje	-9.46046
kč	-9.46106
▁taková	-9.46113
nutí	-9.46298
▁raději	-9.46334
▁os	-9.46494
▁českého	-9.46589
▁kole	-9.46627
▁bi	-9.46695
▁videohry	-9.46809
▁lidem	-9.46861
▁roze	-9.469
ovém	-9.46913
▁celého	-9.47058
▁tj	-9.47111
▁práva	-9.47166
▁předem	-9.47171
▁dvěma	-9.47202
▁hudební	-9.47203
▁dokud	-9.47234
▁vedoucí	-9.47283
▁centra	-9.47291
▁dlouhé	-9.47315
▁řadě	-9.47378
▁spolupráci	-9.47397
▁žádná	-9.47411
▁zemí	-9.47439
▁ví	-9.4747
▁rychlé	-9.47537
▁roli	-9.4758
▁beste	-9.47843
▁delší	-9.47887
▁nepře	-9.47918
▁denně	-9.48085
▁krásné	-9.48093
▁uvádí	-9.48128
▁hokej	-9.48135
ur	-9.48176
▁věku	-9.4833
ali	-9.4834
▁prostoru	-9.48408
br	-9.48478
▁nichž	-9.48487
ejte	-9.48628
▁napsal	-9.48637
▁rukou	-9.48656
▁data	-9.48775
▁doufám	-9.48775
icky	-9.48911
▁design	-9.48945
▁řad	-9.49017
▁zpracování	-9.49048
▁mezinárodní	-9.49049
▁symboly	-9.49249
▁kraj	-9.49268
▁be	-9.49539
▁skvělé	-9.49606
▁úrovni	-9.49613
▁spojení	-9.49626
▁staré	-9.49642
▁internetové	-9.49726
ujte	-9.49763
▁stejný	-9.49846
ó	-9.49876
ském	-9.49896
▁teprve	-9.4993
▁škoda	-9.50035
▁karty	-9.50044
▁sázení	-9.50071
▁nižší	-9.50107
▁výrobce	-9.50227
▁pr	-9.50246
ver	-9.50253
▁podívat	-9.50283
nit	-9.50342
▁plné	-9.50434
▁ja	-9.50461
ob	-9.50465
▁koupit	-9.50479
▁prakticky	-9.50509
▁ž	-9.50554
ár	-9.50583
▁značky	-9.50787
▁tělo	-9.50808
▁pohledu	-9.50864
▁body	-9.50984
▁slovo	-9.51014
sta	-9.51156
či	-9.51316
▁nejlépe	-9.51385
▁tvrdí	-9.51399
▁vlády	-9.51446
▁kasinech	-9.51512
▁lu	-9.51544
▁abychom	-9.51621
▁podíl	-9.51745
▁stane	-9.51783
▁centrum	-9.51845
ca	-9.51892
kám	-9.52003
min	-9.52029
▁minimální	-9.52088
▁rodiče	-9.52141
▁jasně	-9.52149
ler	-9.5218
▁níž	-9.52211
ál	-9.52341
▁automatů	-9.52456
▁někoho	-9.52507
su	-9.52633
▁kraje	-9.52691
be	-9.52702
▁listopadu	-9.52722
▁vaši	-9.52735
▁veřejné	-9.52828
▁dosud	-9.52902
zi	-9.52925
▁vybavení	-9.52939
▁boj	-9.52975
▁srdce	-9.52984
▁funkcí	-9.52992
▁obsah	-9.5305
▁představuje	-9.53143
ol	-9.53181
▁obrovské	-9.53263
▁teda	-9.53276
▁závod	-9.53289
???	-9.53406
▁používat	-9.53473
go	-9.53481
▁metrů	-9.53486
▁svoji	-9.53584
ct	-9.53592
ner	-9.53642
▁str	-9.53671
ši	-9.5377
▁šest	-9.53837
▁aktivní	-9.53944
▁pe	-9.53951
▁fotografie	-9.53988
▁okolo	-9.54053
▁zelenom	-9.54214
▁pravidelně	-9.54255
▁pole	-9.54345
▁dnů	-9.54386
▁republice	-9.54448
▁smysl	-9.54471
▁hře	-9.54474
▁následující	-9.54617
ant	-9.54653
▁každá	-9.54693
▁díl	-9.54749
▁pl	-9.54848
nými	-9.5488
▁důvodů	-9.54974
▁prezident	-9.54975
▁hotelu	-9.55027
▁ode	-9.55039
▁jana	-9.55041
ri	-9.55161
▁člen	-9.55302
▁kniha	-9.55373
ď	-9.55451
▁spojené	-9.55478
ovány	-9.55498
▁muže	-9.55546
sp	-9.55662
▁výhru	-9.55825
▁těžké	-9.56077
▁oproti	-9.56077
▁schopni	-9.56107
▁kompletní	-9.56157
▁řešit	-9.56231
▁obyvatel	-9.56308
▁právní	-9.56337
▁půjčky	-9.56495
▁osoby	-9.56584
▁man	-9.56653
▁bezplatné	-9.56671
▁vnitřní	-9.56724
▁skupina	-9.56758
▁veškeré	-9.56776
den	-9.56831
▁samo	-9.56889
▁potřeby	-9.56935
▁dnech	-9.57048
▁našem	-9.57049
▁aspoň	-9.57063
▁sp	-9.57075
▁hlediska	-9.57124
▁pra	-9.57185
▁per	-9.57267
▁odkaz	-9.57284
▁ex	-9.57398
▁najednou	-9.57497
▁email	-9.57535
uju	-9.57586
▁svými	-9.57595
▁vlastnosti	-9.57612
▁mar	-9.57773
▁bingo	-9.57862
▁vědět	-9.57961
▁kategorie	-9.58006
byt	-9.5802
▁řady	-9.58074
son	-9.58081
▁chtěli	-9.5811
▁šel	-9.58134
▁obchod	-9.58185
▁policie	-9.58244
▁voda	-9.58415
▁správné	-9.58479
▁životě	-9.58496
še	-9.58552
▁otázka	-9.58565
▁líbí	-9.58575
▁nabídka	-9.58588
▁náměstí	-9.58596
▁škola	-9.58663
▁význam	-9.58686
ge	-9.58719
▁konec	-9.58896
▁druhá	-9.5898
▁údaje	-9.59021
▁vz	-9.59072
▁vydání	-9.59231
▁book	-9.59283
▁ga	-9.59304
▁du	-9.59316
▁pavel	-9.59332
▁všude	-9.59336
▁opatření	-9.59363
▁doba	-9.59387
▁píše	-9.59441
▁zvýšení	-9.59444
▁pomalu	-9.59499
▁neděli	-9.59659
▁též	-9.5968
▁příští	-9.5975
▁celkové	-9.59801
▁pre	-9.59817
▁přináší	-9.59932
▁rozvoj	-9.60009
▁turnaje	-9.6013
▁ulici	-9.60166
▁pán	-9.60203
ální	-9.60228
▁zdravotní	-9.60243
bou	-9.60302
kr	-9.60478
▁sou	-9.60528
▁hlas	-9.60542
▁naleznete	-9.60573
▁vynikající	-9.60586
▁chuť	-9.60625
▁umožní	-9.60638
▁vztah	-9.60769
ené	-9.60816
▁studii	-9.60852
▁stávající	-9.60909
▁nejsem	-9.60942
▁symbol	-9.61016
▁park	-9.61105
▁snadné	-9.61198
▁podniky	-9.61235
▁zadní	-9.6126
▁viděl	-9.61287
▁platit	-9.61346
▁výběru	-9.61411
▁žen	-9.61485
lin	-9.61541
▁zdroj	-9.61566
▁dobrou	-9.61604
▁ostatních	-9.61606
as	-9.61647
▁zprávy	-9.61672
▁rozhodl	-9.61683
▁umění	-9.61704
žit	-9.61778
▁každém	-9.61789
▁otázky	-9.6179
▁jediné	-9.61792
ičky	-9.619
▁osm	-9.61935
▁ohledu	-9.6198
▁přední	-9.61999
▁nedávno	-9.62028
▁max	-9.62058
dr	-9.62085
▁správně	-9.62148
▁dotaz	-9.62174
▁ono	-9.62257
▁ru	-9.6229
▁dobrá	-9.62291
▁články	-9.62427
ovanou	-9.62451
▁stavební	-9.62548
▁rodiny	-9.6256
▁žena	-9.62621
▁škole	-9.62635
▁používá	-9.62753
▁počtu	-9.62807
▁cíl	-9.62879
dí	-9.6291
▁stránce	-9.62917
▁centru	-9.62944
▁st	-9.63008
▁zábavu	-9.63046
ak	-9.63084
▁fa	-9.63104
▁kajot	-9.63196
▁životní	-9.63301
▁hlavním	-9.63429
▁sk	-9.63459
▁prvních	-9.63628
▁sta	-9.63638
▁sítě	-9.63638
▁vys	-9.63761
kami	-9.63773
▁ven	-9.63789
▁funkci	-9.6384
hl	-9.63894
▁úřad	-9.63906
▁velikost	-9.63988
▁elektro	-9.64042
▁těla	-9.64056
per	-9.64172
▁šlo	-9.64215
▁barvy	-9.64222
▁vůči	-9.64308
▁špatně	-9.64427
▁min	-9.64432
▁včera	-9.64644
▁malá	-9.64659
▁dar	-9.6467
▁většinu	-9.6472
▁jednotlivé	-9.64723
▁pojištění	-9.64729
▁pracovat	-9.64751
▁známé	-9.64762
mat	-9.64842
▁cestě	-9.64901
▁problémů	-9.64921
▁oddělení	-9.6496
▁vyhrál	-9.64997
▁nebezpečí	-9.65008
▁velikosti	-9.65064
ilo	-9.65086
▁liber	-9.65123
ička	-9.65136
ík	-9.65372
▁brně	-9.65383
ským	-9.65647
▁materiálu	-9.65693
▁mat	-9.65696
▁titul	-9.65704
▁možno	-9.65713
ton	-9.65736
▁třídy	-9.65886
▁nabídnout	-9.65935
▁mas	-9.65937
nic	-9.65955
▁pravděpodobnost	-9.65986
▁objeví	-9.65989
▁sedm	-9.66
ent	-9.66006
▁jídlo	-9.66021
▁vzít	-9.66031
▁virtuální	-9.66081
ot	-9.66155
▁slouží	-9.66179
▁udělal	-9.6626
▁výzkum	-9.66355
▁dosáhnout	-9.66405
▁prvního	-9.66534
čit	-9.66575
iště	-9.66618
▁dph	-9.66722
▁lo	-9.66762
▁evropě	-9.66767
▁pravdu	-9.668
▁ka	-9.66827
▁hodnoty	-9.66837
ží	-9.66884
lit	-9.66896
▁turbo	-9.66928
ané	-9.66998
▁vážně	-9.67011
▁nápad	-9.67057
▁sledovat	-9.67084
▁pane	-9.67117
▁dokáže	-9.6714
▁euro	-9.67253
▁zvuk	-9.67343
iny	-9.67363
▁musíme	-9.67403
▁nesmí	-9.6767
▁růst	-9.67697
▁připojení	-9.67861
▁příspěvek	-9.67908
▁pokračovat	-9.67958
▁pozornost	-9.68111
▁soudu	-9.68145
▁obecně	-9.68156
▁místech	-9.68156
▁péče	-9.68181
▁ods	-9.68248
pat	-9.68281
▁mini	-9.68307
▁cesky	-9.68367
▁termín	-9.68438
▁jediný	-9.68498
ována	-9.68506
sh	-9.68563
▁david	-9.68572
▁restaurace	-9.68622
▁pondělí	-9.68653
ik	-9.68754
izzling	-9.68781
▁kojot	-9.68968
▁chování	-9.68989
▁bryan	-9.69011
sti	-9.69018
▁letošní	-9.69165
▁těžko	-9.69179
▁začne	-9.69197
▁přestože	-9.69207
ad	-9.69218
ště	-9.6924
▁ro	-9.69347
▁ml	-9.69578
▁sb	-9.69601
▁nijak	-9.69617
čení	-9.69641
▁dveře	-9.69738
▁příjmy	-9.69804
kov	-9.69813
▁nedá	-9.69827
▁hrad	-9.69842
▁pokoj	-9.69938
▁nadále	-9.70014
▁přehled	-9.70022
▁technické	-9.70074
eb	-9.70077
▁pěkně	-9.70143
▁zjistit	-9.7016
▁typy	-9.70259
▁webových	-9.70411
▁neod	-9.70427
nění	-9.70475
▁pu	-9.70548
▁říci	-9.70564
▁bezpečnostní	-9.70592
▁října	-9.70674
▁videa	-9.70684
▁dalšího	-9.70742
▁fi	-9.70793
vr	-9.70903
čku	-9.70963
▁případech	-9.70981
▁oblíbené	-9.71058
ment	-9.71097
▁sdružení	-9.71132
▁obehrát	-9.71192
▁václav	-9.71198
▁soutěž	-9.71225
▁da	-9.71275
▁kontaktní	-9.71277
▁dneska	-9.7129
▁světové	-9.7139
nka	-9.71456
▁výkonu	-9.71473
der	-9.71528
▁tabulky	-9.71629
▁op	-9.71822
▁extra	-9.71835
▁stanice	-9.71862
▁minimálně	-9.71918
áz	-9.71952
▁kategorii	-9.71964
▁er	-9.7198
▁nejnovější	-9.72047
▁výherních	-9.72089
ul	-9.72129
▁hledat	-9.7218
▁prostředky	-9.7219
▁řekla	-9.72205
▁cestou	-9.72267
ruš	-9.72428
▁určité	-9.72437
▁tr	-9.7244
▁čase	-9.72525
▁dolů	-9.72646
▁náhodou	-9.72704
ia	-9.72821
▁společností	-9.72878
▁ing	-9.72962
op	-9.72976
▁vysoce	-9.72995
▁války	-9.73044
tek	-9.73045
dl	-9.7308
▁!	-9.73189
▁cíle	-9.7339
▁verzi	-9.73608
▁hrají	-9.73684
▁sil	-9.73724
▁takovou	-9.73749
vou	-9.73999
▁dubna	-9.74068
▁přičemž	-9.74092
pu	-9.74121
pí	-9.74147
▁dárky	-9.7418
▁bezplatně	-9.74191
kl	-9.74192
cm	-9.74193
▁klidně	-9.74227
▁pomůže	-9.74232
▁provést	-9.745
▁používáme	-9.74517
▁zajistit	-9.74524
▁závěr	-9.74528
▁kurz	-9.74615
men	-9.74666
ja	-9.7471
bal	-9.74737
▁dvakrát	-9.74762
▁stůl	-9.74804
ií	-9.74878
▁jižní	-9.74918
▁cit	-9.74939
▁prací	-9.74943
mer	-9.74949
▁mnou	-9.75043
sí	-9.75057
▁děje	-9.75182
▁jejím	-9.75224
▁evropy	-9.75357
▁kombinace	-9.75366
▁manžel	-9.7538
▁unikátní	-9.75392
▁pat	-9.75416
▁skončil	-9.75743
plat	-9.75835
▁standardní	-9.75836
▁čtvrtek	-9.75916
▁znám	-9.7598
▁přání	-9.76129
▁současně	-9.76224
▁bu	-9.76227
▁abyste	-9.76268
▁řád	-9.76355
▁získal	-9.76414
▁hlavu	-9.76421
▁dárek	-9.76426
▁kor	-9.76678
my	-9.76721
▁velkých	-9.76781
▁el	-9.76852
▁těšit	-9.76873
▁dostupné	-9.76885
nici	-9.76909
▁jenž	-9.76913
▁ca	-9.77042
▁šp	-9.77049
▁technologií	-9.7708
▁avšak	-9.77283
▁podmínek	-9.7733
▁dopravní	-9.77386
▁schopnost	-9.77455
▁prvky	-9.77458
bor	-9.77539
▁půjčka	-9.7756
▁vláda	-9.77562
▁června	-9.77563
▁hrat	-9.77595
▁al	-9.77625
▁členové	-9.77837
▁nejdříve	-9.77861
▁udržet	-9.77869
▁skupin	-9.7788
▁ps	-9.77898
▁proces	-9.77984
▁druhy	-9.77988
▁kombinaci	-9.7799
▁nabídku	-9.78046
▁kop	-9.78112
▁odst	-9.7819
▁es	-9.78233
▁nebudou	-9.78252
▁víte	-9.78424
net	-9.78488
▁původně	-9.78504
▁těm	-9.78516
▁stává	-9.78523
▁jejichž	-9.78603
▁ročník	-9.78617
kovi	-9.7863
▁aut	-9.78639
ster	-9.78648
▁profesionální	-9.78673
▁strana	-9.78675
▁oboru	-9.78717
án	-9.78737
▁svoje	-9.78872
▁jiná	-9.78918
▁windows	-9.78957
▁účast	-9.78977
▁kg	-9.78981
▁tri	-9.79027
▁režim	-9.79029
▁lid	-9.79044
fa	-9.79069
▁cvičení	-9.79094
rt	-9.79105
q	-9.79208
ovalo	-9.79233
▁poplatek	-9.79248
▁omezení	-9.79326
▁michal	-9.79332
nul	-9.79342
▁ministr	-9.79447
▁změnit	-9.79461
▁blízko	-9.79497
▁skutečnost	-9.79513
sil	-9.79638
▁car	-9.79656
vod	-9.79671
▁chybí	-9.79693
▁zahraničí	-9.79703
▁mal	-9.79706
▁zeptat	-9.7971
▁ok	-9.79761
▁souvislosti	-9.79883
▁úspěch	-9.79886
▁pobyt	-9.79911
▁hvězd	-9.79942
▁vlasy	-9.80017
▁starý	-9.8003
▁drží	-9.80141
▁srovnání	-9.80163
ovo	-9.8018
bit	-9.80184
▁museli	-9.80439
▁komunikace	-9.80474
▁muži	-9.80477
▁pořádku	-9.80629
▁strategie	-9.80858
stup	-9.80956
ral	-9.8096
▁léta	-9.81005
▁rychlost	-9.81027
▁sprinklers	-9.8105
▁místnosti	-9.8128
▁akcí	-9.81478
▁horší	-9.81483
▁odpoledne	-9.81513
▁péči	-9.81524
ném	-9.81563
▁jinou	-9.81596
▁go	-9.81655
▁tvar	-9.81745
▁ukazuje	-9.81779
▁ms	-9.81791
zu	-9.81805
▁pohyb	-9.81934
▁obrovský	-9.81991
▁fotky	-9.81998
▁svému	-9.82002
▁anebo	-9.82017
▁dostala	-9.82224
▁start	-9.82288
▁bio	-9.82299
▁zásadní	-9.82337
▁zkušenost	-9.82388
▁nejméně	-9.82425
▁test	-9.82511
pad	-9.82522
▁multi	-9.82608
ut	-9.82721
▁zůstává	-9.82748
▁dostali	-9.8282
▁formou	-9.82824
▁zisk	-9.8284
▁jídelní	-9.82875
▁vánoční	-9.82962
kovou	-9.82975
▁nechce	-9.83001
▁režimu	-9.83034
▁přírodní	-9.83188
▁josef	-9.83272
▁dochází	-9.83272
▁nahoru	-9.83283
▁stala	-9.83348
▁krok	-9.83351
▁zkuste	-9.83356
▁zábavné	-9.83407
▁výplaty	-9.83445
▁pozitivní	-9.83454
▁snížení	-9.83512
▁úterý	-9.83523
▁výhody	-9.83527
▁velkým	-9.83537
▁ii	-9.83631
▁kousek	-9.83652
▁vámi	-9.83711
▁úřadu	-9.83723
pal	-9.83725
▁uživatele	-9.83852
▁víkend	-9.83882
▁free	-9.83894
▁státy	-9.83932
▁tisk	-9.84042
▁přinést	-9.84137
▁stavby	-9.84178
▁produkt	-9.84212
▁minulosti	-9.84264
▁smrti	-9.84295
ss	-9.84319
▁předtím	-9.84371
▁světlo	-9.84396
▁plánu	-9.84552
▁vod	-9.84567
▁val	-9.84633
▁post	-9.84691
▁rad	-9.84717
▁druhém	-9.84739
▁kus	-9.84846
▁digitální	-9.8486
▁vzdělávání	-9.84884
▁mou	-9.8494
▁servis	-9.84952
▁pryč	-9.84984
▁zatočení	-9.84997
▁spolupráce	-9.85104
▁ge	-9.85212
▁for	-9.85331
nek	-9.85399
▁můžu	-9.85441
▁hazardních	-9.85495
▁luxusní	-9.855
▁bor	-9.85559
▁tebe	-9.85567
▁chyb	-9.85635
▁pes	-9.85678
▁němu	-9.85688
▁částku	-9.85709
▁provádět	-9.85717
▁pracuje	-9.85727
▁kr	-9.85737
▁sazky	-9.85737
tý	-9.85777
▁moře	-9.85782
▁br	-9.85807
▁události	-9.85837
land	-9.85865
▁hlad	-9.85873
▁dvacet	-9.85901
▁vrchol	-9.85951
▁produkty	-9.85968
ten	-9.8602
▁eur	-9.8604
▁pokaždé	-9.86141
rat	-9.86183
▁přichází	-9.86312
▁aktivity	-9.86353
ená	-9.86388
ováno	-9.86393
▁přišla	-9.86435
ps	-9.86438
▁jazyk	-9.86451
▁takového	-9.86499
▁čem	-9.86507
▁leží	-9.86521
▁hledání	-9.86545
▁kvality	-9.86609
▁historie	-9.86665
ovaly	-9.86701
▁podnikání	-9.86766
▁čísla	-9.86804
▁myslí	-9.86854
▁počítače	-9.86877
▁záleží	-9.87016
▁výlet	-9.87048
▁ocenění	-9.87076
▁poskytují	-9.87087
▁mor	-9.87131
▁kdykoliv	-9.87141
▁plat	-9.87151
▁zdroje	-9.87158
▁doporučuji	-9.87171
▁and	-9.87183
▁letní	-9.8724
▁přijít	-9.87353
▁čech	-9.8739
▁druhého	-9.87395
▁jakékoliv	-9.87408
▁března	-9.87439
▁city	-9.87522
▁firem	-9.87522
▁poněkud	-9.87558
▁získání	-9.87596
▁plný	-9.87656
▁hlavy	-9.87722
▁vychází	-9.87784
rov	-9.87893
▁stylu	-9.87912
▁most	-9.87936
pt	-9.87937
▁automaticky	-9.88066
▁zahrnuje	-9.88103
▁deseti	-9.88126
▁naštěstí	-9.88217
▁dvoj	-9.88233
▁oblečení	-9.88253
▁nechci	-9.88344
mít	-9.88376
▁pana	-9.88457
▁bývá	-9.88479
▁nějaká	-9.88518
▁chceme	-9.88526
▁zdrojů	-9.88551
▁příjem	-9.88578
▁žije	-9.88632
▁james	-9.88668
▁přidat	-9.88747
bě	-9.88776
▁en	-9.8878
▁naučit	-9.88786
ence	-9.88808
▁směr	-9.88847
▁žít	-9.88904
▁zpráva	-9.89111
▁smyslu	-9.89177
▁jinde	-9.89205
▁základ	-9.89225
▁telefonu	-9.89234
▁nohy	-9.89345
▁bydlení	-9.8935
▁přibližně	-9.89371
top	-9.89434
nes	-9.89438
▁http	-9.89496
chy	-9.89502
▁děl	-9.89505
šek	-9.89626
▁hranice	-9.89639
▁síť	-9.89673
▁lehce	-9.89692
▁vhodný	-9.89844
mluv	-9.89871
▁banky	-9.89877
▁celkově	-9.90054
ity	-9.90082
▁rock	-9.901
▁spin	-9.90134
ily	-9.90199
▁nejlepších	-9.90239
▁všeho	-9.90268
▁příležitosti	-9.90278
▁strach	-9.90296
▁výroby	-9.90303
▁zvýšit	-9.90306
▁tudíž	-9.90358
▁série	-9.90435
▁skvělý	-9.90455
▁nebudu	-9.90489
sek	-9.90701
▁současnosti	-9.90707
▁žádnou	-9.90707
ita	-9.90708
▁programy	-9.90713
▁kontakt	-9.90724
▁sms	-9.90758
▁představení	-9.90787
zí	-9.90839
▁vozidla	-9.90856
▁loni	-9.91021
▁zahraniční	-9.91087
▁podporuje	-9.91102
▁školní	-9.91172
▁vzduchu	-9.91194
▁vodu	-9.91207
▁účtu	-9.91213
▁členů	-9.91232
▁anti	-9.91263
▁bůh	-9.91267
▁týká	-9.91305
▁stáhnout	-9.91388
▁praxi	-9.91423
krát	-9.91447
▁dostane	-9.91613
▁tomuto	-9.91621
▁států	-9.91721
kaz	-9.9176
bl	-9.91766
▁ročně	-9.91777
▁dojde	-9.91778
▁noční	-9.91792
▁hřiště	-9.91805
▁slunce	-9.91832
▁změna	-9.91834
▁volby	-9.91836
ký	-9.91978
▁několikrát	-9.92002
▁půjde	-9.92097
▁obec	-9.92182
▁vsadit	-9.92251
alcove	-9.92264
▁podnik	-9.92346
▁bavit	-9.92381
▁květního	-9.92454
▁nemohl	-9.9246
▁zbytek	-9.92461
▁gu	-9.92484
▁chodí	-9.92571
▁domě	-9.9268
▁par	-9.92707
kal	-9.92722
▁potřebuje	-9.92725
▁šla	-9.92873
▁posuzována	-9.92908
▁nechal	-9.92956
▁ledna	-9.92958
▁prostředků	-9.93001
▁ohledně	-9.93005
▁kostel	-9.93049
▁otázku	-9.93055
ran	-9.93083
▁stop	-9.93093
▁práv	-9.93106
▁resort	-9.93112
▁aniž	-9.93131
▁cítit	-9.93262
aj	-9.9331
▁míru	-9.93334
▁druhů	-9.93375
▁pás	-9.9339
▁dodává	-9.93392
▁trošku	-9.93459
gu	-9.93491
▁předseda	-9.93508
kla	-9.9353
▁dělají	-9.93573
▁ochranu	-9.93593
▁balení	-9.93668
▁týče	-9.93731
▁pol	-9.93734
▁pomáhá	-9.93736
kat	-9.93766
ika	-9.93794
ev	-9.93868
▁nárok	-9.93897
▁změnu	-9.93913
▁samu	-9.93926
▁touto	-9.93999
▁domov	-9.94028
▁průmyslu	-9.94041
▁kód	-9.94071
▁miliardy	-9.94093
▁podpory	-9.94124
lep	-9.94188
št	-9.94285
▁televize	-9.94288
itu	-9.94328
▁vodou	-9.94375
▁bytu	-9.94418
ař	-9.94454
▁historii	-9.94656
▁jiným	-9.9471
▁vždyť	-9.94715
vání	-9.9473
▁bank	-9.94781
▁měření	-9.94863
▁podívejte	-9.9497
nem	-9.94979
ovaného	-9.95063
▁výroba	-9.95093
▁vytvoření	-9.95113
▁šéf	-9.95181
▁nu	-9.95224
pr	-9.95347
▁dětmi	-9.95348
▁jednotky	-9.95372
▁okna	-9.95435
stra	-9.95436
▁kap	-9.95492
▁knih	-9.95497
▁řečeno	-9.9554
▁zájmu	-9.95578
▁vodní	-9.95602
▁ročníku	-9.95624
▁obr	-9.95655
▁vašich	-9.95658
▁válců	-9.95687
▁automatech	-9.95761
▁nev	-9.95807
▁papír	-9.95829
▁techniky	-9.9584
▁cd	-9.95893
▁koncert	-9.95935
▁končí	-9.9598
ovice	-9.95986
▁lan	-9.96073
▁bonusová	-9.96126
▁členy	-9.96145
▁konstrukce	-9.96173
cha	-9.96198
drž	-9.96242
šť	-9.96255
▁našel	-9.96256
▁ulice	-9.96267
▁student	-9.96316
▁red	-9.96327
tka	-9.96362
▁krásný	-9.96395
inu	-9.96517
▁info	-9.96518
up	-9.9655
▁šesti	-9.96566
▁začali	-9.96587
▁us	-9.9662
▁dala	-9.96675
ké	-9.96703
▁výrobu	-9.96708
▁konkrétně	-9.96734
ického	-9.96741
▁vystoupení	-9.96754
▁zvláště	-9.96756
▁riziko	-9.96793
▁lib	-9.96816
▁tlak	-9.96837
▁síly	-9.9684
▁pěkný	-9.96869
▁areálu	-9.96898
▁neměla	-9.96932
ráž	-9.96935
▁mobilu	-9.96959
▁číst	-9.96989
▁otec	-9.96991
ňuje	-9.9704
▁rozsah	-9.97086
▁mohly	-9.97095
▁bal	-9.97118
▁zákazníky	-9.97128
▁unie	-9.97159
▁představit	-9.97217
▁nim	-9.97225
▁související	-9.97258
▁onemocnění	-9.97275
▁živé	-9.97311
▁hodinu	-9.97312
▁hudba	-9.97335
▁troj	-9.97342
▁textu	-9.97448
▁reakce	-9.9745
▁jestliže	-9.97481
▁využívat	-9.97537
vají	-9.97593
▁softwaru	-9.97604
▁časem	-9.97632
▁list	-9.97645
▁zkušeností	-9.97663
▁kdysi	-9.97682
▁bezpečnost	-9.97692
▁osoba	-9.97732
▁příklad	-9.97756
▁mysli	-9.97763
▁budovy	-9.97808
▁čtení	-9.97821
▁vysokou	-9.97879
▁dlouhou	-9.97966
▁hit	-9.97989
▁souladu	-9.98002
▁krásně	-9.9801
▁dětem	-9.98059
▁server	-9.98097
▁potřebné	-9.981
▁většině	-9.98105
áček	-9.98121
▁systémy	-9.98145
▁vrátil	-9.98164
▁paměti	-9.98272
▁elektronické	-9.98285
▁trest	-9.98317
▁nejvíc	-9.98351
mal	-9.98374
▁zábavy	-9.98421
ený	-9.98431
▁psa	-9.98555
hlíd	-9.98604
▁úroveň	-9.98608
▁řádu	-9.9864
▁vztahu	-9.98648
▁olej	-9.98685
▁boží	-9.98772
▁napětí	-9.98805
▁spodní	-9.98876
živ	-9.98886
▁ovládání	-9.98904
▁probíhá	-9.98925
▁podpora	-9.98953
bra	-9.98956
▁ku	-9.98964
▁holky	-9.98988
▁schopnosti	-9.99167
▁upwards	-9.99171
ron	-9.99214
▁ruku	-9.99259
he	-9.99473
▁obchodu	-9.99515
▁kom	-9.99517
vin	-9.99519
ičku	-9.99532
ine	-9.99551
▁tipy	-9.99614
▁nákladů	-9.99616
▁otevření	-9.99689
▁čssd	-9.99819
▁neměli	-9.99823
▁severní	-9.99824
▁fotbal	-9.99853
▁částí	-9.99882
▁odpovídající	-9.99891
čin	-9.99925
ger	-9.99977
▁dveří	-10.0005
▁odborné	-10.0008
▁pal	-10.0008
▁hol	-10.0012
nd	-10.0014
▁krátké	-10.0014
▁parku	-10.0016
ven	-10.0019
stat	-10.002
jet	-10.0022
▁dávno	-10.0023
▁schopen	-10.0025
▁zpátky	-10.0026
▁kvalitu	-10.003
ovky	-10.0039
▁neví	-10.0044
ější	-10.0046
▁kar	-10.0047
ft	-10.0059
del	-10.0062
poj	-10.0062
▁nákup	-10.0067
▁tip	-10.0069
▁klid	-10.0069
▁mladší	-10.007
▁aplikací	-10.009
▁koncem	-10.0093
▁trenér	-10.0103
▁serveru	-10.0107
▁pokus	-10.0109
▁němž	-10.011
▁finále	-10.0112
▁povrch	-10.0112
▁plyn	-10.0112
▁složení	-10.0113
tra	-10.0121
prav	-10.0123
▁jisté	-10.0134
▁procenta	-10.0136
▁částky	-10.0137
▁zkusit	-10.0137
▁metody	-10.0137
▁rada	-10.0144
▁mistrovství	-10.0145
▁blízkosti	-10.0147
▁mnozí	-10.0148
▁funkční	-10.0154
▁und	-10.0154
▁podání	-10.0157
▁resp	-10.0162
um	-10.0162
▁předchozí	-10.0164
▁odpovídá	-10.0171
▁válcích	-10.0172
▁nese	-10.0173
▁studie	-10.0175
hy	-10.018
▁července	-10.0183
▁úrovně	-10.0184
▁těsně	-10.0185
▁vidím	-10.019
▁zne	-10.0191
ář	-10.0195
▁spojených	-10.0197
▁ber	-10.0205
nil	-10.021
▁hazardu	-10.0212
▁zážitek	-10.0213
▁maso	-10.0213
▁mluvčí	-10.022
nov	-10.022
▁skvěle	-10.0224
▁uvedené	-10.0225
▁trvá	-10.0234
▁limit	-10.0242
▁nejdůležitější	-10.0242
▁vol	-10.0244
nik	-10.0248
kový	-10.025
▁festival	-10.0254
▁doktor	-10.0267
ovka	-10.0267
vid	-10.0267
ion	-10.027
mín	-10.0271
▁mění	-10.0272
▁musela	-10.0272
▁vzniku	-10.0272
mb	-10.0272
▁obrázky	-10.0273
ící	-10.0279
▁široké	-10.0279
wa	-10.0284
▁mluví	-10.0293
▁výsledků	-10.0295
vo	-10.0298
dle	-10.0301
▁vzor	-10.0303
▁chod	-10.0303
gen	-10.0306
▁karel	-10.0315
▁prosince	-10.0319
▁turnaj	-10.032
▁še	-10.0322
▁tel	-10.0325
▁příjmů	-10.0329
pří	-10.0335
▁počítači	-10.0342
▁novým	-10.0342
▁vzdělání	-10.0345
▁bonusu	-10.035
▁partner	-10.0356
▁rozhodli	-10.0357
▁hl	-10.0359
▁uprostřed	-10.036
▁spol	-10.0367
▁han	-10.0368
▁zemích	-10.0372
▁nikoliv	-10.0372
fi	-10.0375
▁pohybu	-10.0377
▁maximálně	-10.0392
▁denní	-10.0397
▁pořádně	-10.0399
▁věřím	-10.0401
uk	-10.0405
▁výrobky	-10.0405
ex	-10.0407
má	-10.0407
hr	-10.041
iv	-10.0411
▁mnohé	-10.0428
▁venku	-10.0433
▁prů	-10.0445
▁nutno	-10.0453
▁napsat	-10.0459
há	-10.046
▁válce	-10.0462
▁ministerstvo	-10.0463
▁inter	-10.0465
▁individuální	-10.0466
ac	-10.0472
ff	-10.0473
▁umožňují	-10.0474
▁král	-10.0474
▁net	-10.0476
▁zajištění	-10.0478
▁délka	-10.0483
▁srpna	-10.0483
les	-10.0485
ista	-10.0489
▁star	-10.0491
▁polo	-10.0492
▁obrázek	-10.05
áci	-10.0503
ření	-10.0504
alo	-10.0506
▁hus	-10.0508
▁kraji	-10.0512
▁lá	-10.0512
▁,,	-10.0519
▁těší	-10.0522
▁sklad	-10.0524
▁společné	-10.0525
▁filmy	-10.0526
▁dřív	-10.0529
▁třech	-10.053
▁získali	-10.0532
▁miliard	-10.0532
▁vítěz	-10.0534
▁petra	-10.0539
▁návrhu	-10.0539
▁městské	-10.0541
ín	-10.0543
▁mých	-10.0547
▁potravin	-10.0548
▁bodový	-10.0549
▁dopravy	-10.055
▁politické	-10.0554
▁sociálních	-10.0554
stí	-10.0556
▁okamžiku	-10.0556
▁ter	-10.0556
mar	-10.0556
▁střel	-10.0558
▁sobotního	-10.0565
▁všemi	-10.0571
▁nemocnice	-10.0572
▁počátku	-10.0582
▁kup	-10.0583
▁budeš	-10.0589
▁flash	-10.0594
ající	-10.0595
▁praxe	-10.0601
íte	-10.0604
▁světla	-10.0604
im	-10.0621
▁mužů	-10.0622
len	-10.0622
▁kterému	-10.0625
▁rostlin	-10.0635
▁rovnou	-10.0638
pol	-10.0638
▁výhodou	-10.064
▁bratr	-10.064
▁ci	-10.0645
nce	-10.0647
▁čt	-10.0647
▁základních	-10.0649
▁jakékoli	-10.0649
▁stejnou	-10.0652
▁částečně	-10.0658
▁dětské	-10.066
▁premiér	-10.0661
▁stahování	-10.0664
▁víme	-10.0666
eček	-10.0667
▁kost	-10.0669
těž	-10.0677
▁veřejnosti	-10.0678
▁dob	-10.0679
▁vyrábí	-10.0681
cím	-10.0683
▁pil	-10.069
▁běžné	-10.0692
▁východní	-10.0692
▁černé	-10.0693
▁obci	-10.0693
▁prospěch	-10.0695
▁hodí	-10.0698
▁hosté	-10.0699
▁dostatek	-10.07
▁vzal	-10.07
dal	-10.0708
▁roční	-10.071
▁mírně	-10.071
▁mam	-10.071
▁ši	-10.0712
▁les	-10.0713
▁děkujeme	-10.0725
▁pivo	-10.0725
var	-10.0729
▁tenhle	-10.073
▁kříž	-10.0739
▁bezpečné	-10.0741
loží	-10.0745
▁adam	-10.0748
▁poskytnout	-10.0749
▁ceně	-10.0751
▁fe	-10.0761
▁potřebují	-10.0768
▁cest	-10.0772
▁znamení	-10.0775
▁českou	-10.0776
▁lidmi	-10.0776
ena	-10.0782
▁polovině	-10.0795
▁et	-10.0802
▁strojů	-10.0805
lík	-10.0806
▁špatné	-10.0815
▁matka	-10.0816
▁up	-10.0818
▁modely	-10.0824
▁recenze	-10.0826
▁podzim	-10.0828
ováním	-10.0829
▁potřebujete	-10.0835
▁dohromady	-10.0836
hal	-10.0839
▁hráčům	-10.084
▁února	-10.0842
▁sam	-10.0843
▁zástupce	-10.0847
kova	-10.0853
▁hodnotu	-10.0857
▁margo	-10.0861
▁dostatečně	-10.0862
▁nabídce	-10.0866
▁produktů	-10.0869
▁známý	-10.0871
gr	-10.0877
nky	-10.0877
hrá	-10.0881
▁hodnota	-10.0886
▁rodina	-10.0886
▁ačkoliv	-10.0887
▁dokázal	-10.089
▁or	-10.089
▁mon	-10.0891
▁závodní	-10.0895
věř	-10.0903
▁tisíce	-10.0906
▁zimní	-10.0913
▁všechna	-10.0918
rz	-10.0923
▁barva	-10.0927
▁nikde	-10.0933
▁show	-10.0937
▁psát	-10.0938
▁věnovat	-10.094
▁pěkné	-10.0942
▁myslel	-10.0943
sl	-10.0945
▁rozpočtu	-10.096
▁bolest	-10.0961
▁doprava	-10.0962
▁materiálů	-10.0967
▁bílé	-10.0974
▁lí	-10.0975
▁využívá	-10.0978
izace	-10.0978
▁nemáte	-10.0979
lek	-10.0983
▁dalšími	-10.0984
ki	-10.0985
rod	-10.0986
ana	-10.0986
uz	-10.0987
▁létě	-10.0994
▁jménem	-10.0995
▁bývalý	-10.0996
▁nástroje	-10.0997
▁vlastním	-10.1006
▁politiky	-10.1007
mp	-10.1008
▁zemřel	-10.101
▁adresu	-10.1013
▁číslovkách	-10.1022
▁stovky	-10.1023
tou	-10.1025
▁hlavou	-10.103
her	-10.1034
▁závěru	-10.1042
hled	-10.1044
▁daně	-10.1053
▁doslova	-10.1057
▁black	-10.1059
▁jezdí	-10.1063
▁patice	-10.1063
ška	-10.1064
▁systémů	-10.1065
▁nebyly	-10.1065
▁ryb	-10.1083
zení	-10.109
?..	-10.1091
▁připomíná	-10.1093
▁komentáře	-10.1099
▁pokračování	-10.1101
áž	-10.1103
▁odměny	-10.1106
▁řecko	-10.1108
ama	-10.1111
▁centrální	-10.1111
hra	-10.1113
vé	-10.1117
▁nejčastěji	-10.1118
▁dalo	-10.112
▁minulý	-10.1124
▁černý	-10.1124
▁nejspíš	-10.1132
▁pí	-10.1139
▁div	-10.1145
▁ce	-10.1146
▁kterými	-10.1147
▁lidské	-10.115
▁žáci	-10.1152
▁pochází	-10.1153
▁účinky	-10.1157
▁vodě	-10.1159
▁mladé	-10.1159
rad	-10.116
▁regionu	-10.1163
▁taneční	-10.1169
slov	-10.117
jak	-10.1171
▁prezentace	-10.1171
▁jaká	-10.1176
▁tlačítko	-10.1177
▁jména	-10.1178
▁charakter	-10.1178
▁míč	-10.1179
▁lev	-10.1183
▁uživatelů	-10.1183
▁kulturní	-10.1191
ers	-10.1193
▁dopis	-10.1196
▁rám	-10.1199
par	-10.1203
▁čele	-10.1204
álně	-10.1213
▁oprav	-10.1213
▁rozšíření	-10.1215
▁vyšetření	-10.1219
era	-10.1222
▁datum	-10.1229
▁generace	-10.123
dá	-10.1238
nt	-10.1241
▁žádost	-10.1241
▁názoru	-10.1243
▁nemusíte	-10.1244
ovač	-10.1257
▁rozsahu	-10.1258
▁nastavit	-10.1263
▁vhodná	-10.1266
▁přítel	-10.1269
▁zaměstnání	-10.1279
▁vyžaduje	-10.1283
▁hledá	-10.1289
▁činí	-10.1293
▁bazén	-10.1297
▁studia	-10.1301
▁objem	-10.1303
▁podlahy	-10.1311
ění	-10.1315
▁postavení	-10.1318
▁měst	-10.1324
▁tendenci	-10.1324
▁úkol	-10.1325
zd	-10.1329
▁port	-10.1331
▁knihu	-10.1331
▁čaj	-10.1333
▁strom	-10.1337
▁dítěte	-10.1342
nické	-10.1342
▁způsoby	-10.1343
▁odhad	-10.135
▁postavy	-10.1353
▁malou	-10.1355
▁komu	-10.1355
▁vznikl	-10.1356
nese	-10.136
▁názory	-10.1361
▁přednost	-10.1361
▁majetku	-10.1376
▁minutě	-10.138
ér	-10.138
▁die	-10.1385
lení	-10.1386
▁zvyšuje	-10.1387
▁pri	-10.139
▁americké	-10.139
▁výsledkem	-10.1394
átor	-10.1395
▁lékař	-10.14
▁chvíle	-10.1404
▁novinky	-10.1404
▁plochy	-10.141
▁mr	-10.1412
zá	-10.1415
▁koně	-10.1415
▁jakou	-10.1418
▁klidu	-10.1418
▁začalo	-10.1421
▁zvířat	-10.1422
▁vzrušení	-10.1424
▁zítra	-10.1431
▁google	-10.1434
řit	-10.1435
▁očekávání	-10.1436
▁pravé	-10.1437
▁prodám	-10.1441
▁bohatství	-10.1443
▁vzduch	-10.1443
▁králové	-10.1443
▁ukázek	-10.1451
ickým	-10.1451
▁ztráty	-10.1451
▁vrátit	-10.1457
▁nech	-10.146
▁psal	-10.1461
▁rozhodnout	-10.1461
▁procesu	-10.147
▁tématu	-10.1473
▁zůstane	-10.1476
▁zkrátka	-10.1476
▁zaměstnanců	-10.1478
▁dodat	-10.1481
▁takových	-10.1484
▁závislosti	-10.1485
▁blog	-10.1491
▁přeji	-10.15
▁rokem	-10.1503
▁ustanovení	-10.1515
ač	-10.1521
▁mistr	-10.1521
dat	-10.1523
▁kurzy	-10.1524
▁aplikaci	-10.1525
▁dané	-10.1525
ovce	-10.1527
▁miliony	-10.1529
▁řez	-10.153
▁vysoká	-10.153
▁posil	-10.1531
iček	-10.1532
▁klíč	-10.154
▁správný	-10.1542
▁níže	-10.1543
▁gabriela	-10.1544
fr	-10.1546
▁energii	-10.1548
av	-10.1549
▁vidí	-10.1551
▁údolí	-10.1553
▁nos	-10.1555
rn	-10.1555
▁informační	-10.1557
▁programů	-10.1565
▁samotné	-10.1568
ist	-10.1569
▁látky	-10.1572
▁směru	-10.1572
▁náročné	-10.1575
▁th	-10.1591
vaz	-10.1593
▁bere	-10.1594
▁milionu	-10.1595
▁přihlásit	-10.1596
▁můžeš	-10.1598
▁pokles	-10.1598
▁stará	-10.16
▁koho	-10.1607
▁říkal	-10.1615
ému	-10.1615
elné	-10.1617
▁dojem	-10.1618
▁dodal	-10.1618
▁fin	-10.162
▁zlepšení	-10.1623
▁dokument	-10.1623
▁poklad	-10.1624
▁poli	-10.1627
▁zad	-10.1628
▁sex	-10.1629
▁modré	-10.1641
▁jeli	-10.1643
tah	-10.165
▁kilometrů	-10.165
▁pokies	-10.1652
tan	-10.1655
▁prostory	-10.1656
▁pas	-10.1667
▁projektů	-10.1668
lý	-10.167
▁negativní	-10.167
▁posledním	-10.167
▁fr	-10.1671
▁rozměry	-10.1679
▁pořadí	-10.1685
▁vytváří	-10.1686
▁týdny	-10.1693
▁smlouvu	-10.1696
▁pokeru	-10.1699
ovu	-10.1703
jo	-10.1705
▁údajů	-10.1713
nech	-10.1717
▁volba	-10.1718
▁výhod	-10.1719
▁duchovní	-10.1719
▁stránka	-10.1719
▁silné	-10.172
▁akorát	-10.1726
▁hr	-10.1729
letý	-10.173
▁vašem	-10.1733
vět	-10.1736
ujete	-10.1737
▁ježíš	-10.1746
▁alkohol	-10.1748
end	-10.175
▁jakým	-10.1754
▁začátek	-10.1756
▁seznamu	-10.1761
▁zabývá	-10.1762
ismus	-10.1762
▁pobytu	-10.1765
kop	-10.1779
▁der	-10.178
▁formě	-10.1781
sed	-10.1784
▁financí	-10.1785
▁nejhorší	-10.1786
▁gól	-10.1791
▁vrací	-10.1794
▁plnění	-10.1796
▁stol	-10.18
▁ztratil	-10.1803
▁pla	-10.1806
▁sluneční	-10.1812
▁bankovní	-10.1813
▁ochrany	-10.1814
vu	-10.1824
▁budoucí	-10.1825
▁poměr	-10.1826
▁prodeje	-10.183
▁smrt	-10.1831
▁malých	-10.1838
tin	-10.184
ismu	-10.1841
tře	-10.1844
▁wa	-10.1845
dit	-10.1853
hor	-10.1853
▁součást	-10.1854
▁nemoc	-10.1855
▁řeší	-10.1857
▁zápis	-10.1858
▁ul	-10.186
nku	-10.1864
▁západní	-10.1872
▁efekt	-10.1877
▁soupeře	-10.1879
▁zajímavý	-10.1881
▁chodit	-10.1883
tor	-10.1883
▁vysoký	-10.1884
▁česku	-10.1885
▁majitel	-10.1886
▁krátce	-10.1889
čko	-10.1889
▁uz	-10.1896
▁závodu	-10.1899
▁převážně	-10.19
▁hnutí	-10.19
▁vést	-10.1904
cu	-10.1905
▁počáteční	-10.1907
▁výživy	-10.1907
▁signál	-10.1908
pla	-10.191
uj	-10.1911
hrad	-10.1912
▁stud	-10.1913
▁projekty	-10.1913
▁mac	-10.1914
níci	-10.1917
žení	-10.1917
rou	-10.1922
▁y	-10.1923
▁klient	-10.1925
▁poblíž	-10.193
▁nízké	-10.1931
▁kabel	-10.1937
▁nemůžu	-10.1939
▁fo	-10.194
▁dali	-10.1945
▁dodnes	-10.1953
▁úžasné	-10.1956
▁daň	-10.1962
eš	-10.1962
▁sázkové	-10.1962
▁naviják	-10.1964
▁iii	-10.197
▁zelené	-10.1973
cího	-10.1976
▁spoj	-10.1978
▁věk	-10.1983
▁zvolit	-10.1985
liv	-10.1987
▁kamarád	-10.1989
▁vývoje	-10.1992
▁roman	-10.1996
▁praktické	-10.1998
▁vzhled	-10.1998
▁fajn	-10.1999
▁čekat	-10.2001
▁stál	-10.2003
▁různými	-10.2007
▁pozadí	-10.2009
▁bys	-10.2009
sy	-10.2016
▁q	-10.2019
▁jistý	-10.2021
▁doporučení	-10.2026
▁liší	-10.2026
▁roh	-10.2036
▁věděl	-10.2039
▁desky	-10.205
ič	-10.205
▁dub	-10.2056
▁kdykoli	-10.206
▁produktu	-10.2063
▁venkovní	-10.2067
▁hu	-10.2067
▁objekt	-10.2069
▁zajímá	-10.2073
▁marie	-10.2075
▁lou	-10.2076
▁dlouhá	-10.2077
▁týdnů	-10.2082
▁hazard	-10.2084
▁san	-10.2087
▁var	-10.2089
▁česko	-10.2094
▁soutěži	-10.2094
▁zajišťuje	-10.2098
▁jednak	-10.2108
▁pobídky	-10.2109
▁uživatel	-10.2113
▁baví	-10.2118
už	-10.212
▁svá	-10.2122
▁hotovosti	-10.2123
▁zobrazení	-10.2126
▁jejího	-10.2128
▁druhým	-10.213
▁jede	-10.2133
▁kvalita	-10.2134
měř	-10.2141
kových	-10.2142
▁sloup	-10.2143
▁působení	-10.2149
lan	-10.215
▁twist	-10.2154
▁sedmi	-10.2155
▁povolení	-10.2156
▁přechod	-10.2159
▁mega	-10.216
aný	-10.2163
▁med	-10.2168
▁úpravy	-10.2172
▁americký	-10.2173
ez	-10.2177
▁počítač	-10.2178
▁něho	-10.2178
▁dřevo	-10.2182
▁hosty	-10.2188
▁návrat	-10.2189
lez	-10.2197
▁používají	-10.2198
čil	-10.2204
▁výživu	-10.2211
▁rychlosti	-10.2212
▁divadelní	-10.222
▁diskuse	-10.2225
stru	-10.2225
▁povinnost	-10.2225
▁úvodní	-10.2226
▁udělá	-10.2227
▁republika	-10.2228
▁ostatně	-10.2229
▁používání	-10.223
▁zbrusu	-10.2233
ností	-10.2234
▁nalézt	-10.2238
▁zákazníků	-10.2238
▁manažer	-10.2239
▁zlatý	-10.224
▁nejmenší	-10.2241
▁zůstat	-10.2242
zen	-10.2244
▁set	-10.2244
▁kontrolu	-10.2246
▁krém	-10.2248
▁závislost	-10.2248
▁perfektní	-10.2249
▁držet	-10.225
▁ohledem	-10.2251
▁dílo	-10.2253
▁věd	-10.2262
▁art	-10.2262
▁výhry	-10.2265
▁modelu	-10.2272
▁nikoli	-10.2275
▁životního	-10.2275
▁veřejných	-10.228
▁ad	-10.228
ig	-10.2281
▁oficiální	-10.2282
sen	-10.2289
▁hal	-10.229
▁mluvit	-10.2291
▁úvěr	-10.2295
dob	-10.2298
▁strašně	-10.2302
pis	-10.2302
▁nádraží	-10.2302
▁přírody	-10.2302
▁jedinou	-10.2304
▁zdi	-10.2305
▁rozhraní	-10.2315
▁oběd	-10.2317
▁št	-10.2318
▁nebe	-10.2325
iz	-10.2332
pě	-10.2334
▁červené	-10.2342
▁procento	-10.2342
▁hub	-10.2342
ris	-10.2345
▁objektu	-10.2346
▁dopředu	-10.2352
▁osmi	-10.236
▁ligy	-10.236
▁filip	-10.2368
ng	-10.2369
▁lit	-10.2369
▁des	-10.2369
▁pravidelné	-10.2372
▁postoj	-10.2374
▁výraz	-10.2375
▁disk	-10.2378
▁fotografií	-10.2381
▁řeč	-10.2384
▁přeci	-10.2385
▁hrajete	-10.2391
▁sal	-10.2393
▁účelem	-10.2396
▁hudby	-10.2396
▁festivalu	-10.24
ance	-10.24
icí	-10.2401
▁zastavit	-10.2402
▁představ	-10.2404
ingu	-10.2412
ír	-10.2419
▁con	-10.2422
▁objevil	-10.2423
por	-10.2423
▁hudbu	-10.2424
▁can	-10.2428
▁změně	-10.243
íček	-10.2431
jící	-10.2431
▁tro	-10.2433
▁ústí	-10.2433
áč	-10.2434
▁obsahu	-10.2435
▁zvuky	-10.2436
!!	-10.2437
▁kryt	-10.2437
ok	-10.2437
▁dovolenou	-10.2442
▁doporučujeme	-10.2443
▁ukončení	-10.2444
▁sledování	-10.2445
▁platby	-10.2448
▁tvaru	-10.2448
▁průměr	-10.2453
šel	-10.2454
▁karet	-10.2456
▁forma	-10.2457
▁případů	-10.246
▁určen	-10.2464
sla	-10.2467
▁karta	-10.2468
▁hd	-10.2472
hle	-10.2472
▁novém	-10.2474
▁účel	-10.2475
▁materiály	-10.248
▁potřebovat	-10.2483
▁ruky	-10.2487
▁osvětlení	-10.2488
▁celkový	-10.2488
▁nechtěl	-10.249
▁přenos	-10.249
▁motivační	-10.2494
▁boha	-10.2501
▁náhradní	-10.2502
▁žáků	-10.2502
ks	-10.2505
voz	-10.2515
čkou	-10.2515
▁moment	-10.2516
▁byť	-10.2516
▁odpovědi	-10.252
▁silný	-10.2525
til	-10.2526
▁jack	-10.253
▁zobrazit	-10.2532
▁zápasu	-10.2537
▁motivaci	-10.2543
▁láska	-10.2546
▁výrobků	-10.2552
tní	-10.2552
▁zdravím	-10.2553
▁sedí	-10.2556
tem	-10.2559
▁pracovních	-10.2559
▁myslíte	-10.2568
▁proud	-10.2581
▁lak	-10.2583
▁západ	-10.2593
▁komentář	-10.2594
▁relativně	-10.2596
▁zjistil	-10.2598
▁bud	-10.2599
▁bezpečnosti	-10.2603
klad	-10.2604
▁slib	-10.2607
▁čeho	-10.261
ard	-10.2614
▁někomu	-10.2614
vedl	-10.2621
▁ministerstva	-10.2622
▁zvlášť	-10.2623
▁aktivit	-10.2623
šli	-10.263
kládat	-10.2633
▁prezidenta	-10.2633
▁pravidel	-10.2634
▁prodeji	-10.2635
▁host	-10.2637
▁hezký	-10.2644
▁pečlivě	-10.2646
ostí	-10.2648
▁díla	-10.265
▁dělal	-10.265
▁rocknrollu	-10.2653
▁baterie	-10.2658
▁platební	-10.2659
▁konference	-10.2659
mysl	-10.2668
▁oslav	-10.2671
rs	-10.2671
pi	-10.2677
nos	-10.268
▁záměr	-10.2683
▁dopad	-10.2686
▁dolní	-10.2686
▁obcí	-10.2687
▁atmosféru	-10.2688
▁nemohou	-10.2691
▁televizní	-10.2692
▁map	-10.2693
važ	-10.2695
▁divoké	-10.27
▁výzkumu	-10.2701
▁vozidel	-10.2702
pra	-10.2702
▁odpad	-10.2706
níků	-10.2708
▁displej	-10.2711
izaci	-10.2717
▁hlavě	-10.2719
▁dovolené	-10.272
zní	-10.272
čet	-10.2722
▁hlavního	-10.2722
▁dlouhodobě	-10.2722
▁jízdy	-10.2723
▁potřeb	-10.2723
▁mikro	-10.2723
▁úspěšně	-10.2726
cen	-10.2736
▁tábor	-10.2736
raz	-10.2739
▁ostrov	-10.2739
▁druhu	-10.2739
▁ju	-10.2741
▁déle	-10.2745
▁veřejnost	-10.2746
▁sílu	-10.2748
▁uměl	-10.2752
▁divadla	-10.2759
▁jdou	-10.2766
▁oblastí	-10.2767
iky	-10.2772
▁včas	-10.2773
▁průměru	-10.2775
▁vypadat	-10.2775
▁automatické	-10.2782
▁organizací	-10.2786
▁přišli	-10.2786
▁každopádně	-10.2791
▁případné	-10.2793
pře	-10.2797
kup	-10.2799
▁vztahy	-10.28
▁čímž	-10.2805
▁štít	-10.2805
▁neroz	-10.2806
▁řídí	-10.2808
▁znalosti	-10.2811
▁zahájení	-10.2813
věd	-10.2819
tel	-10.2819
▁trénink	-10.2828
▁tablet	-10.2832
▁starost	-10.2834
▁volně	-10.2838
▁plná	-10.284
▁dají	-10.284
▁plav	-10.2844
van	-10.2844
▁pozemku	-10.2849
▁svaz	-10.285
pp	-10.285
▁silnice	-10.2853
koli	-10.2856
▁vyberte	-10.2858
gi	-10.286
▁klik	-10.2864
▁největších	-10.2873
▁doubledown	-10.2876
čen	-10.2878
▁mail	-10.2879
▁radu	-10.288
▁vznik	-10.2882
▁zástupci	-10.2883
▁získala	-10.2893
▁kultury	-10.2897
enou	-10.2898
▁vyhledávání	-10.2901
▁čtvrt	-10.2904
▁snažil	-10.2906
▁očekává	-10.2908
▁hledají	-10.2914
▁john	-10.2915
▁lásky	-10.2916
střel	-10.2916
kne	-10.2918
▁dlouhý	-10.2922
▁pražské	-10.2923
▁rod	-10.2927
▁šli	-10.2927
so	-10.293
▁zdeněk	-10.2932
▁výhradně	-10.2942
▁dívky	-10.2942
▁odpor	-10.2944
▁nejbližší	-10.2946
▁kul	-10.2947
▁chlap	-10.2958
vz	-10.2965
čně	-10.2966
ád	-10.2966
ón	-10.2968
ag	-10.2968
▁letiště	-10.2969
▁každodenní	-10.2969
▁craps	-10.2974
▁bur	-10.2976
▁kasinových	-10.2982
ang	-10.2984
▁pracoval	-10.2984
▁kat	-10.2987
▁kůže	-10.2987
▁soupeř	-10.299
▁hledáte	-10.2993
ární	-10.2994
svět	-10.2999
▁gi	-10.3
krá	-10.3004
lik	-10.3007
▁příslušenství	-10.3008
▁špatný	-10.3013
▁říkají	-10.3013
▁koní	-10.3014
▁bodu	-10.3017
▁play	-10.3018
▁příště	-10.3019
▁kdybych	-10.3019
▁průmysl	-10.3025
▁dávat	-10.3026
▁průvodce	-10.3028
icích	-10.3041
▁hráli	-10.3046
▁prohlásil	-10.3048
fer	-10.3048
▁mince	-10.3053
▁televizi	-10.3059
▁pohodě	-10.3059
▁jaroslav	-10.3064
▁označení	-10.3065
▁provozní	-10.3067
▁německu	-10.307
▁ben	-10.3073
▁jediná	-10.3075
▁čerstvé	-10.3076
jde	-10.3079
▁lodi	-10.308
▁duše	-10.309
▁učitel	-10.3091
▁myšlení	-10.3096
dou	-10.3099
řez	-10.31
▁loď	-10.3102
fo	-10.3102
▁neexistuje	-10.3106
▁třemi	-10.3111
▁údajně	-10.3115
▁přístroj	-10.3116
▁dosavadní	-10.3117
▁souhlas	-10.3126
▁měsících	-10.313
▁ed	-10.3135
▁samé	-10.3144
▁usb	-10.3144
zel	-10.3145
▁poškození	-10.3149
▁českém	-10.3154
▁microgaming	-10.3154
▁přístupu	-10.3156
▁říkám	-10.3157
▁určené	-10.3158
▁studenti	-10.3159
▁rozhovor	-10.316
▁důsledku	-10.316
▁školu	-10.3164
▁slyšet	-10.3165
▁karetní	-10.3165
.....	-10.3178
▁řekne	-10.3179
▁financování	-10.3184
py	-10.3187
▁hracích	-10.3189
ených	-10.3194
▁dokonale	-10.3197
▁těmi	-10.3202
▁jednoznačně	-10.3203
ts	-10.3207
ste	-10.3207
▁rychleji	-10.3208
▁krásná	-10.3209
▁návod	-10.3209
▁tajemství	-10.321
▁vědomí	-10.3211
▁týdne	-10.3212
▁jinými	-10.3215
▁dvd	-10.3215
stře	-10.3216
▁přišlo	-10.3217
▁mer	-10.3218
▁místnost	-10.3226
▁chrám	-10.3231
▁akční	-10.3235
▁rotace	-10.3237
ško	-10.3241
▁běžně	-10.3244
▁osud	-10.3253
▁uživatelé	-10.3254
▁barev	-10.3254
▁barevné	-10.3259
▁žádosti	-10.3259
kro	-10.327
aná	-10.3272
áky	-10.3279
▁nástroj	-10.328
ren	-10.3282
▁trať	-10.3282
▁jednoduchý	-10.3283
▁brát	-10.3286
▁nor	-10.3289
dla	-10.3293
▁licence	-10.3293
▁správy	-10.3294
▁klasický	-10.3297
▁montáž	-10.3298
star	-10.3299
▁bonusových	-10.3301
áš	-10.3302
▁nápoje	-10.3305
▁jídla	-10.3308
▁rekonstrukce	-10.3308
běh	-10.3308
▁jarní	-10.3312
▁vznikla	-10.3314
▁narodil	-10.3316
▁zranění	-10.3317
vka	-10.3318
▁vlastních	-10.332
▁podobný	-10.3321
▁banka	-10.3327
rá	-10.3327
▁těším	-10.3328
▁vyjádření	-10.3338
▁android	-10.334
▁prohlášení	-10.3343
▁kartu	-10.3345
▁rychlý	-10.3346
▁komplexní	-10.3349
eč	-10.3349
▁systémem	-10.3351
▁mimochodem	-10.3357
▁kandidát	-10.336
▁soutěží	-10.3364
▁rodičů	-10.3372
▁odkud	-10.3373
▁univerzity	-10.3374
ns	-10.3379
▁slovy	-10.3381
▁porad	-10.339
▁získáte	-10.339
▁kuchyně	-10.3391
▁tý	-10.3393
eno	-10.3393
▁evropských	-10.3398
▁rodinu	-10.3401
▁menu	-10.3403
▁dostává	-10.3405
▁hodnot	-10.3408
▁momentálně	-10.3409
ation	-10.3417
▁eva	-10.3418
▁fyzické	-10.342
▁desítky	-10.342
▁úsilí	-10.3422
▁pokračuje	-10.3424
▁zaplatit	-10.3425
▁myšlenky	-10.3428
▁policejní	-10.3442
▁optimální	-10.3445
▁působil	-10.3454
▁krát	-10.3459
▁výjimkou	-10.346
▁představí	-10.3461
▁rozvoje	-10.3462
we	-10.3463
tv	-10.3464
▁jejíž	-10.3464
▁nikoho	-10.3466
▁míry	-10.3467
▁ph	-10.3468
▁výročí	-10.3473
▁nevadí	-10.3473
sto	-10.3477
nete	-10.348
▁kluci	-10.3481
▁zábava	-10.3482
sel	-10.3483
▁ev	-10.3483
▁filtr	-10.3486
▁masivní	-10.349
▁británii	-10.3491
mann	-10.3492
▁skutečný	-10.3494
▁atraktivní	-10.3494
ivé	-10.3495
ecké	-10.3496
▁jakoby	-10.3496
▁letošního	-10.3497
▁výhodu	-10.3501
fe	-10.3502
▁gar	-10.3502
▁stupně	-10.3505
▁řidič	-10.3505
▁ačkoli	-10.3507
▁respekt	-10.351
znač	-10.3515
▁vychutnat	-10.3519
▁milan	-10.352
išti	-10.352
res	-10.3521
▁fotograf	-10.3522
▁poz	-10.3523
▁uvidíme	-10.3526
▁provede	-10.3532
▁počítá	-10.3533
▁soused	-10.3539
▁poradit	-10.3541
▁vším	-10.3544
▁volných	-10.3548
▁spa	-10.3552
▁silně	-10.3557
▁román	-10.3558
▁hezky	-10.3559
▁znalost	-10.3563
▁chceš	-10.3563
▁stahuj	-10.3568
▁vládní	-10.3571
▁formy	-10.3573
kládá	-10.3576
▁otevřené	-10.3579
▁soukromé	-10.3579
▁hlasování	-10.358
▁dobrodružství	-10.3587
▁cokoliv	-10.3588
▁nejstarší	-10.3592
▁týkající	-10.3593
▁místem	-10.3597
▁službu	-10.3604
▁tahle	-10.3605
▁cas	-10.3608
▁věnuje	-10.3608
▁účastníci	-10.3609
▁novo	-10.3612
▁vstupní	-10.3613
▁blok	-10.3618
▁školení	-10.3618
▁přínos	-10.3619
roz	-10.3623
▁fungovat	-10.3625
cky	-10.3627
▁dis	-10.363
▁brna	-10.3631
▁bas	-10.3633
▁měsíční	-10.3635
▁kub	-10.3637
hne	-10.3638
▁har	-10.3638
▁kontrola	-10.3638
▁obal	-10.3639
▁dotace	-10.3642
▁pilot	-10.3643
▁členem	-10.3644
oví	-10.3645
▁postav	-10.3646
tal	-10.3648
▁dřeva	-10.365
▁cestování	-10.3653
▁uni	-10.3653
▁zaměstnanci	-10.3657
▁úst	-10.3661
▁značně	-10.3664
▁víkendu	-10.3667
wi	-10.3667
▁využívání	-10.3673
▁reklamní	-10.3674
▁penny	-10.3677
▁jedinečné	-10.3679
▁divadlo	-10.3681
▁týdnu	-10.3684
eni	-10.3685
▁pá	-10.369
▁obavy	-10.3691
aly	-10.3692
▁výboru	-10.3693
▁každému	-10.37
▁přinese	-10.3705
▁vyp	-10.3705
▁bolesti	-10.3705
vali	-10.371
▁dovednosti	-10.3712
▁formulář	-10.3713
▁vína	-10.3714
▁diskuze	-10.3724
▁skóre	-10.3726
▁příjmu	-10.3726
ovský	-10.3726
tit	-10.3728
▁facebook	-10.3728
▁zásob	-10.3731
▁překvapení	-10.3731
▁boje	-10.3734
až	-10.3735
▁hory	-10.3735
▁černá	-10.3739
▁open	-10.3741
▁společného	-10.3742
▁otevřít	-10.3746
▁gr	-10.375
▁zprávu	-10.375
▁stránku	-10.3752
▁kos	-10.3754
▁sbor	-10.3754
▁království	-10.3755
▁bohaté	-10.3756
▁očekávat	-10.3756
▁lip	-10.3759
▁absolutní	-10.3767
▁růstu	-10.3768
rd	-10.3768
lov	-10.3769
bud	-10.3777
▁přihlášení	-10.378
něte	-10.3781
▁zákaz	-10.3782
▁york	-10.3789
▁dojít	-10.3791
▁radši	-10.3792
▁zájemce	-10.3793
▁seriál	-10.3794
ele	-10.3801
▁jiní	-10.3804
▁role	-10.3808
▁vozu	-10.3809
díl	-10.3813
nat	-10.3814
▁najde	-10.3816
▁podstatně	-10.3818
▁občanů	-10.382
▁svojí	-10.3821
▁problému	-10.3823
▁teploty	-10.3824
bral	-10.3826
▁nabídne	-10.383
▁účetní	-10.383
▁porno	-10.3833
▁smlouva	-10.3835
▁minuty	-10.3838
▁regionální	-10.384
▁stolu	-10.3841
▁vybaven	-10.3843
▁#.#,	-10.3847
▁volného	-10.3851
▁celo	-10.3852
▁velkého	-10.3852
▁účasti	-10.3853
▁rozhodla	-10.3859
▁záznam	-10.3861
ani	-10.3861
▁založené	-10.3864
▁skupině	-10.3864
▁čemu	-10.3865
▁reálném	-10.3867
set	-10.3871
▁ekonomické	-10.3875
▁potenciál	-10.3883
▁sha	-10.3885
▁pop	-10.3894
pod	-10.3896
▁přijetí	-10.3897
▁krize	-10.3898
▁registrace	-10.3901
▁čí	-10.3903
▁začínají	-10.3906
▁kurzu	-10.3908
ved	-10.3909
▁levné	-10.3911
ben	-10.3911
▁stavba	-10.3912
▁dia	-10.3914
▁hodinách	-10.3915
▁vydal	-10.3915
▁motiv	-10.3927
▁látek	-10.3927
of	-10.3944
▁čekají	-10.3945
▁výbor	-10.3951
ml	-10.3956
▁investice	-10.3959
▁pohybuje	-10.3961
▁někam	-10.3962
▁nebudete	-10.3964
ávání	-10.3966
▁fondu	-10.3967
▁zakázky	-10.397
▁efektivní	-10.3972
▁přístroje	-10.3973
jel	-10.3975
▁zajímavých	-10.3976
▁tou	-10.3979
▁návštěvu	-10.3981
▁must	-10.3982
▁ukázat	-10.3984
stran	-10.3987
▁šu	-10.399
kli	-10.399
itel	-10.3998
▁přede	-10.4002
▁pevné	-10.4004
▁registraci	-10.4005
▁hranici	-10.4005
▁čisté	-10.4006
▁čekal	-10.4007
▁trati	-10.4011
▁koupil	-10.4013
vl	-10.4017
▁založena	-10.4018
▁knize	-10.4021
▁znát	-10.4022
▁dám	-10.4022
▁užívat	-10.4024
▁vedením	-10.403
rot	-10.4031
▁vysoko	-10.4032
ll	-10.4042
▁ar	-10.4042
▁útočník	-10.4043
▁šťastný	-10.4044
vel	-10.4046
▁ř	-10.4049
▁hlavních	-10.405
▁vidíte	-10.4056
▁ujistěte	-10.4064
▁povrchu	-10.4066
rek	-10.4071
▁přehrávání	-10.4071
▁možný	-10.4073
lat	-10.4073
▁značka	-10.4077
▁kontroly	-10.4081
lka	-10.4081
▁sběr	-10.4085
▁cukr	-10.4087
▁čistě	-10.409
▁mladých	-10.409
▁tá	-10.4092
▁pedagog	-10.4092
▁salonu	-10.4093
▁položky	-10.4093
▁chyba	-10.4094
▁pobřeží	-10.4096
▁tehdejší	-10.4097
▁normálně	-10.4099
ker	-10.4101
▁hrozí	-10.4104
▁nevíte	-10.411
vit	-10.411
▁jednotka	-10.4115
▁automatu	-10.4117
▁hradec	-10.4118
▁majetek	-10.4125
▁boty	-10.4132
▁vánoce	-10.4138
▁rychlejší	-10.4139
ovku	-10.414
▁podél	-10.4141
▁uvedených	-10.4142
▁předmět	-10.4143
▁víš	-10.4147
▁tank	-10.4153
▁běh	-10.4153
▁sezóny	-10.4154
▁brzd	-10.4155
jezd	-10.4158
▁opak	-10.4163
▁wifi	-10.4165
▁fanoušci	-10.4168
▁zůstal	-10.4168
▁vytvořil	-10.417
▁domova	-10.4172
▁metoda	-10.4182
▁změn	-10.4185
▁real	-10.4185
▁zlín	-10.4189
tt	-10.4192
▁komerční	-10.4192
▁častěji	-10.4192
▁odvětví	-10.4194
šku	-10.4203
▁podmínkách	-10.4203
▁jednat	-10.4203
▁zápasy	-10.4204
▁muzeum	-10.4208
▁budov	-10.4212
▁bra	-10.4214
▁podniku	-10.4216
▁určitou	-10.4219
hlav	-10.4219
▁komp	-10.4221
▁tra	-10.4222
▁vnější	-10.4227
▁chyby	-10.4228
▁účastníků	-10.4228
žil	-10.4228
▁jasný	-10.4228
▁projít	-10.423
▁proměn	-10.4234
▁otáčí	-10.4237
chová	-10.4239
▁kostky	-10.4247
▁mým	-10.4248
▁autobus	-10.4249
já	-10.4253
▁rezerv	-10.4255
▁volební	-10.4258
▁provádí	-10.4262
▁přátel	-10.4268
▁umístěny	-10.4269
▁bob	-10.4271
▁sázka	-10.4272
▁povede	-10.4277
▁užívání	-10.4278
▁profil	-10.4279
nder	-10.428
▁závody	-10.4284
▁jdu	-10.4287
ává	-10.4288
▁informaci	-10.4291
ča	-10.4293
▁vlastního	-10.4296
▁blb	-10.4297
▁jmen	-10.4298
▁zlo	-10.4299
▁kal	-10.4302
▁kra	-10.4302
▁kapitán	-10.4303
▁příprava	-10.431
▁pracují	-10.4311
jdou	-10.4311
▁fan	-10.4316
▁neznám	-10.4317
▁výstava	-10.4322
▁men	-10.4325
▁typické	-10.4328
▁jakub	-10.4329
que	-10.4331
tro	-10.4338
▁navštívit	-10.434
▁roste	-10.4341
áři	-10.4346
han	-10.4346
▁studentů	-10.4352
▁ústav	-10.4353
▁získá	-10.4358
led	-10.4358
nému	-10.436
▁oblastech	-10.4367
▁přečíst	-10.4368
▁aktuálně	-10.4376
▁měnit	-10.4377
▁změnil	-10.438
▁přesné	-10.4381
▁mí	-10.4384
▁strávil	-10.4385
▁zkoušky	-10.4385
▁třídě	-10.4387
▁areál	-10.4392
▁parametry	-10.4392
▁historické	-10.4394
▁nemohla	-10.4398
▁argument	-10.4407
lák	-10.4407
▁neznamená	-10.4408
▁kas	-10.4408
▁uvedení	-10.441
▁vyplývá	-10.441
▁správní	-10.4412
▁dávají	-10.4413
▁služba	-10.4413
áře	-10.4418
▁pracovníků	-10.4419
▁club	-10.4421
áku	-10.4422
▁osobních	-10.4427
▁microsoft	-10.4429
▁souboru	-10.4429
olog	-10.4434
▁jezdit	-10.444
▁psaní	-10.4446
▁týmy	-10.4447
▁lov	-10.4449
▁maz	-10.4454
▁win	-10.4454
▁ostatními	-10.4455
▁sub	-10.4455
nictví	-10.4457
itou	-10.4459
▁takovém	-10.4459
▁čechách	-10.446
▁uskuteční	-10.4461
ovské	-10.4462
▁národního	-10.4465
▁vrátí	-10.4465
▁pohár	-10.4466
▁yorku	-10.4467
▁poslal	-10.4468
▁silnici	-10.4468
▁nemovitosti	-10.4469
▁snažit	-10.447
▁formát	-10.4472
▁metod	-10.4473
mír	-10.4474
▁dra	-10.4475
▁van	-10.4476
▁znal	-10.4478
▁filmů	-10.448
iku	-10.4481
zer	-10.4482
▁poplatky	-10.4483
▁německé	-10.4484
▁nejoblíbenější	-10.4485
▁konkurence	-10.4488
▁baccarat	-10.4489
▁bit	-10.4491
▁můžou	-10.4492
rozen	-10.4496
▁mém	-10.4497
▁přidal	-10.4504
▁jediným	-10.4506
▁vůz	-10.4508
▁značné	-10.4509
▁motoru	-10.4509
▁františek	-10.4512
▁drog	-10.4513
▁instalace	-10.4514
zy	-10.4515
▁zajistí	-10.4521
▁našim	-10.4525
▁stranou	-10.4527
▁von	-10.4528
▁nepod	-10.4529
▁zaměstnavatel	-10.4529
stá	-10.4533
▁očí	-10.4533
▁princip	-10.4536
▁krve	-10.4537
▁usnesení	-10.4541
▁zaměstnance	-10.4542
▁zámek	-10.4551
▁ostatním	-10.4552
▁hmotnost	-10.4554
▁příspěvky	-10.4555
▁teplo	-10.4555
▁nemovitostí	-10.4556
ávat	-10.4558
▁odborníci	-10.456
▁jazyka	-10.4561
▁deska	-10.4561
▁nějakého	-10.4569
▁kanceláře	-10.4577
ovaným	-10.4578
ther	-10.4581
▁dotazy	-10.4584
▁sklo	-10.4585
dom	-10.4587
hi	-10.4588
▁tvůj	-10.4597
▁přinesl	-10.4597
▁zápase	-10.4598
▁británie	-10.4598
▁uk	-10.4599
▁díly	-10.46
▁krátký	-10.4605
▁plast	-10.4605
anou	-10.4605
▁parlamentu	-10.4606
▁zjistíte	-10.4607
▁chybu	-10.4607
▁komunikaci	-10.4609
▁vyžadují	-10.4609
▁nedaleko	-10.4609
▁věří	-10.4612
▁zadavatel	-10.4612
vlád	-10.4613
km	-10.4616
slav	-10.4622
▁rozhodčí	-10.4626
▁vyjde	-10.4627
▁národ	-10.4629
vede	-10.463
▁zajímalo	-10.463
hlédl	-10.4634
▁širokou	-10.4643
▁martina	-10.4646
▁bre	-10.4646
▁kreditní	-10.4647
▁režisér	-10.4649
▁znění	-10.465
port	-10.4651
▁cr	-10.4654
▁výrobní	-10.466
▁tvář	-10.4671
▁em	-10.4671
▁daniel	-10.4673
▁média	-10.4673
▁pochopit	-10.4673
▁jednoduchá	-10.4674
měr	-10.4675
▁výrobě	-10.4677
▁ukázal	-10.4678
▁pochyb	-10.468
▁jím	-10.4682
ica	-10.4682
▁vip	-10.4684
▁objevit	-10.4684
▁činností	-10.4685
▁výstavy	-10.4685
▁zahradní	-10.4685
▁odbor	-10.4686
ňovat	-10.4687
▁pochopitelně	-10.4687
▁záležitost	-10.4688
▁hlava	-10.4688
▁přestup	-10.4691
▁nádherné	-10.4693
▁opravy	-10.4694
▁tyhle	-10.4698
▁bohu	-10.4701
▁zámku	-10.4705
cht	-10.4705
uš	-10.4706
▁coververzí	-10.4708
▁rodině	-10.4708
▁mluvil	-10.4712
▁tah	-10.4713
▁využitím	-10.4715
ečky	-10.4717
íčka	-10.4718
▁domy	-10.4718
▁nechápu	-10.4719
▁učení	-10.4719
▁postaven	-10.472
▁realizace	-10.4724
▁mnohdy	-10.4726
▁přípravy	-10.4728
▁zpravidla	-10.4732
▁nemoci	-10.4735
fu	-10.4736
▁dole	-10.4741
▁mgm	-10.4743
▁zbytečně	-10.4747
▁témat	-10.4747
▁iv	-10.4751
▁zobrazí	-10.4753
▁oddíl	-10.4753
▁apple	-10.4754
cení	-10.4757
▁vlastnictví	-10.4758
mr	-10.476
▁největším	-10.4762
▁zákony	-10.4762
▁zimě	-10.4765
▁hrozně	-10.4765
▁maj	-10.477
▁kontrol	-10.4773
▁hodnotě	-10.4773
▁dech	-10.4775
▁filmové	-10.4775
čte	-10.4776
▁podaří	-10.4777
▁it	-10.4781
▁porovnání	-10.4781
▁cítí	-10.4784
▁vkladu	-10.4784
▁mag	-10.4785
▁koná	-10.4785
▁celková	-10.4785
▁těle	-10.4785
▁tl	-10.4786
nk	-10.4788
▁nutnosti	-10.4791
▁výška	-10.48
▁live	-10.4803
rub	-10.4803
▁linky	-10.4805
hodil	-10.4805
▁pevně	-10.4809
▁tito	-10.4811
▁připravit	-10.4813
▁čištění	-10.4815
padne	-10.4816
▁miroslav	-10.4817
▁vydrží	-10.4818
▁třetím	-10.4823
▁opustil	-10.4824
▁hel	-10.4825
nové	-10.4826
ěn	-10.483
ologie	-10.4832
▁skupinu	-10.4833
ju	-10.4838
▁státech	-10.4842
▁čin	-10.4843
▁malého	-10.4844
▁postavit	-10.4845
▁hovoří	-10.4848
▁okraj	-10.485
▁poznat	-10.4854
▁kasíno	-10.4858
čas	-10.4872
▁vytvořen	-10.4874
▁stra	-10.4874
tic	-10.4875
▁budoucnosti	-10.4879
▁uvedla	-10.4881
▁ver	-10.4882
▁samostatné	-10.4883
▁nemáme	-10.4889
▁potěšení	-10.489
ité	-10.489
vis	-10.4894
▁předpisů	-10.4896
lon	-10.4896
▁standard	-10.4899
▁koš	-10.4899
enci	-10.4901
▁syna	-10.4907
lice	-10.4909
▁myslet	-10.4915
▁jistotu	-10.4916
▁připraven	-10.4918
▁stan	-10.4929
▁operace	-10.4929
▁tuhle	-10.4931
počítá	-10.4934
▁nástup	-10.4936
▁oznámení	-10.4936
▁zní	-10.494
sled	-10.4945
▁profesor	-10.4946
▁bojovat	-10.4947
▁interiér	-10.4947
▁seriálu	-10.4947
▁chystá	-10.4949
▁devět	-10.495
▁pohodlí	-10.4953
▁recept	-10.4956
▁jersey	-10.4968
▁teorie	-10.4968
trh	-10.4978
▁neděle	-10.4978
▁tvrzení	-10.4978
▁finančních	-10.4982
ous	-10.4982
und	-10.4985
lar	-10.4986
▁známo	-10.4986
▁poradenství	-10.4989
kus	-10.4991
▁samotný	-10.4991
▁naposledy	-10.4992
oz	-10.4993
▁dobou	-10.4993
▁přírodě	-10.4997
▁učí	-10.4999
▁studium	-10.4999
ung	-10.5004
▁síla	-10.5007
▁řeky	-10.5008
▁zpráv	-10.5009
▁těmito	-10.5009
▁většiny	-10.5012
▁pot	-10.5013
▁důvodem	-10.5018
▁spor	-10.5018
▁minulého	-10.5022
▁dostanou	-10.5025
▁výsledku	-10.5025
nách	-10.5029
▁lorna	-10.5032
▁kroky	-10.5037
vala	-10.5038
▁gen	-10.504
▁elektrické	-10.504
gl	-10.504
▁běž	-10.5041
itě	-10.5041
klid	-10.5044
▁nařízení	-10.5044
▁měsíci	-10.5045
vky	-10.5046
▁obecné	-10.5047
▁architekt	-10.5048
▁událost	-10.505
▁otázkou	-10.5052
▁prvek	-10.5053
▁mateřské	-10.5056
ata	-10.5065
▁medi	-10.5067
▁výstup	-10.5067
lová	-10.5068
▁neob	-10.5069
▁cizí	-10.5069
▁sun	-10.5069
▁odešel	-10.5076
▁produkce	-10.5077
▁čte	-10.5077
▁narazil	-10.5078
▁stráž	-10.5079
▁zdravotnictví	-10.5079
▁vyplatí	-10.5081
▁tobě	-10.5082
▁obor	-10.5084
▁prvků	-10.5085
kryt	-10.5089
▁způsobil	-10.5092
▁skal	-10.5095
▁zdaleka	-10.5095
▁talent	-10.5095
jem	-10.5095
zem	-10.5097
om	-10.51
▁příspěvku	-10.51
▁zabezpečení	-10.51
▁projev	-10.5105
▁umístěn	-10.5105
mez	-10.5109
▁registru	-10.5111
▁los	-10.5112
kg	-10.5113
▁čistý	-10.5116
▁požadované	-10.5116
▁narozenin	-10.5119
▁kredity	-10.512
▁barvu	-10.512
▁milion	-10.5128
▁nacházejí	-10.5129
▁fen	-10.5129
▁zkušební	-10.513
▁považuje	-10.5131
leté	-10.5132
▁power	-10.5134
▁správce	-10.5136
▁panel	-10.5138
▁četl	-10.5139
ět	-10.5139
rob	-10.514
▁vyz	-10.5141
▁teplota	-10.5143
pak	-10.5144
▁sněhu	-10.5147
▁grand	-10.5149
rk	-10.5151
▁vydat	-10.5153
tické	-10.5157
▁řádku	-10.5158
▁rizik	-10.5158
▁drobné	-10.5159
▁ochrana	-10.516
▁pet	-10.5164
▁firmu	-10.5166
▁připojit	-10.5167
ovaní	-10.5168
▁překlad	-10.517
▁vybírat	-10.5173
▁spustí	-10.5176
▁budova	-10.5181
▁stanov	-10.5189
▁přijmout	-10.5191
▁potíže	-10.5194
▁přátelé	-10.5194
▁zbraně	-10.5195
vad	-10.5195
▁typů	-10.5196
▁jaře	-10.5198
▁czech	-10.5199
▁atlantic	-10.52
ela	-10.5202
▁učit	-10.5203
▁ot	-10.5205
▁nesmysl	-10.521
▁víno	-10.5211
cp	-10.5215
maz	-10.522
▁levnější	-10.5222
▁vytváření	-10.5223
▁nezapomeňte	-10.5225
gan	-10.5226
▁provozuje	-10.5229
▁žil	-10.523
▁fu	-10.5233
▁bot	-10.5234
▁skvělá	-10.5235
tl	-10.5237
▁gum	-10.5238
▁pleť	-10.5242
▁hezké	-10.5245
▁party	-10.5247
▁zázemí	-10.5249
ud	-10.5249
▁účely	-10.525
▁pp	-10.525
▁mladá	-10.5251
▁větr	-10.5252
▁mladý	-10.5253
▁pohodlné	-10.5255
▁částka	-10.5257
kání	-10.5258
pen	-10.5258
▁pozn	-10.5261
con	-10.5261
níky	-10.5262
▁massachusetts	-10.5263
▁eshop	-10.5263
▁líp	-10.5264
▁zdejší	-10.5264
▁psy	-10.5268
▁doporučuje	-10.5272
▁plnou	-10.5273
▁olomouc	-10.5274
▁album	-10.528
▁společenství	-10.528
▁volbách	-10.5287
▁vtip	-10.5287
▁zlato	-10.5287
▁ivan	-10.5288
▁průběh	-10.529
▁starých	-10.5292
▁fondů	-10.5292
▁založení	-10.5293
▁vzniká	-10.5294
dol	-10.5294
▁parkování	-10.5295
▁příjemný	-10.5295
▁globální	-10.5295
▁místních	-10.5296
▁narození	-10.5297
▁představu	-10.5298
▁labem	-10.5299
▁dan	-10.5301
▁index	-10.5304
▁listy	-10.5308
ňování	-10.5311
lab	-10.5313
▁úspěšný	-10.5314
▁proběhne	-10.5316
▁fázi	-10.5318
▁udělali	-10.5319
▁ip	-10.532
isté	-10.5321
šlo	-10.5324
▁ženu	-10.5325
▁plot	-10.5325
▁aj	-10.5326
ir	-10.5327
hry	-10.5328
▁popisuje	-10.5329
▁podporovat	-10.5336
▁rus	-10.5336
▁lesní	-10.5336
▁nasekal	-10.5338
eri	-10.534
▁dopoledne	-10.5344
▁vzdálenost	-10.5345
▁podepsal	-10.5346
▁průzkum	-10.5347
▁pokoji	-10.535
▁úvod	-10.535
kt	-10.5351
▁posun	-10.5353
kovat	-10.5354
▁kout	-10.5356
▁novější	-10.5361
dění	-10.5364
▁obrat	-10.5365
▁nejste	-10.5365
▁soudní	-10.5365
▁tele	-10.5366
▁zadání	-10.5367
▁obvod	-10.5369
▁dosažení	-10.5372
▁branky	-10.5376
▁čs	-10.5377
▁budoucnost	-10.5379
▁absolutně	-10.538
▁uvítací	-10.5381
▁počítat	-10.5385
▁půjč	-10.5387
out	-10.5387
▁vysvětlení	-10.5389
form	-10.5391
▁alternativní	-10.5391
▁rozlišení	-10.5391
ble	-10.5393
▁zš	-10.5393
▁bl	-10.5399
▁souhlasím	-10.5405
gn	-10.5405
▁rytíř	-10.5406
▁sýr	-10.5409
▁požádal	-10.5414
▁tvé	-10.5414
▁naším	-10.5414
▁vůně	-10.5415
▁rizika	-10.5417
▁metr	-10.5418
▁sítí	-10.5423
▁módní	-10.5424
▁boji	-10.5425
▁ham	-10.5425
rp	-10.543
▁pavla	-10.543
▁mgr	-10.5434
▁elegantní	-10.5435
▁samsung	-10.5435
▁kvalitě	-10.5436
pan	-10.5437
▁vysvětluje	-10.5442
▁pen	-10.5443
▁domácích	-10.5444
▁jar	-10.5445
▁plocha	-10.5445
▁speciálně	-10.5445
plet	-10.5447
skými	-10.5451
▁rozum	-10.5453
▁okay	-10.5454
▁připadá	-10.5456
bar	-10.5456
▁čísel	-10.5457
▁odborníků	-10.5458
ola	-10.5459
ujících	-10.546
▁tlačítka	-10.5466
▁plány	-10.5466
▁očima	-10.5469
▁neb	-10.5472
▁obrazovky	-10.5477
▁internetových	-10.5479
▁sazby	-10.5479
▁trend	-10.548
▁lehké	-10.548
▁přijat	-10.5482
▁bydlí	-10.5485
▁zeman	-10.5485
▁polovinu	-10.5486
▁stejným	-10.5488
▁otevřel	-10.5489
▁návštěvníci	-10.5492
▁bro	-10.5497
▁sprch	-10.55
▁cho	-10.55
▁občan	-10.5501
▁zločin	-10.5502
▁dokončení	-10.5503
▁golf	-10.5504
mil	-10.5509
▁domácnosti	-10.551
▁neumí	-10.5513
▁nechte	-10.5514
▁zakoupit	-10.5514
▁operační	-10.5514
▁mládež	-10.5514
▁letošním	-10.5517
▁generální	-10.5517
▁stat	-10.5518
▁věž	-10.5519
ivý	-10.5519
▁děd	-10.552
▁pojist	-10.5525
nc	-10.5526
▁ros	-10.5527
▁narozeninám	-10.5528
▁takovým	-10.5528
▁prováděl	-10.553
▁založen	-10.5532
▁tře	-10.5534
▁staveb	-10.5534
▁autem	-10.5535
▁facebooku	-10.5539
▁způsobu	-10.5539
dil	-10.5541
▁ran	-10.5542
▁zastavil	-10.5542
▁skončila	-10.5543
▁mimořádně	-10.5544
▁podrobnosti	-10.5544
▁poloviny	-10.5544
▁železniční	-10.5552
sou	-10.5555
▁rysy	-10.5556
▁těhotenství	-10.5558
age	-10.5559
▁daří	-10.5561
▁zvířata	-10.5565
way	-10.5567
▁snížit	-10.5569
áků	-10.557
▁starosta	-10.5574
▁levé	-10.5577
any	-10.5577
rát	-10.5578
▁výrobci	-10.5578
▁gril	-10.558
▁ted	-10.558
áno	-10.5583
▁silnější	-10.5587
▁zbývající	-10.5589
▁spisovatel	-10.5589
▁hi	-10.5592
▁vysílání	-10.5592
▁ondřej	-10.5593
nějších	-10.5595
ánek	-10.5598
▁zákazníka	-10.5598
▁obsahují	-10.5601
▁cítil	-10.5602
▁varianta	-10.5603
▁zvon	-10.5604
▁povinnosti	-10.5606
▁rom	-10.561
▁vlasů	-10.5611
bel	-10.5611
▁manželství	-10.5611
▁termínu	-10.5613
cem	-10.5615
tří	-10.5615
▁zná	-10.5616
▁dni	-10.5616
▁vzdálenosti	-10.5616
▁církve	-10.5617
▁rekord	-10.5617
▁časopis	-10.562
▁chvilku	-10.5623
čer	-10.5628
řil	-10.5628
▁jiném	-10.5629
▁hrob	-10.5635
▁rozměr	-10.5639
▁nemohu	-10.564
▁technika	-10.5642
▁klienty	-10.5643
▁krist	-10.5644
▁evropská	-10.5648
▁cestovní	-10.5649
tky	-10.5651
▁přečtěte	-10.5654
měl	-10.5656
▁zahradě	-10.5656
kol	-10.5657
▁mark	-10.5657
▁robot	-10.566
ňují	-10.5664
▁realizaci	-10.5666
▁dostupnost	-10.5666
▁rud	-10.5667
▁chat	-10.5668
pil	-10.5668
▁nebankovní	-10.5668
▁viděli	-10.5669
gar	-10.567
▁podzimní	-10.5671
▁žádném	-10.5673
▁sekund	-10.5674
hla	-10.5679
▁hradu	-10.568
▁náklad	-10.5682
rychl	-10.5684
▁zajímavá	-10.5685
▁našli	-10.5687
chu	-10.5688
▁exkluzivní	-10.5689
▁článků	-10.5691
▁texty	-10.5691
▁řídit	-10.5693
▁kůži	-10.5697
▁nějakým	-10.57
▁počtem	-10.5702
▁myšlenka	-10.5702
▁sekce	-10.5703
▁zpěv	-10.5704
lín	-10.5704
▁výhled	-10.5705
bil	-10.5706
▁mont	-10.5708
▁sklep	-10.571
che	-10.5711
▁chápu	-10.5714
▁úspěchu	-10.5717
▁dětský	-10.5717
▁širší	-10.5719
▁zákonem	-10.5719
▁přijímá	-10.5719
▁zadarmo	-10.572
▁tradičně	-10.572
▁dospělé	-10.5722
▁černo	-10.5724
rén	-10.5725
▁oh	-10.5733
▁dělám	-10.5735
▁vozů	-10.5741
▁modelů	-10.5741
▁nejdřív	-10.5742
dra	-10.5746
ian	-10.5747
▁příkaz	-10.5747
▁rychlá	-10.5749
▁odstranění	-10.5749
▁natolik	-10.5751
ator	-10.5754
▁stálo	-10.5755
▁duchu	-10.5756
▁rusko	-10.5758
▁char	-10.576
▁krev	-10.5763
▁trenčíně	-10.5765
▁jakýkoliv	-10.5766
▁postupy	-10.5767
▁tepla	-10.5767
▁michael	-10.5767
lig	-10.5769
▁daní	-10.5776
▁scény	-10.5777
▁otce	-10.578
▁ústavu	-10.579
▁zlaté	-10.5798
▁vladimír	-10.5798
▁živ	-10.58
▁lékaři	-10.5801
sc	-10.5802
▁volbou	-10.5803
neme	-10.5804
▁rozhodování	-10.5808
▁výborný	-10.5811
▁požádat	-10.5811
▁naděje	-10.5811
ňák	-10.5813
▁zrušení	-10.5813
▁následné	-10.5817
▁točí	-10.5817
▁významné	-10.5818
věr	-10.5819
▁společenské	-10.5821
▁sázky	-10.5821
▁následujících	-10.5826
▁jet	-10.5826
▁úprava	-10.5828
▁deník	-10.5833
▁lukáš	-10.5833
▁známá	-10.5833
▁půjčku	-10.5835
▁studenty	-10.5837
▁slavnostní	-10.584
▁pacientů	-10.584
▁testování	-10.5842
▁jednotek	-10.5843
▁prav	-10.5845
▁porušení	-10.5846
▁len	-10.5847
brat	-10.5849
▁souvisí	-10.585
▁skončí	-10.585
▁některá	-10.5851
▁mír	-10.5853
▁rodin	-10.5855
▁gel	-10.5855
▁násobitel	-10.5855
▁obrany	-10.5862
▁zato	-10.5866
šky	-10.5867
▁zasedání	-10.5867
▁oslavu	-10.587
▁rostoucí	-10.5873
▁blíží	-10.5875
pel	-10.5876
▁státního	-10.5877
▁trysky	-10.5879
▁dopravu	-10.5881
▁anděl	-10.5882
▁vystaven	-10.5882
▁přípravu	-10.5882
instal	-10.5883
▁stoly	-10.5891
▁poznání	-10.5894
▁síti	-10.5896
rin	-10.5897
▁is	-10.5899
ete	-10.59
▁ep	-10.5901
▁odehrál	-10.5901
▁firemní	-10.5906
▁čip	-10.5908
▁vidění	-10.591
▁mladí	-10.5912
ep	-10.5915
▁okamžik	-10.5917
náší	-10.5918
▁cha	-10.5921
▁začaly	-10.5926
▁tis	-10.5927
metr	-10.5927
▁skládá	-10.5929
▁sexuální	-10.5931
▁robert	-10.5933
▁útoku	-10.5934
▁požadavků	-10.5935
kom	-10.5935
pit	-10.5936
▁kan	-10.5937
▁podvod	-10.594
▁oblíbený	-10.5944
▁rekonstrukci	-10.5945
un	-10.5946
▁lednu	-10.5946
▁grafické	-10.5947
▁asistent	-10.5947
▁důležitá	-10.5949
▁tříd	-10.5951
▁nejnižší	-10.5953
▁kancelář	-10.5955
táhne	-10.5955
▁navzájem	-10.5957
▁nepodařilo	-10.5959
▁obrázku	-10.5961
zl	-10.5961
kování	-10.5963
▁masa	-10.5963
▁zbytečné	-10.5964
▁usd	-10.5965
ah	-10.5965
▁sloužit	-10.5966
io	-10.5969
▁správnou	-10.5972
▁návštěvě	-10.5975
▁vlak	-10.5976
ži	-10.598
▁jejích	-10.598
▁osobnosti	-10.5984
▁znalostí	-10.5985
▁francie	-10.5986
▁jedině	-10.5987
sit	-10.5992
▁václava	-10.5998
▁wi	-10.5998
▁léto	-10.5999
jte	-10.6001
▁postava	-10.6005
▁firmě	-10.6008
▁lesa	-10.6009
▁uvedeno	-10.6009
▁kuchyni	-10.6014
▁muzea	-10.6015
▁poskytne	-10.6017
▁drahé	-10.6018
▁návštěvníky	-10.6019
tickou	-10.6022
eli	-10.6023
▁důraz	-10.6023
▁vstupu	-10.6024
hrál	-10.6028
▁změní	-10.6033
▁dřevěné	-10.6034
▁chlad	-10.6036
▁př	-10.6038
▁otázek	-10.6038
▁humor	-10.6038
atel	-10.6039
▁plod	-10.6039
cs	-10.604
▁nechá	-10.6043
▁paul	-10.6045
▁postavil	-10.6046
árně	-10.6047
▁trans	-10.6047
izuje	-10.6048
▁tváře	-10.6048
▁poskytovatele	-10.605
▁převod	-10.6053
elná	-10.6054
▁cel	-10.6058
rie	-10.6058
▁jednalo	-10.6059
▁lékaře	-10.6061
ier	-10.6064
▁archiv	-10.6064
▁školství	-10.6067
nová	-10.6068
▁představují	-10.607
ove	-10.6073
šení	-10.6074
▁nohou	-10.6074
▁jest	-10.6075
ovic	-10.6077
▁vyhnout	-10.6078
▁nýbrž	-10.6078
▁směs	-10.608
▁událostí	-10.6081
▁sklon	-10.6083
▁!!!	-10.6084
▁poskytování	-10.6088
▁monitor	-10.609
rc	-10.6091
▁půdy	-10.6092
▁nedostatek	-10.6097
▁vteřin	-10.6102
▁pouhých	-10.6104
▁duch	-10.6107
▁bílá	-10.6109
div	-10.6111
▁úklid	-10.6112
▁okruh	-10.6112
▁komplex	-10.6115
▁dokumentace	-10.6115
ičkou	-10.6117
▁poplatků	-10.6119
sse	-10.6122
ona	-10.6124
▁návrhy	-10.6127
▁žijí	-10.6132
ňoval	-10.6132
▁chyt	-10.6139
▁kapely	-10.6144
▁demokracie	-10.6145
uf	-10.6148
▁těžký	-10.615
▁domácím	-10.6154
▁blesk	-10.6157
jím	-10.6157
▁ší	-10.6159
▁ruční	-10.6161
▁občerstvení	-10.6165
dor	-10.6165
ens	-10.6165
áka	-10.6167
▁příslušné	-10.6169
▁world	-10.617
▁rou	-10.6173
▁zánět	-10.6174
▁celostátní	-10.6175
▁úvěru	-10.618
▁dílů	-10.618
met	-10.6181
▁zdravé	-10.6182
▁narozeniny	-10.6185
▁bla	-10.6186
▁důležitý	-10.6186
tar	-10.6186
▁experiment	-10.6188
jedná	-10.619
tická	-10.619
▁chrání	-10.6192
▁vojenské	-10.6193
škol	-10.6193
▁viděla	-10.6195
gener	-10.6195
▁sehnat	-10.6199
běhl	-10.6204
▁nabízet	-10.6205
chází	-10.621
▁klad	-10.621
▁žáky	-10.621
▁mlýn	-10.6211
▁reagovat	-10.6211
▁ikony	-10.6211
▁začátkem	-10.6212
▁samostatně	-10.6212
izovat	-10.6212
▁zápasů	-10.6213
▁air	-10.6215
▁navštívil	-10.622
▁rot	-10.622
▁děj	-10.6222
ij	-10.6224
▁hřišti	-10.6224
▁kov	-10.6226
▁navržen	-10.6227
leh	-10.6227
▁dcera	-10.6238
▁osborne	-10.6242
▁neboli	-10.6245
▁nelíbí	-10.6246
vce	-10.6247
▁seminář	-10.6249
▁sérii	-10.625
▁games	-10.6254
▁úrovní	-10.6254
▁hlav	-10.6256
nický	-10.6256
▁zbraní	-10.6258
▁sekci	-10.6258
▁restaurací	-10.626
▁paměť	-10.6264
▁interaktivní	-10.6264
▁wild	-10.6264
▁seznámit	-10.6266
eň	-10.6268
▁poly	-10.6268
▁nerv	-10.627
▁vysokým	-10.6271
boj	-10.6272
▁vývoji	-10.6274
▁stavbu	-10.6276
▁příběhu	-10.6277
ecký	-10.6278
don	-10.6278
pustí	-10.6282
▁klaus	-10.6282
▁nemůžete	-10.629
▁vzájemné	-10.6292
▁hollywood	-10.6294
▁poslat	-10.63
řad	-10.6304
▁lep	-10.6308
▁straš	-10.6308
▁výnos	-10.6312
jmen	-10.6313
▁jmenuje	-10.6313
bol	-10.6314
▁namísto	-10.6314
▁soubory	-10.6314
▁rozhodne	-10.6316
▁důvody	-10.6318
▁baru	-10.6319
▁univerzální	-10.6321
log	-10.6324
▁pocity	-10.6324
istické	-10.6327
▁zjistili	-10.6328
▁znáte	-10.6337
▁nabídl	-10.6338
▁holka	-10.6338
ore	-10.6339
▁úžasný	-10.6339
skem	-10.634
▁neviděl	-10.6341
isty	-10.6346
▁nevada	-10.6347
▁ču	-10.6351
▁okolní	-10.6351
▁miluje	-10.6352
gb	-10.6353
▁aneb	-10.6357
▁vyjádřil	-10.6358
stud	-10.6363
▁rozhovoru	-10.6364
▁nezbytné	-10.6366
▁návštěva	-10.6374
▁stejném	-10.6377
▁pití	-10.6379
táhl	-10.6379
▁kusů	-10.6381
▁absolvovali	-10.6383
▁německý	-10.6384
▁dejte	-10.6388
▁účastníky	-10.6389
▁ipad	-10.639
▁pochopení	-10.6391
▁zážitky	-10.6393
▁určena	-10.6397
▁věr	-10.6397
▁evropského	-10.6398
▁pád	-10.6398
▁nemocnici	-10.6399
▁rozpočet	-10.6402
oš	-10.6413
ťák	-10.6413
▁popř	-10.6414
▁nebyli	-10.6416
#.#.#	-10.6418
▁instituce	-10.6419
▁protest	-10.6421
▁majitele	-10.6423
▁dvaceti	-10.6424
eny	-10.6427
kyně	-10.6428
▁skrze	-10.6429
▁tur	-10.643
▁připravili	-10.6431
kor	-10.6433
▁směn	-10.6434
▁svobody	-10.6435
▁zákazník	-10.6438
▁navzdory	-10.6439
▁nešlo	-10.6443
▁výborné	-10.6445
▁literární	-10.6446
▁výdaje	-10.6446
▁točit	-10.645
▁nárůst	-10.6453
čce	-10.6457
▁vytesaný	-10.6461
▁médií	-10.6461
▁restauraci	-10.6464
▁pronájem	-10.6466
▁vydává	-10.6466
▁větších	-10.6468
▁voz	-10.6469
▁oznámil	-10.6473
▁četné	-10.648
▁rezervace	-10.6481
▁tématem	-10.6485
cházel	-10.6486
▁hledám	-10.6487
ína	-10.6488
▁staví	-10.6491
▁nep	-10.6495
▁zkušený	-10.6497
▁řádek	-10.6499
▁učinit	-10.6501
bus	-10.6502
▁vozy	-10.6504
▁prodejce	-10.6504
▁úkoly	-10.6506
růst	-10.6509
▁konferenci	-10.6515
▁zpočátku	-10.6517
▁plno	-10.6518
▁oprávněn	-10.6519
▁agentury	-10.6522
ož	-10.6523
▁řetěz	-10.6524
▁mincí	-10.6526
▁slu	-10.6527
hání	-10.6529
ken	-10.653
jíždí	-10.6532
▁připravuje	-10.6533
▁průkaz	-10.6538
▁násilí	-10.654
tz	-10.6541
▁zavedení	-10.6541
▁telefonní	-10.6542
▁kluk	-10.6543
▁květ	-10.6543
▁bohatý	-10.6546
ara	-10.6547
▁návštěvníků	-10.6548
▁nedělá	-10.6548
▁ministra	-10.6551
▁malíř	-10.6553
▁klientů	-10.6553
▁odolnost	-10.6554
▁požadavek	-10.6555
▁mb	-10.6556
▁sjezd	-10.6556
▁skok	-10.6561
▁městem	-10.6562
▁licenci	-10.6564
vít	-10.6567
▁adresa	-10.6569
▁stopy	-10.6569
▁doposud	-10.6571
▁vězení	-10.6573
▁přidané	-10.6574
▁složité	-10.6575
▁jedinečný	-10.6576
▁mod	-10.6576
pá	-10.6577
box	-10.6579
▁asociace	-10.658
▁ranní	-10.6581
▁zásad	-10.6583
▁jedinci	-10.6586
▁ša	-10.6588
▁kolekce	-10.6589
ling	-10.6589
▁mel	-10.6592
▁ry	-10.6592
váže	-10.6593
kům	-10.66
▁úrok	-10.6604
▁stín	-10.6609
▁sportu	-10.661
▁oken	-10.661
▁knihovny	-10.6614
▁komunity	-10.6618
▁zmíněné	-10.6619
▁oleje	-10.6621
▁fáze	-10.6623
▁připravil	-10.6624
▁zahraničních	-10.6625
išť	-10.6626
▁nejlepším	-10.6626
▁hvězdy	-10.6629
šly	-10.6631
▁tre	-10.6634
▁politika	-10.6639
est	-10.664
▁smí	-10.664
ole	-10.6641
▁použil	-10.6644
▁zvolen	-10.6645
▁favorit	-10.6645
▁integr	-10.6648
ium	-10.6649
▁potřeboval	-10.6651
▁dozvíte	-10.6652
▁kontrolní	-10.6659
▁vyd	-10.6659
▁sen	-10.666
▁opakovaně	-10.6663
▁databáze	-10.6665
▁pěst	-10.6667
práv	-10.6669
▁internetový	-10.6669
▁úvěrů	-10.6671
▁marek	-10.6671
▁kreditů	-10.6673
▁škody	-10.6678
▁mc	-10.6679
▁terénu	-10.668
ána	-10.6681
▁kostela	-10.6683
▁trump	-10.6686
▁kapela	-10.6687
▁existence	-10.6688
chut	-10.6691
▁mudr	-10.6694
▁fre	-10.6695
▁starších	-10.6696
tů	-10.6702
▁ručně	-10.6705
▁ředitele	-10.6705
▁zřejmé	-10.6706
íš	-10.6708
▁audio	-10.6708
▁keno	-10.6711
▁fond	-10.6713
▁určení	-10.6713
▁potřebu	-10.6714
▁přípravě	-10.6716
▁ste	-10.6719
▁portál	-10.672
▁problémem	-10.6721
▁klikněte	-10.6722
▁odkazy	-10.6722
▁znak	-10.6723
▁publikace	-10.6725
▁odměnu	-10.6728
kin	-10.6728
kle	-10.6728
▁uzavření	-10.6732
▁snažím	-10.6734
▁trpí	-10.6734
▁určitý	-10.6736
▁liberec	-10.6736
▁líbit	-10.6736
▁studiu	-10.6738
▁příběhy	-10.6739
▁jas	-10.6741
▁energetické	-10.6743
▁spát	-10.6743
▁balíček	-10.6744
▁nákupu	-10.6744
▁ultra	-10.6747
▁orchestr	-10.6747
▁potvrzení	-10.6748
▁an	-10.675
▁dohody	-10.6754
▁třída	-10.6758
▁starosti	-10.6758
▁německa	-10.676
centr	-10.676
▁odstranit	-10.6763
▁barvě	-10.6765
▁detaily	-10.6765
pust	-10.6768
▁mnohokrát	-10.6769
▁ruské	-10.677
▁parkovací	-10.6773
▁king	-10.6773
▁aktivně	-10.6774
▁lince	-10.6774
▁jemné	-10.6775
▁peč	-10.6776
▁přesvědčen	-10.6777
▁agentura	-10.6783
▁strategii	-10.6784
▁původu	-10.6788
kv	-10.6789
▁koz	-10.679
▁potraviny	-10.6791
▁dvojice	-10.6791
▁názvu	-10.6791
▁zoo	-10.6792
▁nasazení	-10.6792
▁mzdy	-10.6798
▁léky	-10.6804
▁stěny	-10.6806
▁pav	-10.6807
▁sokol	-10.681
▁netu	-10.681
▁výrobců	-10.6811
▁našla	-10.6811
▁bytů	-10.6812
▁teplé	-10.6813
▁pit	-10.6813
▁červená	-10.6816
▁tvorbě	-10.6816
dů	-10.6816
▁rodinné	-10.6816
▁krále	-10.6818
▁plochu	-10.6818
▁sol	-10.6819
▁wc	-10.6819
▁čínské	-10.6819
▁tvoje	-10.682
▁vysvětlit	-10.6821
▁registr	-10.6829
▁pravý	-10.6829
▁potvrdil	-10.683
▁cítím	-10.6832
▁snaha	-10.6834
bran	-10.6837
ativní	-10.6839
▁komfort	-10.684
rost	-10.6844
knout	-10.6847
▁war	-10.6848
▁tváří	-10.685
▁převzal	-10.685
▁snímek	-10.6852
▁taj	-10.6852
▁dvanáct	-10.6853
▁zdravý	-10.6854
▁tvorba	-10.6856
▁vedou	-10.6857
dají	-10.6859
▁linie	-10.6859
▁vytápění	-10.6863
▁amerických	-10.6863
istů	-10.6864
▁cy	-10.6864
??	-10.6868
▁zeptal	-10.6868
▁jíst	-10.6871
▁bližší	-10.6871
▁délce	-10.6871
▁formátu	-10.6873
▁jaro	-10.6873
▁we	-10.6875
▁životnost	-10.688
▁celek	-10.688
ser	-10.6885
▁výkony	-10.6886
▁dovolit	-10.6887
lej	-10.6888
▁dění	-10.689
▁kaš	-10.689
▁zbavit	-10.6891
▁kanál	-10.6892
▁přáteli	-10.6894
rka	-10.6895
▁šik	-10.6897
▁notebook	-10.6897
▁velkém	-10.6898
▁cu	-10.6902
ičtí	-10.6903
▁plynu	-10.6904
tom	-10.6904
mon	-10.6905
nut	-10.6905
▁horách	-10.6906
▁použit	-10.6909
▁stupeň	-10.6911
▁výrobek	-10.6913
▁demo	-10.6913
▁%.	-10.6914
▁vir	-10.6916
▁zabránit	-10.6917
▁formu	-10.6919
▁bed	-10.6922
▁nosí	-10.6922
▁ostravě	-10.6922
▁voleb	-10.6923
▁písm	-10.6923
jmu	-10.6924
▁procesor	-10.6925
▁nároky	-10.6925
▁slotů	-10.6926
▁předměty	-10.6927
▁tzn	-10.6927
▁autora	-10.6931
▁balík	-10.6932
viz	-10.6934
▁vybrané	-10.6935
▁květin	-10.6935
▁studií	-10.6938
▁pohon	-10.6938
▁nikomu	-10.6941
▁nabízené	-10.6943
▁přijdou	-10.6945
▁manželka	-10.6947
▁zaplatí	-10.6949
▁startu	-10.695
▁sad	-10.6951
▁poskytl	-10.6952
▁zisku	-10.6954
▁dospěl	-10.6954
nesl	-10.6954
▁řidiče	-10.6955
▁středo	-10.6956
▁automobil	-10.6956
dlo	-10.6958
▁sada	-10.6958
nci	-10.696
čt	-10.6961
▁armády	-10.6962
▁sraz	-10.6962
▁dík	-10.6962
▁východ	-10.6967
▁udržuje	-10.6969
▁mapy	-10.6971
▁lék	-10.6978
▁vrcholu	-10.6978
kra	-10.6981
▁pacient	-10.6983
▁matky	-10.6983
▁přítomnost	-10.6985
▁zaměření	-10.6987
▁galerie	-10.6987
▁zahrady	-10.6988
▁podstaty	-10.699
▁jízdu	-10.6993
▁nahoře	-10.6997
▁chybět	-10.6997
▁týdně	-10.6999
hel	-10.7001
▁vytvářet	-10.7001
▁rychlostí	-10.7003
▁stabilní	-10.7004
▁mediální	-10.7005
sadit	-10.7006
zdrav	-10.7008
▁objektiv	-10.7014
▁běží	-10.7014
▁vypl	-10.7021
▁ozdob	-10.7021
▁radio	-10.7026
▁předpisy	-10.7027
▁nejvýznamnější	-10.703
▁reklamy	-10.703
▁mach	-10.7035
▁tebou	-10.7039
▁lehký	-10.7041
mus	-10.7045
lát	-10.7045
▁kamen	-10.7046
▁padesát	-10.7047
když	-10.7048
▁pozemek	-10.7053
▁tvrdé	-10.7053
▁vyrobené	-10.7053
▁čet	-10.706
▁bon	-10.7064
▁proudu	-10.7067
▁útok	-10.7068
hnal	-10.7069
▁investiční	-10.7072
▁šroub	-10.7079
stoupil	-10.708
▁skvělou	-10.7081
ip	-10.7084
▁hrou	-10.7084
▁stejná	-10.7087
▁ped	-10.7089
▁stres	-10.7091
▁extrémně	-10.7093
▁rodinný	-10.7095
▁uplatnění	-10.71
▁podlah	-10.71
▁obrazu	-10.7103
dem	-10.7104
▁bílý	-10.7104
▁divočiny	-10.7105
▁večerní	-10.7105
▁nástrojů	-10.7106
hnout	-10.7106
▁postupu	-10.7106
ačka	-10.7107
ával	-10.7107
▁klidné	-10.711
▁uvést	-10.7111
▁snažíme	-10.7111
▁obe	-10.7113
▁čili	-10.7116
xi	-10.7116
▁aktiv	-10.7116
▁touží	-10.7117
šla	-10.7118
▁bab	-10.7122
ráz	-10.7122
▁spokojen	-10.7122
nějším	-10.7123
#,#	-10.7124
▁tvorbu	-10.7125
▁dáme	-10.7126
▁začnou	-10.7127
bere	-10.7128
line	-10.7131
▁zip	-10.7133
▁hrdin	-10.7134
▁originál	-10.7134
▁log	-10.7135
▁pořádá	-10.7135
▁divadle	-10.7143
▁plech	-10.7146
▁pověst	-10.7148
▁lázně	-10.7148
▁bývalého	-10.7148
▁vedlejší	-10.715
gel	-10.7152
držel	-10.7152
▁určený	-10.7154
▁mládeže	-10.7154
▁desítek	-10.7157
▁interiéru	-10.7158
slu	-10.7158
▁ukázalo	-10.7159
▁totéž	-10.7162
▁prodává	-10.7165
▁zvýšené	-10.7166
ivní	-10.7166
mas	-10.7168
tech	-10.7168
▁wo	-10.7169
▁spočívá	-10.7171
▁tréninku	-10.7172
lf	-10.7173
▁konat	-10.7173
tur	-10.7175
▁nález	-10.7176
▁chi	-10.7183
▁kratší	-10.7183
jede	-10.7185
▁sexu	-10.7185
ino	-10.7192
▁výšky	-10.7192
▁obdiv	-10.7192
▁založil	-10.7193
▁bývalé	-10.7195
▁stupňů	-10.7196
tri	-10.7198
▁vyřešit	-10.7202
▁tipsport	-10.7203
▁nepřátel	-10.7204
▁zvyk	-10.7208
▁bíl	-10.7208
▁tour	-10.7208
▁kuchař	-10.7212
▁věděli	-10.7212
▁rozhodující	-10.7215
▁návratu	-10.7216
▁kombinací	-10.7217
▁oko	-10.7217
cové	-10.7218
▁budoucnu	-10.7222
letá	-10.7223
▁potenciální	-10.7228
iva	-10.7229
▁americká	-10.7231
▁ras	-10.7231
rů	-10.7233
▁socialisti	-10.7233
▁osobu	-10.7233
▁objevila	-10.7235
▁doplňky	-10.7235
▁vaření	-10.7236
▁členství	-10.7239
ečku	-10.724
ováni	-10.7241
▁dodá	-10.7242
▁investovat	-10.7245
zra	-10.7246
▁ovlivnit	-10.7248
▁prach	-10.7252
▁udělala	-10.7256
rg	-10.726
▁nádherný	-10.726
▁prof	-10.726
▁koncept	-10.7262
▁lidských	-10.7263
vor	-10.7264
▁známých	-10.7269
▁mezitím	-10.727
▁záhad	-10.7271
▁vztahů	-10.7273
▁stravování	-10.7274
▁obrazovce	-10.7278
▁fotoaparát	-10.7279
▁jiřího	-10.7279
▁používám	-10.728
▁far	-10.7282
▁pořídit	-10.7282
▁vesnice	-10.7283
▁dokonalé	-10.7284
fon	-10.7284
▁tenis	-10.7287
▁získává	-10.729
▁okolností	-10.729
▁vpravo	-10.7294
▁alkoholu	-10.7297
▁výklad	-10.7298
jen	-10.7299
▁dy	-10.7301
▁branku	-10.7307
▁výběrem	-10.7309
rád	-10.7309
▁gra	-10.7309
▁policisté	-10.7312
▁rána	-10.7315
▁zjištění	-10.7316
▁sál	-10.7318
vál	-10.732
▁tvorby	-10.7321
▁vyšlo	-10.7322
▁vstříc	-10.7325
▁ventil	-10.7327
yl	-10.7328
zo	-10.7329
▁řešením	-10.7329
▁důchod	-10.733
vedou	-10.733
▁přítele	-10.733
▁objektů	-10.7333
▁svazu	-10.7335
▁smích	-10.7336
▁výhodné	-10.7336
ačky	-10.7337
▁lásku	-10.7339
▁externí	-10.734
▁zábavní	-10.7344
▁tabulka	-10.7345
▁představen	-10.7346
▁výborně	-10.7346
▁hrách	-10.7347
▁občanské	-10.7347
bývá	-10.7349
nicí	-10.7349
▁užijte	-10.7349
▁informovat	-10.7351
▁hospodářské	-10.7351
▁velko	-10.7352
kot	-10.7353
▁váha	-10.7354
▁navijáky	-10.7355
▁vět	-10.7358
lid	-10.7358
▁hospoda	-10.7359
▁spustit	-10.736
▁vál	-10.7363
běž	-10.7365
▁žádá	-10.7367
▁obtížné	-10.7367
ds	-10.7369
▁trvat	-10.7369
▁představil	-10.737
bíral	-10.7371
▁květnu	-10.7372
kají	-10.7374
dne	-10.7375
▁přemýšlet	-10.7375
▁vysvětlil	-10.7376
▁zemědělství	-10.7376
▁vlastností	-10.7378
▁každým	-10.738
pracovan	-10.7383
▁posledního	-10.7383
▁parkoviště	-10.7386
▁dějin	-10.7388
▁osobnost	-10.7391
#.#	-10.7391
▁věřit	-10.7394
▁chem	-10.7395
▁centů	-10.7396
▁možných	-10.7398
▁uvědomit	-10.7401
ovicích	-10.7406
▁pořad	-10.7406
tický	-10.7407
voj	-10.7408
▁císař	-10.7411
▁vysokých	-10.7413
▁kmen	-10.7416
▁výpis	-10.7417
▁certifikát	-10.7419
▁zmínil	-10.742
▁eshopu	-10.7421
▁francouz	-10.7424
▁polovina	-10.7425
▁nejpopulárnější	-10.7427
▁proběhla	-10.7429
▁úspěšné	-10.7429
▁obsahem	-10.7432
▁říjnu	-10.7433
▁předmětem	-10.7433
▁německo	-10.7434
▁bonusem	-10.7434
▁britské	-10.7434
▁aero	-10.7437
▁kolegy	-10.7444
▁nábytek	-10.7444
▁klíče	-10.7447
dar	-10.7448
▁měří	-10.7448
▁bran	-10.7449
▁peněžní	-10.7455
▁moji	-10.7462
▁mix	-10.7462
▁chorob	-10.7462
▁zpěvák	-10.7463
▁těmto	-10.7466
stvo	-10.7467
lev	-10.7468
▁detail	-10.7469
ap	-10.7471
▁inteligentní	-10.7473
▁objednávky	-10.7474
olu	-10.7474
▁pokyny	-10.7477
▁podniků	-10.7481
ld	-10.7483
▁link	-10.7484
▁slep	-10.7485
▁čtenář	-10.7489
▁vítr	-10.749
▁dosah	-10.7493
▁závěrečné	-10.7494
▁figur	-10.7498
▁šaty	-10.7498
▁lodí	-10.75
▁piva	-10.7503
▁dosáhl	-10.7506
ada	-10.7509
▁navštivte	-10.7511
▁radnice	-10.7512
▁nejenom	-10.7512
▁polí	-10.7512
žen	-10.7513
▁katalog	-10.7514
▁uhlí	-10.7515
▁stála	-10.7515
car	-10.7515
▁zažít	-10.7518
plav	-10.7518
▁finančně	-10.752
▁thunderstruck	-10.7523
▁vzdělávací	-10.7524
▁značek	-10.7526
▁kámen	-10.7526
rem	-10.7529
▁objemu	-10.7531
▁dobro	-10.7531
▁para	-10.7532
cc	-10.7533
▁ples	-10.7533
▁povedlo	-10.7535
▁ukáže	-10.7536
▁míře	-10.7536
▁spojen	-10.7538
▁karla	-10.754
něji	-10.754
▁nemyslím	-10.7544
ram	-10.7547
▁užitečné	-10.7548
▁starého	-10.7548
the	-10.7548
▁all	-10.7552
▁poplatku	-10.7553
níku	-10.7555
▁box	-10.7555
gy	-10.7556
▁náboženství	-10.7557
kově	-10.756
stal	-10.7562
▁tradice	-10.7564
▁předmětů	-10.7565
hlá	-10.7565
▁vlivem	-10.7566
▁modul	-10.7568
▁písně	-10.7569
▁fotek	-10.757
kládání	-10.757
▁napsala	-10.757
▁budoucna	-10.757
▁příspěvků	-10.7576
▁krku	-10.7577
▁konkurenci	-10.7577
▁červen	-10.7579
▁červnu	-10.7579
▁symbolů	-10.758
dání	-10.758
▁kondicionálu	-10.7585
▁průměrná	-10.7586
one	-10.7587
▁pracovníci	-10.7589
▁současný	-10.7591
lem	-10.7591
▁bezplatná	-10.7592
▁stromy	-10.7596
▁nevěděl	-10.7597
▁obdrží	-10.7597
▁jednodušší	-10.76
psal	-10.76
cel	-10.7603
▁začínal	-10.7605
▁vybraných	-10.7605
▁cl	-10.7606
▁high	-10.7606
▁porazit	-10.7609
▁vlas	-10.761
▁varianty	-10.7611
nal	-10.7612
▁nato	-10.7614
▁moz	-10.7615
▁leg	-10.7615
▁rostliny	-10.7619
▁adrese	-10.7619
▁novin	-10.762
sch	-10.762
tis	-10.7621
izované	-10.7622
▁sval	-10.7623
▁říkat	-10.7624
směr	-10.763
▁texas	-10.763
▁stačilo	-10.7631
▁oběma	-10.7632
▁orl	-10.7635
▁okraji	-10.7636
před	-10.7637
▁fungování	-10.7637
▁pozemní	-10.7639
▁mobilních	-10.7639
▁příležitostí	-10.764
▁band	-10.7641
▁vypr	-10.7642
▁obecní	-10.7646
▁fanoušky	-10.765
▁kru	-10.765
▁plánování	-10.7651
pri	-10.7651
▁svobod	-10.7652
▁organizaci	-10.7653
▁suché	-10.7656
▁příjemně	-10.7656
▁formuláře	-10.7657
▁zákonů	-10.7659
▁nesou	-10.7659
▁nastoupil	-10.766
▁reálné	-10.7661
▁dávky	-10.7661
▁koupí	-10.7662
vej	-10.7665
▁bytě	-10.7671
▁měsíčně	-10.7672
▁úspor	-10.7672
lil	-10.7674
▁nesmírně	-10.7675
▁konání	-10.7675
▁reel	-10.7677
▁povinné	-10.768
▁pořadu	-10.7681
▁čtyřech	-10.7681
▁zařazen	-10.7681
▁kategorií	-10.7683
din	-10.7684
izoval	-10.7685
▁brankář	-10.7685
▁staly	-10.7688
▁hotovost	-10.769
▁veřejného	-10.7691
▁sázek	-10.7692
▁červený	-10.7696
▁naproti	-10.77
▁bezplatných	-10.7702
▁češi	-10.7703
▁situací	-10.7707
▁bojí	-10.7707
barv	-10.7708
▁nabídek	-10.771
▁doplnil	-10.771
park	-10.7711
▁nima	-10.7711
▁praktik	-10.7712
pas	-10.7715
▁vložit	-10.7715
▁brod	-10.7716
dn	-10.7718
sty	-10.7719
▁gb	-10.7719
▁obvyklé	-10.772
▁pracoviště	-10.7722
and	-10.7726
▁moč	-10.7726
▁politici	-10.7728
ndr	-10.7728
▁vyšel	-10.7729
▁duši	-10.7729
▁vypadalo	-10.7732
▁kw	-10.7733
▁#,#%	-10.7734
dek	-10.7734
▁daném	-10.7736
▁objednat	-10.7737
▁arch	-10.7738
▁odborník	-10.7739
▁ple	-10.7739
▁zákazníkům	-10.7739
▁brání	-10.774
ativ	-10.7741
▁ploše	-10.7746
▁svoboda	-10.7748
▁respektive	-10.775
▁tapety	-10.7754
▁nestačí	-10.7755
▁lamp	-10.7758
▁poznámka	-10.7758
berg	-10.7759
▁návštěvy	-10.7765
▁prostorách	-10.7765
▁koupi	-10.7766
▁postele	-10.7767
rr	-10.7768
▁ein	-10.777
▁kuchyň	-10.777
tiv	-10.7772
▁navrhl	-10.7777
▁personál	-10.7778
▁vadí	-10.7778
▁dokumenty	-10.7783
▁něž	-10.7783
▁konektor	-10.7793
▁uvolnit	-10.7793
▁upravit	-10.7795
▁testu	-10.7795
▁biskup	-10.7796
▁designu	-10.7797
▁obdržel	-10.7797
▁neplatí	-10.78
▁testy	-10.7802
ávají	-10.7803
▁tiskové	-10.7803
▁úsměv	-10.7803
▁spuštění	-10.7803
▁podnět	-10.7804
ast	-10.7805
▁vrch	-10.7806
kládají	-10.781
▁partnera	-10.7812
▁odpověděl	-10.7813
▁poháru	-10.7815
ďte	-10.782
▁výkonem	-10.7823
▁ústavní	-10.7826
▁nemělo	-10.7829
▁páté	-10.7829
▁nemůžeme	-10.783
▁snižuje	-10.7839
átu	-10.784
▁francouzské	-10.7842
▁vad	-10.7842
ačních	-10.7845
sis	-10.7846
▁intenzivní	-10.7846
▁schválen	-10.7849
▁podobného	-10.7851
▁oficiálně	-10.7854
▁pláž	-10.7856
nička	-10.7857
lové	-10.7858
▁kousky	-10.7859
▁zvládne	-10.7862
při	-10.7865
▁objevují	-10.7868
ab	-10.787
▁ženské	-10.787
ava	-10.7873
ré	-10.7874
▁beru	-10.7877
▁cash	-10.7879
▁vln	-10.7883
nova	-10.7884
▁kouč	-10.7885
az	-10.7886
▁vyhlášen	-10.7888
▁kin	-10.789
▁rekreační	-10.789
▁zjistí	-10.789
▁témata	-10.7894
šil	-10.7895
▁svatební	-10.7898
sport	-10.79
▁doporučit	-10.79
▁naději	-10.7903
▁nejčastější	-10.7905
▁neutral	-10.7905
▁okres	-10.791
elný	-10.791
▁ks	-10.7913
▁úvahu	-10.7914
▁dráž	-10.7915
▁dej	-10.7915
šim	-10.7917
aných	-10.7919
▁týmů	-10.792
▁zuby	-10.792
▁linux	-10.7921
řík	-10.7921
▁proběhl	-10.7921
▁odpovědnost	-10.7921
▁střediska	-10.7923
▁studijní	-10.7926
vil	-10.793
▁dobrého	-10.793
▁uspořádání	-10.7931
▁zapojení	-10.7933
nebo	-10.7936
▁ovládací	-10.7936
▁kontaktu	-10.7937
▁babiš	-10.7939
▁samotného	-10.7942
▁některý	-10.7945
▁cent	-10.7951
▁držel	-10.7952
▁začínající	-10.7953
▁kamarádi	-10.7955
ham	-10.7956
▁slovensku	-10.7956
▁povolen	-10.7957
▁tvořen	-10.7957
▁poznámky	-10.7959
▁planet	-10.7962
▁ban	-10.7964
▁jízda	-10.7966
▁umístit	-10.7967
moc	-10.7971
▁moři	-10.7971
▁hy	-10.7972
▁hoř	-10.7973
▁úseku	-10.7974
ys	-10.7977
▁verzí	-10.7979
▁junior	-10.798
▁nechybí	-10.798
▁květen	-10.798
▁zřízení	-10.7982
▁neváhejte	-10.7982
▁zákazníci	-10.7983
▁vedl	-10.7985
▁alba	-10.7986
ticky	-10.7988
▁povolání	-10.7989
▁najdeme	-10.799
▁poslanec	-10.7992
íci	-10.7993
▁písmen	-10.7993
riz	-10.7993
▁milý	-10.7994
▁použité	-10.7994
▁spí	-10.7995
eme	-10.7995
▁řadí	-10.7997
▁dětství	-10.7998
vrat	-10.8
nutý	-10.8004
▁upozornění	-10.8005
▁vzhůru	-10.8006
▁pomáhají	-10.8006
▁pleti	-10.8007
▁rozdělení	-10.8007
▁ochraně	-10.8009
▁analýzy	-10.8012
rý	-10.8012
▁čtvrté	-10.8013
▁provozovatel	-10.8014
▁jízdní	-10.8015
▁jezdil	-10.8017
▁zkoušel	-10.8017
▁pruh	-10.8017
▁drát	-10.802
cům	-10.8022
▁základem	-10.8022
▁tomhle	-10.8029
▁francii	-10.803
▁klade	-10.8032
▁občany	-10.8032
▁strop	-10.8036
▁zrak	-10.8038
▁dodavatele	-10.8038
▁něčím	-10.8039
▁dráhy	-10.8039
▁závisí	-10.8042
▁prozatím	-10.8042
▁pozdě	-10.8045
▁nazývá	-10.8046
▁instalaci	-10.8047
vet	-10.8049
▁blíže	-10.805
▁ukazují	-10.8051
čková	-10.8052
▁člověku	-10.8055
▁multiplikátory	-10.8058
▁sázku	-10.8058
▁pardubice	-10.8058
▁plzni	-10.8061
▁nalezen	-10.8061
▁atmosféra	-10.8063
▁přilákat	-10.8067
enka	-10.8067
▁oblíbenou	-10.8068
▁tun	-10.807
plá	-10.8071
▁maminka	-10.8073
▁hvězda	-10.8078
▁poměru	-10.8079
sť	-10.8079
▁comp	-10.8081
šit	-10.8082
▁přeprav	-10.8087
▁boční	-10.8087
▁šancí	-10.8088
vrh	-10.8088
▁technických	-10.8088
▁podezření	-10.8089
▁pomohl	-10.8091
▁tlaku	-10.8094
▁krb	-10.8096
▁napadlo	-10.8096
▁způsobů	-10.8097
▁morav	-10.8098
▁podat	-10.8098
▁musíš	-10.8106
▁odsouzen	-10.8107
▁zátěž	-10.811
▁ram	-10.811
▁splnění	-10.8112
▁pomohou	-10.8115
▁zveřejněn	-10.8119
▁výhoda	-10.8124
▁mějte	-10.8126
▁odlišné	-10.8128
▁modrá	-10.813
▁odjezd	-10.8134
ecká	-10.8137
▁trestní	-10.8138
ria	-10.8138
▁stabil	-10.814
oři	-10.8141
▁geo	-10.8144
▁iso	-10.8144
▁pozvánka	-10.8144
ením	-10.8145
▁souborů	-10.8147
▁škálu	-10.8149
▁konečné	-10.8152
▁probíhat	-10.8155
▁jist	-10.8155
▁klienta	-10.8156
▁recenzi	-10.8157
▁rop	-10.8158
▁válka	-10.8159
ora	-10.8159
▁zpravodaj	-10.816
▁svobodny	-10.816
▁hp	-10.816
▁roll	-10.8161
letou	-10.8162
▁odmítá	-10.8166
▁dívka	-10.8167
nový	-10.817
tika	-10.8171
▁vyšla	-10.8174
▁pojetí	-10.8175
▁iphone	-10.8178
hlédnout	-10.8179
▁výdajů	-10.818
▁dubnu	-10.818
šet	-10.8182
▁zdrojem	-10.8182
▁kopce	-10.8182
▁rozhodnete	-10.8183
▁brus	-10.8187
▁šok	-10.8188
▁řadou	-10.8189
▁dokázali	-10.8192
čel	-10.8192
▁kri	-10.8193
▁podruhé	-10.8194
▁ov	-10.8197
▁snímku	-10.8203
▁úder	-10.8206
▁loňském	-10.8207
▁výrobku	-10.8208
▁vín	-10.821
▁obří	-10.8212
▁skla	-10.8213
▁divočině	-10.8215
▁budově	-10.8216
vkou	-10.8217
▁časy	-10.8221
zkou	-10.8225
razil	-10.8226
cest	-10.8227
dej	-10.8235
stává	-10.8235
▁povinen	-10.8239
▁přicházejí	-10.8239
▁nápady	-10.824
▁bazénu	-10.8242
▁odvolání	-10.8242
▁orgány	-10.8243
▁podiv	-10.8243
lad	-10.8246
padá	-10.8247
▁včel	-10.8248
▁známe	-10.825
▁diváci	-10.825
▁přátele	-10.8251
▁kot	-10.8251
íd	-10.8255
měst	-10.8259
▁vid	-10.8263
▁odmítl	-10.8264
▁divoký	-10.8265
▁využit	-10.8265
▁vědom	-10.8266
▁motocykl	-10.8268
▁omlouvám	-10.8268
lis	-10.8271
▁slyšel	-10.8273
▁ryby	-10.8276
▁norma	-10.828
▁peter	-10.8281
▁příspěvkem	-10.8281
▁volit	-10.8282
▁dj	-10.8283
▁církev	-10.8284
▁přímé	-10.8286
seznam	-10.8286
▁posezení	-10.8286
pon	-10.8287
▁mit	-10.8288
rán	-10.8288
▁upozornil	-10.8289
bert	-10.829
tisk	-10.829
▁kompozice	-10.829
ow	-10.829
▁evropa	-10.829
▁psycholog	-10.8291
▁úplné	-10.8292
▁beton	-10.8293
▁večeře	-10.8295
říz	-10.8296
▁marketing	-10.8297
pos	-10.8297
▁záběr	-10.8298
▁čert	-10.8299
▁hlasů	-10.8302
gg	-10.8302
▁považovat	-10.8303
▁drak	-10.8303
▁zajistil	-10.8305
▁důkladně	-10.8308
▁sleduje	-10.8308
▁kle	-10.8315
▁intel	-10.8316
▁milá	-10.8316
▁del	-10.8317
▁absolvent	-10.8317
byl	-10.8321
▁palce	-10.8322
▁uvidíte	-10.8322
▁zlom	-10.8323
▁závodů	-10.8324
▁úřady	-10.8326
▁lokální	-10.8328
▁dodávky	-10.8329
▁čl	-10.833
▁soutěžní	-10.833
▁žák	-10.8331
▁veřejně	-10.8335
▁daný	-10.8336
▁odpovědět	-10.8337
▁dílu	-10.8338
▁volání	-10.8339
lič	-10.8339
▁napište	-10.8339
▁půjček	-10.8342
▁sezóně	-10.8345
▁metal	-10.8347
▁popel	-10.8348
▁psů	-10.8352
▁cyklist	-10.8354
▁komín	-10.8354
for	-10.8354
▁průmyslové	-10.8354
▁mysl	-10.8357
▁minulých	-10.8359
▁zima	-10.8365
▁odběr	-10.8365
zv	-10.8369
▁zaslouží	-10.837
cová	-10.8371
▁vrh	-10.8373
▁fla	-10.8374
▁dokumentů	-10.8375
▁uvedeny	-10.8377
▁taktéž	-10.8377
html	-10.8378
▁podnikatel	-10.838
▁nejlevnější	-10.838
▁jisti	-10.8381
▁mraz	-10.8383
▁klášter	-10.8383
▁kořen	-10.8385
▁výkonný	-10.8385
suv	-10.8388
tice	-10.8388
tně	-10.8388
▁bývají	-10.8389
▁zlata	-10.8389
▁podmínkou	-10.8391
rna	-10.8391
▁zoufale	-10.8391
▁prochází	-10.8394
ůj	-10.8395
▁porod	-10.8403
▁prachy	-10.8404
▁krás	-10.8404
▁předchozích	-10.8404
▁určeny	-10.8409
lib	-10.8409
nor	-10.8409
▁dokonalý	-10.841
▁umožňující	-10.841
▁kaz	-10.8414
hat	-10.8415
▁spokojený	-10.8417
▁pode	-10.8418
▁chráněn	-10.8418
dané	-10.842
▁ant	-10.8421
▁mozku	-10.8421
hodin	-10.8422
▁zelená	-10.8422
▁ukrajin	-10.8422
▁hygien	-10.8424
▁použijte	-10.8425
▁lokalitě	-10.8426
aře	-10.8427
▁vážné	-10.8429
ura	-10.843
▁letadla	-10.8432
ting	-10.8432
ide	-10.8433
▁těšíme	-10.8433
fin	-10.8434
▁koncov	-10.8436
eru	-10.844
▁šach	-10.8442
jme	-10.8447
▁sezony	-10.8448
▁sum	-10.8449
▁podpořit	-10.845
▁zkontrolovat	-10.8453
▁scén	-10.8455
pokoj	-10.8459
▁najevo	-10.8459
▁vyh	-10.8462
▁kolika	-10.8463
▁zve	-10.8464
▁platné	-10.8464
▁líbilo	-10.8465
▁organizační	-10.8469
▁nul	-10.847
▁čtvrtý	-10.8471
rit	-10.8471
▁započne	-10.8472
▁bmw	-10.8472
kru	-10.8473
▁propojení	-10.8473
▁příznaky	-10.8474
▁večera	-10.8474
trav	-10.8475
▁zahrada	-10.8475
▁zázrak	-10.8478
áme	-10.8479
▁patřil	-10.8482
▁trasy	-10.8483
▁fal	-10.8483
▁pneumatik	-10.8484
cal	-10.8485
▁nebezpečné	-10.8486
vač	-10.8489
▁radi	-10.849
▁zateplení	-10.849
rky	-10.8491
▁rozumí	-10.8496
▁studio	-10.8496
▁průměrný	-10.8496
cký	-10.8497
▁určit	-10.8499
▁náladu	-10.8499
▁vypadají	-10.85
▁jel	-10.8502
▁itálie	-10.8505
▁modulu	-10.8505
eg	-10.8505
▁nechtějí	-10.8507
▁region	-10.8507
▁ukázala	-10.851
▁patře	-10.8513
ret	-10.8515
mlouvá	-10.8517
▁politických	-10.8518
▁léčba	-10.8521
test	-10.8521
▁international	-10.8524
▁prodloužení	-10.8525
▁dvor	-10.8526
žije	-10.8526
áren	-10.8527
▁ža	-10.8529
ley	-10.853
▁hlásí	-10.853
▁graf	-10.853
▁odtud	-10.854
▁vydali	-10.8542
▁salát	-10.8543
▁konečný	-10.8543
▁živě	-10.8544
▁lešení	-10.8544
aby	-10.8545
▁bou	-10.8547
▁tón	-10.8547
▁kouzlo	-10.8554
▁patrně	-10.8555
▁velitel	-10.8556
▁playtech	-10.856
rok	-10.856
▁dražší	-10.8563
▁časů	-10.8564
▁orgánů	-10.8566
▁elektr	-10.8566
▁dovoz	-10.8567
▁vzala	-10.8567
ida	-10.8568
▁hodnotí	-10.858
▁myslíš	-10.8582
▁pujcka	-10.8585
▁rozdíly	-10.8587
▁dozví	-10.859
▁hovor	-10.8591
▁vlevo	-10.8593
▁hale	-10.8596
▁přidáme	-10.8596
▁výrazné	-10.8599
icko	-10.86
▁důkaz	-10.8601
cházejí	-10.8606
▁písničky	-10.8606
▁územní	-10.8606
▁kur	-10.8607
▁stanici	-10.8609
▁sud	-10.8609
▁chovatel	-10.8609
▁rozdělen	-10.861
avé	-10.8611
▁soukromí	-10.8611
▁pracovního	-10.8612
býval	-10.8613
▁podobných	-10.8614
▁tvrdil	-10.8614
▁chová	-10.8614
▁vezme	-10.8617
vací	-10.8618
▁starou	-10.8619
ula	-10.8619
▁pravděpodobné	-10.8619
▁podstatné	-10.862
▁boku	-10.862
▁pin	-10.862
▁vklady	-10.862
▁otočil	-10.862
▁zkus	-10.8621
▁primární	-10.8622
▁necháme	-10.8624
▁majitelé	-10.8625
▁využil	-10.8625
▁předpokládá	-10.8625
▁přímý	-10.8625
▁běžných	-10.8626
▁blízké	-10.8627
▁čest	-10.8629
▁vůle	-10.8629
▁průměrné	-10.8631
▁dobrým	-10.8634
zar	-10.8636
▁nejrůznější	-10.8636
▁ekonomiky	-10.8637
▁robin	-10.8638
syp	-10.8638
▁přál	-10.8638
▁kupující	-10.8638
▁technik	-10.8639
▁jam	-10.8641
▁brány	-10.8645
▁doplň	-10.8646
▁stromů	-10.8646
▁autoři	-10.8649
koval	-10.8649
▁psí	-10.8652
▁řádně	-10.8654
ás	-10.8656
▁jindy	-10.8657
▁březnu	-10.8658
▁vrchní	-10.8661
▁větším	-10.8662
▁hmot	-10.8663
plo	-10.8664
▁ovládat	-10.8666
pálen	-10.8668
▁smluvní	-10.8669
▁sever	-10.8669
jm	-10.8671
▁potká	-10.8671
▁využívají	-10.8672
▁vědí	-10.8673
▁pokračoval	-10.8674
▁upřímně	-10.8675
▁stranách	-10.8678
▁form	-10.8679
▁nestojí	-10.8679
ňa	-10.8681
▁nejedná	-10.8682
▁pravidlo	-10.8686
▁zdát	-10.8687
▁použitím	-10.8689
▁rybník	-10.8689
▁fix	-10.869
chov	-10.869
▁proběhlo	-10.869
▁ač	-10.8693
▁souboj	-10.8694
▁poradí	-10.8695
▁dostupný	-10.8695
▁střed	-10.8696
▁sezónu	-10.8697
▁telefony	-10.8701
▁prsten	-10.8702
▁spokojeni	-10.8704
▁pohádky	-10.8708
▁účastní	-10.8712
▁žalob	-10.8715
▁eli	-10.8718
▁česky	-10.8719
▁vyrazil	-10.872
▁nabízeny	-10.8721
nická	-10.8723
▁mýt	-10.8723
▁diplom	-10.8724
▁vrt	-10.8726
▁začnete	-10.8728
▁cestující	-10.873
▁kampaň	-10.873
kového	-10.873
▁netradiční	-10.8733
▁trvalo	-10.8733
▁pojem	-10.8737
▁svátek	-10.8738
▁společný	-10.8738
▁surovin	-10.8738
▁nejvhodnější	-10.8739
▁lok	-10.874
▁znaky	-10.874
▁večeři	-10.8741
▁stanovené	-10.8742
kej	-10.8743
▁spotřeba	-10.8743
▁skončení	-10.8744
▁vel	-10.8744
▁svatý	-10.8749
▁vesmíru	-10.8756
▁nevz	-10.8757
▁vědecké	-10.876
▁občané	-10.8761
píše	-10.8762
▁karl	-10.8763
▁pohybovat	-10.8763
▁vcelku	-10.8767
▁záření	-10.8768
▁saun	-10.8768
▁uživatelům	-10.8769
▁úkolem	-10.877
▁ocel	-10.8772
▁fra	-10.8772
▁správa	-10.8773
klí	-10.8773
▁palet	-10.8774
▁rý	-10.8774
▁řešen	-10.8775
▁zachovat	-10.8776
▁legendární	-10.8778
▁účastník	-10.8781
▁zájemci	-10.8782
▁kruh	-10.8782
▁vyměnit	-10.8784
▁regul	-10.8784
cké	-10.8785
▁institucí	-10.8786
nn	-10.8788
▁slabší	-10.8789
▁inzerát	-10.8789
▁not	-10.8789
▁smr	-10.8791
▁bonusovou	-10.8797
▁náhodné	-10.8798
▁základním	-10.8802
▁podílel	-10.8805
▁výplatní	-10.8806
▁zachování	-10.881
▁nahradit	-10.8812
▁protokol	-10.8816
▁památky	-10.8817
▁plát	-10.8819
▁bel	-10.8822
▁konal	-10.8825
▁výšce	-10.8827
▁krajské	-10.8831
rej	-10.8835
stavil	-10.8836
▁číslem	-10.8838
▁prohlédnout	-10.884
▁nedošlo	-10.8841
▁nechcete	-10.8843
▁přiznat	-10.8845
▁značku	-10.8845
ovacích	-10.8846
▁zastoupení	-10.8848
▁českým	-10.8849
▁uzavřel	-10.885
▁původ	-10.8851
▁světle	-10.8852
▁kdekoliv	-10.8852
typ	-10.8853
▁slevy	-10.8854
fl	-10.8854
▁spokojenost	-10.8856
áte	-10.8857
▁indi	-10.8857
art	-10.8858
▁dovednost	-10.8859
▁finance	-10.8863
vát	-10.8863
▁sídlo	-10.8867
▁doplněn	-10.8868
něné	-10.8869
▁umělecké	-10.8872
koliv	-10.8874
pek	-10.8874
kuje	-10.8878
ety	-10.8879
poz	-10.8881
▁úsek	-10.8881
▁chicago	-10.8882
▁moravě	-10.8883
▁hard	-10.8883
▁padl	-10.8887
▁alp	-10.8887
▁široký	-10.8889
▁chr	-10.8889
mont	-10.8891
▁tisku	-10.8891
▁obyvatelé	-10.8891
▁dnem	-10.8892
▁poukaz	-10.8896
sle	-10.8896
lom	-10.8898
▁kontextu	-10.89
af	-10.8902
▁tenkrát	-10.8903
▁vyhlášení	-10.8904
▁nechala	-10.8905
▁expozice	-10.8907
▁zapojit	-10.8907
áh	-10.8907
▁dav	-10.8909
▁hyper	-10.8911
sah	-10.8911
▁malým	-10.8911
šti	-10.8912
eného	-10.8912
nila	-10.8913
▁svobodu	-10.8916
▁tabulce	-10.8918
▁ptá	-10.8919
▁dý	-10.8924
▁škod	-10.8929
▁ploch	-10.8931
kých	-10.8934
▁brian	-10.8934
▁sportovních	-10.8935
▁ide	-10.8935
▁prst	-10.8935
lých	-10.8936
enz	-10.8937
dan	-10.8937
▁pomáhat	-10.8938
▁vozidlo	-10.8938
kláda	-10.894
▁loňského	-10.8941
▁ústřední	-10.8941
bod	-10.8942
▁protein	-10.8945
▁připravené	-10.8945
▁průvod	-10.8946
▁krá	-10.8946
▁doklady	-10.8951
▁ukončen	-10.8952
ickými	-10.8952
skočil	-10.8952
▁dovnitř	-10.8953
▁hodinky	-10.8954
▁turnaji	-10.8957
▁posouzení	-10.8961
▁politiků	-10.8964
die	-10.8965
▁zmizel	-10.8969
▁časopisu	-10.897
ph	-10.8971
▁okno	-10.8972
▁prováděn	-10.8975
▁bázi	-10.8978
▁čár	-10.8982
▁diváků	-10.8985
▁historických	-10.8985
▁premiéra	-10.8986
▁silniční	-10.8986
čnou	-10.8987
▁zájmy	-10.8987
bat	-10.8989
▁sídlem	-10.8989
▁harry	-10.8991
▁užít	-10.8992
onu	-10.8993
▁kotouč	-10.8993
razí	-10.8994
▁orgán	-10.8997
▁zahrad	-10.8998
▁tha	-10.8998
▁lodě	-10.8998
▁kupní	-10.9
▁podobu	-10.9001
▁přirozeně	-10.9002
▁pohodlně	-10.9003
▁provádění	-10.9004
▁smluv	-10.9005
itelné	-10.9005
▁slovenské	-10.9006
▁mike	-10.9008
tre	-10.9008
saz	-10.9009
▁operaci	-10.9011
▁předpokládám	-10.9013
▁nevidím	-10.9015
▁náskok	-10.9017
▁zlepšit	-10.9018
▁nebudeme	-10.9019
▁zeď	-10.9021
▁takřka	-10.9022
▁každoročně	-10.9024
▁meta	-10.9027
▁mile	-10.9027
ovému	-10.9027
▁klesá	-10.9028
▁trhy	-10.9032
▁noviny	-10.9033
▁penězi	-10.9033
▁ztrácí	-10.9038
▁obětí	-10.9041
cer	-10.9042
▁uspokoj	-10.9043
▁správu	-10.9045
jeli	-10.9045
▁okruhu	-10.9047
▁transport	-10.9047
▁spo	-10.905
▁extrémní	-10.9052
▁had	-10.9052
▁lidové	-10.9054
▁řím	-10.9057
▁těžší	-10.9058
▁nemohli	-10.906
▁nezá	-10.906
▁zrušen	-10.9062
▁reakci	-10.9064
▁příčinou	-10.9065
▁chytit	-10.9065
▁průzkumu	-10.9068
▁unibet	-10.907
▁sobotní	-10.9071
▁moderátor	-10.9072
▁anna	-10.9074
▁bezplatnou	-10.9076
▁osobním	-10.9077
▁míří	-10.9077
▁hodil	-10.9077
veze	-10.9079
▁kohout	-10.9079
▁stanovení	-10.908
▁laser	-10.9081
áním	-10.9082
▁variant	-10.9082
▁okresní	-10.9083
▁vypadal	-10.9083
spir	-10.9085
▁zásah	-10.9087
▁konstrukci	-10.9087
▁pozemky	-10.9087
▁nedělní	-10.9089
▁formul	-10.909
avý	-10.909
jas	-10.909
▁býval	-10.9092
▁klobouk	-10.9093
▁center	-10.9102
▁speciálních	-10.9104
▁kontaktujte	-10.9107
▁psycho	-10.9108
▁počítačové	-10.911
▁specifik	-10.9111
▁frank	-10.9111
▁postupem	-10.9112
▁zapomenout	-10.9113
▁daňové	-10.9114
▁výcvik	-10.9115
▁vejce	-10.9116
list	-10.9118
▁piv	-10.912
▁chov	-10.9121
anti	-10.9123
čík	-10.9125
▁pouč	-10.9127
cet	-10.9129
▁vyhráli	-10.913
▁dodavatel	-10.9136
▁krásnou	-10.9137
▁přeje	-10.9137
padnout	-10.9137
▁hodině	-10.9137
▁autě	-10.9142
▁světovládě	-10.9142
▁zůstala	-10.9143
▁disku	-10.9144
skému	-10.9144
▁aspekt	-10.9146
▁disponuje	-10.9148
▁dluh	-10.9154
sadí	-10.9154
▁dorazil	-10.9156
▁nehod	-10.9157
zna	-10.9157
cher	-10.9158
▁rozsáhlé	-10.916
▁kalendář	-10.916
bank	-10.9161
tých	-10.9161
▁dohled	-10.9162
bírá	-10.9163
atur	-10.9163
▁nagy	-10.9164
▁splnit	-10.9166
▁restartoval	-10.9167
pou	-10.9169
▁školách	-10.9172
▁plní	-10.9172
▁mléko	-10.9174
▁nejsme	-10.9176
▁zásadně	-10.9176
▁předsedou	-10.918
▁zvýšil	-10.918
▁turistické	-10.9182
▁základy	-10.9183
hnu	-10.9183
dali	-10.9184
hraj	-10.9188
red	-10.919
▁odborných	-10.9191
ány	-10.9191
▁přesný	-10.9191
▁cenné	-10.9194
▁stresu	-10.9195
▁generál	-10.9195
▁celku	-10.9196
▁master	-10.9197
▁následuje	-10.9197
▁ráj	-10.9198
sion	-10.9199
▁lokalit	-10.9202
▁popsal	-10.9203
▁autorů	-10.9205
▁oper	-10.9207
▁uveden	-10.9207
▁nastal	-10.9208
▁svědomí	-10.9209
▁vybral	-10.921
▁krom	-10.9211
▁přirozené	-10.9212
▁kamarády	-10.9215
▁řeči	-10.9215
▁sonia	-10.9219
▁zvýší	-10.9221
▁lom	-10.9221
▁mojí	-10.9222
▁podporou	-10.9224
▁rez	-10.9225
hnul	-10.9227
▁srb	-10.9228
▁poskytovat	-10.9232
▁příkladem	-10.9234
▁prac	-10.9234
▁sexy	-10.9236
▁přijďte	-10.9237
▁složky	-10.9238
▁užívá	-10.9239
▁export	-10.924
▁nejpozději	-10.9241
▁bá	-10.9242
▁prsty	-10.9242
▁čtvrtletí	-10.9243
▁nějakých	-10.9243
▁grant	-10.9244
▁přesun	-10.9244
podob	-10.9247
▁furt	-10.9247
▁opa	-10.9247
▁porodu	-10.9249
▁magnet	-10.925
▁vzájemně	-10.9253
▁existenci	-10.9253
▁případy	-10.9255
▁suv	-10.9258
▁hledáme	-10.9259
▁dosti	-10.9259
▁gta	-10.926
cent	-10.9261
nda	-10.9263
anci	-10.9264
▁technologii	-10.9265
▁starat	-10.9265
bs	-10.9267
ros	-10.9268
▁popřípadě	-10.9268
▁heslo	-10.927
ller	-10.9271
▁trub	-10.9271
▁akademie	-10.9274
▁zaručen	-10.9274
▁richard	-10.9274
▁potřebuji	-10.9275
nicích	-10.9275
▁arab	-10.9277
shi	-10.9279
▁slav	-10.928
▁zavr	-10.9281
▁diskusi	-10.9284
▁něhož	-10.9285
▁sboru	-10.9285
▁dvořák	-10.9285
hlíží	-10.9286
▁vedla	-10.9289
▁met	-10.929
ivá	-10.9291
▁youtube	-10.9291
▁ducha	-10.9292
▁doprovod	-10.9292
sob	-10.9293
▁mj	-10.9293
▁ošetření	-10.9294
▁výhra	-10.9296
▁obchodních	-10.9296
▁prošel	-10.9296
stva	-10.9297
▁papež	-10.9297
▁aktualizace	-10.9297
▁amerického	-10.9297
čák	-10.9299
▁dlouhodobý	-10.93
klo	-10.9301
bez	-10.9301
▁tan	-10.9305
▁kapacita	-10.9306
▁sníh	-10.9307
oc	-10.9313
ix	-10.9313
oni	-10.9314
▁kříže	-10.9318
▁fungují	-10.9321
▁cost	-10.9322
▁chránit	-10.9324
▁pojďme	-10.9325
▁jádro	-10.9326
▁lidský	-10.9327
▁omezit	-10.9327
▁pánové	-10.9327
▁poděkovat	-10.933
▁samozřejmostí	-10.9331
vádí	-10.9332
▁yared	-10.9333
▁výuky	-10.9333
▁vlk	-10.9336
kryl	-10.9336
▁trvale	-10.9338
▁závodě	-10.9339
▁podíváte	-10.934
▁odchodu	-10.934
▁neposlední	-10.9341
▁rybář	-10.9343
▁kapitál	-10.9344
▁zatížení	-10.9348
íka	-10.9351
ise	-10.9353
▁objev	-10.9354
▁běžný	-10.9356
▁literatury	-10.9356
roste	-10.9358
ickém	-10.9366
tku	-10.9367
▁penzion	-10.9367
▁kre	-10.937
▁drž	-10.9371
▁ir	-10.9371
▁obyčejný	-10.9371
▁obrazy	-10.9373
▁složitější	-10.9375
▁hora	-10.9376
▁útvar	-10.9378
▁řekli	-10.9382
▁ledvin	-10.9383
▁producent	-10.9383
▁sklen	-10.9383
ovně	-10.9384
chod	-10.9385
ovek	-10.9386
▁koukám	-10.9387
▁radosti	-10.9387
▁zachoval	-10.9391
▁záda	-10.9391
▁weby	-10.9392
▁josefa	-10.9394
▁tref	-10.9395
▁štěpán	-10.9397
▁sledoval	-10.9398
▁hmotnosti	-10.9399
platit	-10.94
▁zůstávají	-10.9401
čené	-10.9407
▁uh	-10.941
▁zdálo	-10.9411
▁grafika	-10.9411
šle	-10.9414
▁severu	-10.9414
▁vytvoří	-10.9417
▁doporučil	-10.9418
▁těžce	-10.9419
čím	-10.9419
▁novinka	-10.9419
▁pražského	-10.9419
tovat	-10.942
▁batoh	-10.942
▁natáčení	-10.9422
kázal	-10.9424
rání	-10.9425
▁cukru	-10.9425
▁hád	-10.9428
ple	-10.9429
▁zaznamenal	-10.943
▁myslela	-10.9431
▁abs	-10.9432
▁bri	-10.9433
tla	-10.9436
nie	-10.9436
▁vidíme	-10.9437
▁fondy	-10.9437
▁rozporu	-10.9438
vané	-10.9438
org	-10.9439
▁island	-10.9441
▁pozdravem	-10.9441
▁arm	-10.9442
▁sme	-10.9443
▁nakladatelství	-10.9446
▁způsobit	-10.9448
▁uplatnit	-10.9449
▁né	-10.945
▁nákupní	-10.945
▁státních	-10.9451
nů	-10.9451
▁čez	-10.9453
pustil	-10.9456
▁zajímavou	-10.9458
▁rukáv	-10.9458
▁československé	-10.946
▁opat	-10.9461
▁cat	-10.9462
▁jihu	-10.9463
který	-10.9463
▁najdou	-10.9464
▁group	-10.9467
ls	-10.9471
▁lektor	-10.9473
▁představoval	-10.9475
ari	-10.9475
bre	-10.9475
ong	-10.9476
▁ložnice	-10.9477
▁kloub	-10.9479
▁fl	-10.9479
▁pozdrav	-10.9481
▁zahrát	-10.9482
▁obav	-10.9484
kresl	-10.9484
jev	-10.9485
▁výstavu	-10.9486
▁reportáž	-10.9486
▁bol	-10.9487
▁slovensko	-10.9488
▁bát	-10.9488
▁zodpovědnost	-10.949
vost	-10.9491
▁knihovna	-10.9491
čat	-10.9494
ťa	-10.9499
mor	-10.9499
▁předních	-10.9503
▁sponzor	-10.9506
nuté	-10.9507
▁zap	-10.9507
▁svatého	-10.9509
▁lad	-10.9512
stát	-10.9513
▁mast	-10.9513
▁prvotřídní	-10.9515
▁podobná	-10.9515
▁viktor	-10.9517
▁stahovat	-10.9518
▁techniku	-10.9519
▁leh	-10.9524
staví	-10.9529
iš	-10.9534
▁ikon	-10.9535
bliž	-10.9535
▁nepatří	-10.9536
▁skutečnou	-10.9537
▁přijel	-10.9537
▁věnoval	-10.9538
▁dostalo	-10.9541
▁prvé	-10.9543
▁reality	-10.9543
▁vytvořili	-10.9545
▁nucen	-10.9546
▁menších	-10.9547
jdu	-10.9553
▁zákrok	-10.9553
▁tempo	-10.9553
▁potěší	-10.9557
▁blogu	-10.9557
▁říkala	-10.9557
▁end	-10.9558
tín	-10.956
▁patent	-10.956
▁komunikovat	-10.9563
▁bránit	-10.9565
vku	-10.9565
▁spoustou	-10.9566
▁svědčí	-10.9566
▁vaším	-10.9566
▁slušné	-10.9569
▁lídr	-10.9571
▁placení	-10.9571
▁dolar	-10.9573
bírat	-10.9575
▁pokusil	-10.9576
▁suchý	-10.9581
▁vyhovuje	-10.9581
▁pevný	-10.9581
šen	-10.9584
▁topení	-10.9584
tav	-10.9585
▁výt	-10.9585
▁lis	-10.9589
kul	-10.9591
▁vin	-10.9591
▁reklam	-10.9591
▁akt	-10.9592
▁horké	-10.9597
▁sotva	-10.9599
▁zaměstnanec	-10.9604
ell	-10.9604
lie	-10.9609
▁minutu	-10.9609
▁soustav	-10.9611
▁snažili	-10.9611
▁minutách	-10.9611
har	-10.9615
mot	-10.9616
spo	-10.9622
▁zub	-10.9622
▁ře	-10.9622
tov	-10.9624
▁modrý	-10.9624
▁blahoslavené	-10.9627
▁nerad	-10.9627
▁objekty	-10.9629
▁uváděn	-10.9631
ujícím	-10.9632
▁prostějov	-10.9634
čkách	-10.9634
▁nábytku	-10.9636
znam	-10.9636
▁dobrých	-10.964
▁postel	-10.9641
▁stačil	-10.9641
▁hospodaření	-10.9642
▁žetony	-10.9643
▁doklad	-10.9645
▁přinejmenším	-10.9645
▁sále	-10.9645
▁lese	-10.9647
▁bylin	-10.965
▁nechali	-10.9651
nského	-10.9651
tivně	-10.9652
▁skle	-10.9652
▁noví	-10.9652
▁inovativní	-10.9654
▁líto	-10.9655
▁pokrok	-10.9656
▁matěj	-10.9658
▁principu	-10.9659
▁nem	-10.9659
▁politiku	-10.9659
▁pěn	-10.9659
▁nejkrásnější	-10.966
▁přejít	-10.9662
▁cla	-10.9662
ičce	-10.9664
▁fanoušků	-10.9665
▁cílů	-10.9665
bur	-10.9667
▁investic	-10.967
▁coby	-10.967
▁odboč	-10.9671
▁evropský	-10.9671
▁uvolnění	-10.9671
▁městech	-10.9675
▁dávám	-10.9676
▁bay	-10.9676
▁přírodních	-10.9679
mod	-10.9681
avě	-10.9682
▁samostatný	-10.9686
▁vzp	-10.9689
▁obchodního	-10.9689
padají	-10.9691
▁překvapivě	-10.9691
▁jedenáct	-10.9692
▁fer	-10.9693
kar	-10.9694
▁skončit	-10.9694
▁kontaktovat	-10.9695
hodnot	-10.9696
▁pneumatiky	-10.9696
žní	-10.9696
▁paliva	-10.97
can	-10.9701
▁zničen	-10.9701
isti	-10.9703
▁slíbil	-10.9704
▁posílení	-10.9704
▁pádem	-10.9705
▁reklama	-10.9709
▁úzké	-10.9712
▁tepelné	-10.9713
▁trefil	-10.9713
jedna	-10.9714
▁tim	-10.9714
▁tarif	-10.9721
▁následujícím	-10.9721
▁jedinečnou	-10.9721
▁kunhuty	-10.9724
▁americe	-10.9725
▁omezené	-10.9726
čné	-10.9727
člen	-10.9728
▁antonín	-10.9729
▁byty	-10.973
▁poskytnutí	-10.9732
▁hospodářství	-10.9734
▁kore	-10.9736
▁řádky	-10.9738
ill	-10.9738
▁nápis	-10.9738
▁sleva	-10.9739
▁písní	-10.9741
▁králov	-10.9742
▁katastrof	-10.9742
▁reprezentant	-10.9743
▁vědci	-10.9747
▁počítačů	-10.9748
nské	-10.9751
▁sedl	-10.9751
▁klíčové	-10.9755
tko	-10.9755
▁dětská	-10.9755
▁populace	-10.9755
▁středních	-10.9759
▁zahrnují	-10.976
▁podklad	-10.9762
▁obchody	-10.9762
▁kontakty	-10.9764
▁porazil	-10.9764
▁hrami	-10.9767
▁rozvíjet	-10.9768
▁celkovou	-10.9768
▁hoře	-10.977
▁existující	-10.977
▁herec	-10.977
▁spadl	-10.977
▁dostatečné	-10.9772
ovanými	-10.9772
▁lem	-10.9773
▁vládě	-10.9776
▁hřbitov	-10.9777
▁podíval	-10.9777
stro	-10.9777
las	-10.9778
▁maria	-10.9778
▁zvuku	-10.9778
cl	-10.9779
▁kamene	-10.978
kk	-10.978
čuje	-10.978
▁lesk	-10.978
▁vážení	-10.9784
▁podob	-10.9785
▁sestav	-10.9786
▁pres	-10.9788
▁odejít	-10.9789
kde	-10.9791
▁vzdálen	-10.9792
▁past	-10.9793
▁mot	-10.9793
▁kaps	-10.9794
▁patnáct	-10.9795
▁považuji	-10.9795
▁energií	-10.9796
▁výstavbu	-10.9796
▁osobního	-10.9799
nko	-10.9799
▁jičín	-10.98
▁pdf	-10.98
▁používal	-10.9801
▁děkuju	-10.9802
▁street	-10.9803
▁polské	-10.9804
▁nemusel	-10.9806
ary	-10.9807
fik	-10.9807
▁cool	-10.9809
▁úprav	-10.9813
▁komunismem	-10.9814
▁scénář	-10.9816
▁dlouhodobé	-10.9816
hrát	-10.9817
▁kapsy	-10.9818
▁prodat	-10.9818
▁obsahující	-10.9819
▁čtenáře	-10.982
▁fasád	-10.9821
▁mozek	-10.9821
▁stavět	-10.9824
▁ří	-10.9825
▁cyklo	-10.9825
▁poruch	-10.9826
▁prevence	-10.9826
níka	-10.983
▁koukal	-10.983
▁otevřený	-10.983
▁světových	-10.983
nášel	-10.9831
▁rozhod	-10.9831
▁rakovin	-10.9837
ivě	-10.984
▁obrátit	-10.9842
▁zaměřen	-10.9843
▁pláže	-10.9844
▁přesvědčit	-10.9844
vejte	-10.9845
▁strávit	-10.9845
▁odvod	-10.9847
▁rozumné	-10.9848
▁vědec	-10.9849
▁zelený	-10.985
▁odpověd	-10.985
▁normy	-10.985
▁dívat	-10.9851
čná	-10.9851
▁pravidelný	-10.9856
▁audit	-10.986
▁plemen	-10.986
tvrd	-10.986
▁koupel	-10.9863
▁spis	-10.9864
idel	-10.9866
▁stavebních	-10.9867
▁brambor	-10.9867
▁yaz	-10.9867
▁nest	-10.9867
▁jídel	-10.9867
▁obdržíte	-10.9869
▁licenční	-10.987
▁komiks	-10.987
▁benzín	-10.9871
▁nutně	-10.9871
▁tygr	-10.9871
ďa	-10.9872
oč	-10.9874
▁masáž	-10.9876
▁běhu	-10.9877
nec	-10.9878
▁doplnit	-10.9879
▁rusku	-10.988
zz	-10.9882
▁důležitou	-10.9883
▁pozná	-10.9884
▁začátečníky	-10.9885
▁půdě	-10.9885
▁samy	-10.9885
▁obchodě	-10.9886
▁neú	-10.9887
ložil	-10.9889
▁propad	-10.9889
▁čeští	-10.9889
▁zadavatele	-10.9896
▁ski	-10.9897
▁poslech	-10.9898
▁křesťan	-10.9901
▁srdci	-10.9901
▁léčby	-10.9901
▁prezentaci	-10.9902
▁obránce	-10.9904
▁střešní	-10.9904
▁emoce	-10.9905
▁šk	-10.9907
▁radek	-10.9908
▁duševní	-10.9908
▁prodejní	-10.991
▁das	-10.9912
▁imp	-10.9913
▁zákaznické	-10.9913
▁budování	-10.9915
▁plánuje	-10.9915
......	-10.9916
▁testovací	-10.9917
lt	-10.9917
▁stole	-10.9918
▁opatrně	-10.9918
▁brýle	-10.992
▁břehu	-10.9921
▁městského	-10.9922
▁vybrali	-10.9925
bách	-10.9926
▁agent	-10.9926
▁hn	-10.9927
▁stimul	-10.9928
▁cs	-10.9928
▁čipy	-10.9929
▁polštář	-10.9929
▁konzerv	-10.9931
▁zkusil	-10.9931
▁předmětu	-10.9932
▁semináře	-10.9932
▁tunel	-10.9932
▁vstupenky	-10.9933
▁příjemnou	-10.9934
▁prima	-10.9934
▁dědictví	-10.9936
▁málem	-10.9937
▁portálu	-10.9938
izován	-10.9939
▁fantastický	-10.9939
protože	-10.994
▁věděla	-10.9945
▁nálada	-10.9945
▁slušný	-10.9945
▁udržovat	-10.9946
▁kvalitních	-10.9946
rv	-10.9948
ovní	-10.9948
▁jakém	-10.9951
▁studovat	-10.9953
▁blo	-10.9954
▁spolehlivost	-10.9955
▁pred	-10.9955
▁setkal	-10.9964
▁pravou	-10.9966
▁rozvoji	-10.9966
▁vietnam	-10.9967
▁jdeme	-10.9969
▁výtah	-10.9969
▁servisu	-10.997
▁družstva	-10.997
▁kompaktní	-10.9973
vést	-10.9974
▁lize	-10.9975
▁skříň	-10.9976
▁dna	-10.9977
▁životem	-10.9978
▁efektivně	-10.9979
▁vyjádřit	-10.998
▁zapotřebí	-10.998
▁plánované	-10.9981
▁politice	-10.9981
▁státě	-10.9982
▁sociálně	-10.9982
▁mono	-10.9984
▁třicet	-10.9984
rb	-10.9986
letěl	-10.9988
zat	-10.9988
entní	-10.9988
▁garáž	-10.9989
▁záruka	-10.9989
▁odraz	-10.999
▁dnešního	-10.9991
veřej	-10.9995
ves	-10.9998
▁vlád	-10.9999
▁rozšířil	-10.9999
▁home	-10.9999
▁řek	-11.0001
▁game	-11.0003
léha	-11.0005
▁nedokáže	-11.0006
▁oblíbená	-11.0007
ota	-11.0009
▁zbývá	-11.001
▁třikrát	-11.001
▁škodu	-11.001
▁nejzajímavější	-11.0011
gra	-11.0012
▁servisní	-11.0014
▁minulém	-11.0015
letí	-11.0017
▁hluboké	-11.0018
komp	-11.0018
▁management	-11.0018
▁linka	-11.002
▁miloš	-11.0021
▁videoklip	-11.0022
▁vzdálené	-11.0023
▁vůli	-11.0023
▁židle	-11.0024
nis	-11.0024
▁planety	-11.0029
▁kartou	-11.0032
▁epi	-11.0032
▁pustil	-11.0035
▁přátelství	-11.0035
ismem	-11.0036
part	-11.0038
▁základu	-11.0038
▁střih	-11.0039
ovec	-11.0041
př	-11.0041
if	-11.0041
▁místy	-11.0042
▁lcd	-11.0043
▁ručení	-11.0046
▁vyhrála	-11.0046
▁červenci	-11.0046
▁fil	-11.0047
▁jízdě	-11.005
▁objevuje	-11.0052
▁řemesl	-11.0053
▁olomouci	-11.0055
▁působit	-11.0058
▁budějovice	-11.0058
▁honza	-11.0059
zon	-11.006
▁zádech	-11.0062
▁nestalo	-11.0063
▁snídaně	-11.0065
amp	-11.0066
▁diskuzi	-11.0066
▁obličej	-11.0067
▁rudolf	-11.0069
▁sdělení	-11.0069
▁pomáhal	-11.0069
rovna	-11.007
laj	-11.007
▁prestižní	-11.0074
▁nezná	-11.0075
▁logické	-11.0076
qui	-11.0076
▁umělé	-11.0077
▁absolvoval	-11.0077
dala	-11.0079
▁komunikací	-11.0081
pálil	-11.0082
▁stejného	-11.0082
▁tem	-11.0082
▁krevní	-11.0086
▁uložit	-11.0089
▁podpis	-11.0089
▁členské	-11.0089
▁vzkaz	-11.009
natý	-11.009
izační	-11.0092
▁řádků	-11.0092
▁lucie	-11.0092
▁šv	-11.0093
▁babička	-11.0093
▁nízkou	-11.0093
▁skalní	-11.0095
▁motivem	-11.0096
▁stihl	-11.0097
▁pozemků	-11.0097
razit	-11.0099
kala	-11.0099
▁opatřen	-11.0102
▁čtenáři	-11.0103
lic	-11.0105
▁solární	-11.0107
▁ladislav	-11.0107
▁nova	-11.011
▁fakulty	-11.0111
▁rodinou	-11.0111
▁uvidí	-11.0112
▁podpoře	-11.0113
▁stanislav	-11.0113
ske	-11.0113
zor	-11.0113
▁nepochybně	-11.0114
▁ol	-11.0114
ovská	-11.0116
▁konkurenční	-11.0116
▁získejte	-11.0116
▁délky	-11.0116
▁ženský	-11.012
bb	-11.0121
íčko	-11.0121
▁rozvod	-11.0124
▁edit	-11.0127
▁ger	-11.0127
dává	-11.0127
▁skladem	-11.0129
obraz	-11.013
▁struktury	-11.0131
▁kočky	-11.0133
▁sortiment	-11.0134
▁bolí	-11.0135
dli	-11.0136
▁sony	-11.0139
▁náplň	-11.0139
▁pochopil	-11.014
▁sektoru	-11.0141
▁rezervaci	-11.0145
▁zbraň	-11.0145
▁izrael	-11.0147
▁německého	-11.0147
▁prostorné	-11.0148
▁sól	-11.015
▁závěs	-11.0152
▁schválení	-11.0152
▁krajiny	-11.0154
▁raj	-11.0154
▁výměna	-11.0156
▁volbu	-11.0157
▁žal	-11.0158
▁smlouvě	-11.0158
▁brzo	-11.0159
▁touha	-11.016
▁bill	-11.0162
▁rs	-11.0164
▁živý	-11.0164
▁lékařské	-11.0169
▁děs	-11.0171
▁kla	-11.0172
▁medvěd	-11.0172
▁spravedlnosti	-11.0172
▁senátu	-11.0173
▁bru	-11.0173
▁vlastnost	-11.0174
▁solidní	-11.0174
▁bul	-11.0176
▁cestách	-11.0176
▁veterán	-11.0178
▁právních	-11.0178
▁kontrast	-11.018
▁příštího	-11.018
▁ekologické	-11.0181
▁kolon	-11.0183
▁fri	-11.0184
▁dokumentu	-11.0184
álu	-11.0186
▁volá	-11.0187
▁přiznal	-11.0187
▁bydliště	-11.0187
▁časté	-11.0187
▁káva	-11.0189
▁posléze	-11.019
ácké	-11.0194
▁obchodů	-11.0194
▁platnost	-11.0195
▁zakladatel	-11.0195
▁téhle	-11.0195
▁motivy	-11.0195
▁sezoně	-11.0197
▁špatná	-11.02
▁doufal	-11.0201
▁draho	-11.0201
▁něčem	-11.0202
▁místním	-11.0205
▁otevírá	-11.0206
▁prosinci	-11.0206
mé	-11.0209
▁reform	-11.021
▁poradce	-11.0211
▁ekonom	-11.0213
▁kauz	-11.0214
suz	-11.0215
▁neni	-11.0216
▁cyklu	-11.0216
▁konzum	-11.0217
▁omezen	-11.0218
▁nabízím	-11.0222
▁poštovní	-11.0222
▁trápí	-11.0222
▁svěží	-11.0222
▁cihl	-11.0224
▁desku	-11.0225
▁ocitl	-11.0225
▁blbost	-11.0227
▁způsobuje	-11.023
▁doplnění	-11.0231
▁ráz	-11.0231
▁zůstali	-11.0232
▁trvání	-11.0233
lly	-11.0233
▁rozptyluje	-11.0234
san	-11.0234
bla	-11.0235
▁pěkná	-11.0235
▁příklady	-11.0236
▁mezinárodního	-11.0239
▁oděv	-11.0241
▁spojit	-11.0241
lk	-11.0241
▁vrstvy	-11.0242
▁vydá	-11.0243
▁světového	-11.0243
lip	-11.0244
▁neudělal	-11.0246
ade	-11.0246
▁uv	-11.0247
▁deníku	-11.0248
▁vojáků	-11.0248
▁pís	-11.0248
▁díval	-11.0249
▁opti	-11.0251
▁životopis	-11.0253
dv	-11.0254
ring	-11.0255
▁orient	-11.0259
▁kostele	-11.0259
ony	-11.026
▁vládu	-11.026
▁zařadil	-11.0262
▁dohodu	-11.0262
▁prázdnin	-11.0263
▁fun	-11.0263
▁volno	-11.0263
▁neh	-11.0263
▁ži	-11.0264
▁skříně	-11.0265
▁lenka	-11.0265
▁brit	-11.0267
▁následky	-11.0268
▁balkon	-11.0268
ít	-11.027
▁pokr	-11.0271
▁klas	-11.0272
▁významu	-11.0273
▁podává	-11.0278
ologické	-11.0281
inou	-11.0282
▁dovolená	-11.0282
tvář	-11.0283
▁stylů	-11.0284
▁otevřen	-11.0287
▁přispívá	-11.0287
▁správná	-11.0287
▁dodání	-11.0288
teli	-11.0289
▁rodinného	-11.029
▁dělali	-11.029
xx	-11.029
▁vstupné	-11.029
▁našimi	-11.0292
▁čtvrti	-11.0292
▁charakteristick	-11.0293
▁žádostí	-11.0296
▁potřebujeme	-11.0297
▁přispěl	-11.0297
▁tábora	-11.0298
▁úřední	-11.0299
▁papíru	-11.0301
▁zvíře	-11.0302
▁sestra	-11.0308
▁slun	-11.031
pozor	-11.0311
▁uznání	-11.0312
▁přestat	-11.0312
▁komplet	-11.0313
▁snímky	-11.0314
sol	-11.0316
▁elektřiny	-11.0317
▁zemědělské	-11.0317
▁spánku	-11.0317
▁stupni	-11.0317
▁národa	-11.0317
lezl	-11.0319
▁skladby	-11.032
▁ventilátor	-11.0321
▁uši	-11.0322
▁chtělo	-11.0322
▁staro	-11.0322
ráží	-11.0322
▁hůl	-11.0323
▁multiplayer	-11.0323
psaný	-11.0323
▁učitele	-11.0324
▁realizovat	-11.0327
▁přístav	-11.0327
▁nejrůznějších	-11.0329
bude	-11.033
hlas	-11.0334
▁říše	-11.0334
▁dnešním	-11.0334
▁metodu	-11.0336
▁apartmán	-11.0336
▁off	-11.0337
anu	-11.0338
▁pěší	-11.0338
▁workshop	-11.034
▁otevře	-11.034
▁výlety	-11.034
▁hranic	-11.0342
▁vyloučen	-11.0344
váží	-11.0345
▁pražský	-11.0346
▁palm	-11.0346
▁tru	-11.0346
▁efekty	-11.0348
▁mš	-11.0348
▁krk	-11.0353
▁přidaný	-11.0354
▁domácího	-11.0355
▁kras	-11.0355
▁zklamání	-11.0355
▁konflikt	-11.0356
▁předvedl	-11.0358
inka	-11.0358
▁vkus	-11.0361
▁prozkoumat	-11.0362
tace	-11.0363
▁nema	-11.0364
svícen	-11.0365
▁logo	-11.0365
▁salon	-11.0367
▁shromáždění	-11.0369
▁atom	-11.0371
▁prohrál	-11.0372
▁lv	-11.0372
▁silná	-11.0374
▁očích	-11.0375
▁nápoj	-11.0376
▁akcie	-11.0377
▁dobrém	-11.0379
▁dem	-11.038
▁ús	-11.0382
▁úpravu	-11.0385
▁posloužit	-11.0386
▁mléka	-11.0388
čist	-11.0388
íčku	-11.0389
▁cenou	-11.039
▁zastaví	-11.0392
▁plavání	-11.0393
▁břez	-11.0394
▁partnerem	-11.0395
▁hodnotit	-11.0399
▁myši	-11.04
▁zkrat	-11.04
▁klima	-11.0401
▁vyrobit	-11.0405
▁obrátil	-11.0405
▁kolín	-11.0409
ovského	-11.0409
dávat	-11.0409
▁seděl	-11.041
▁původního	-11.0411
▁db	-11.0411
▁projevil	-11.0411
▁lži	-11.0413
ning	-11.0414
▁svaté	-11.0414
▁držák	-11.0416
book	-11.0416
▁oceli	-11.0417
▁desetiletí	-11.0419
tru	-11.042
▁církevní	-11.0421
▁profesní	-11.0422
▁one	-11.0422
▁che	-11.0422
▁soc	-11.0425
▁level	-11.0425
▁třetiny	-11.043
▁povinností	-11.0432
▁np	-11.0432
▁líbil	-11.0432
daný	-11.0435
▁retro	-11.0435
▁přehrávač	-11.0436
▁přesvědčení	-11.0436
▁pronájmu	-11.0438
▁dialog	-11.0438
▁středisko	-11.0438
▁drob	-11.0439
▁emailem	-11.0439
▁vlny	-11.044
▁oprava	-11.0441
▁koupila	-11.0441
▁gal	-11.0444
▁exp	-11.0444
▁redaktor	-11.0445
stě	-11.0445
▁tradici	-11.0445
átka	-11.0445
▁únoru	-11.0448
▁představa	-11.0449
▁lab	-11.045
bour	-11.0451
▁teplotu	-11.0453
tál	-11.0453
▁res	-11.0455
▁upraven	-11.0455
žek	-11.0455
▁zrušit	-11.0458
▁sousední	-11.0461
▁nemožné	-11.0461
▁nenechte	-11.0461
▁slad	-11.0463
vní	-11.0468
▁těšil	-11.047
▁firmou	-11.0471
▁autorem	-11.0474
pet	-11.0475
▁ruska	-11.0475
▁malém	-11.0475
ču	-11.0475
▁ren	-11.0476
▁pořídil	-11.0477
▁počkat	-11.0481
▁neuvěřitelné	-11.0484
▁šířka	-11.0484
▁muselo	-11.0486
▁analýza	-11.0486
▁těles	-11.0487
▁klip	-11.0488
▁zahradu	-11.0493
▁devíti	-11.0494
▁ukončil	-11.0498
▁kamenné	-11.0498
čila	-11.0504
řídí	-11.0509
▁tomáše	-11.0511
▁matrace	-11.0511
▁listu	-11.0513
kdo	-11.0515
▁přivedl	-11.0516
▁eko	-11.0517
▁slaví	-11.0518
▁kdekoli	-11.0518
▁odpovídal	-11.052
jedou	-11.0521
vých	-11.0521
▁samotná	-11.0522
lh	-11.0525
▁hodnocen	-11.0527
▁dámy	-11.053
▁vlast	-11.0533
▁vydáno	-11.0533
▁cigaret	-11.0534
▁pražském	-11.0535
▁vzniklo	-11.0536
▁hrd	-11.0536
▁mars	-11.0537
ction	-11.0539
▁operátorů	-11.0541
▁podpořil	-11.0541
▁uložen	-11.0544
▁konstrukcí	-11.0544
▁prodal	-11.0548
tiku	-11.0548
▁rozhoduje	-11.055
▁brigád	-11.055
▁splnil	-11.0553
psat	-11.0554
▁zaměstnavatele	-11.0557
real	-11.0558
tle	-11.056
▁neuvěřitelně	-11.0561
▁okamžité	-11.0561
og	-11.0562
link	-11.0564
▁sedět	-11.0566
▁mate	-11.0567
▁dán	-11.0569
▁sociálního	-11.057
tes	-11.0572
▁zem	-11.0574
▁pasivní	-11.0576
▁klíčových	-11.0577
▁přízemí	-11.0578
▁projevuje	-11.0578
▁náhle	-11.0579
▁potkal	-11.0581
▁team	-11.0584
▁zábavný	-11.0586
▁kompletně	-11.0587
▁léčbu	-11.0588
▁nečekal	-11.0588
▁spokojená	-11.0589
▁koncerty	-11.059
▁šat	-11.0591
▁hele	-11.0594
▁účinné	-11.0594
ory	-11.0596
▁cre	-11.0597
▁hnus	-11.0598
▁obrázků	-11.0601
▁chuti	-11.0602
ině	-11.0603
▁nevidí	-11.0604
▁vrstev	-11.0605
daných	-11.0605
▁grafiku	-11.0608
▁pec	-11.0611
▁kamery	-11.0612
▁rozšířené	-11.0614
▁likvid	-11.0615
▁názvy	-11.0615
▁postaví	-11.0616
▁armáda	-11.0618
▁jezera	-11.0627
▁hasiči	-11.0627
▁kampaně	-11.0631
▁harmoni	-11.0632
▁uč	-11.0634
▁ext	-11.0634
▁ec	-11.0636
tová	-11.0638
▁píseň	-11.0638
▁zjistila	-11.0639
▁slušně	-11.0641
▁hrůz	-11.0642
ničky	-11.0642
▁voj	-11.0642
▁prodávat	-11.0644
▁kávy	-11.0649
hrom	-11.065
▁záznamy	-11.0652
▁chovat	-11.0652
▁střechy	-11.0652
valy	-11.0657
▁triky	-11.0657
▁jasná	-11.0657
▁odměna	-11.066
lc	-11.0662
meli	-11.0665
hlížet	-11.0665
▁spotřebu	-11.0667
▁partnery	-11.0671
▁kontejner	-11.0672
▁bezpečnostních	-11.0672
▁všemu	-11.0672
▁may	-11.0674
rig	-11.0676
▁odpovědí	-11.0677
▁nepříjemné	-11.0679
▁družstvo	-11.0679
▁mart	-11.0681
enční	-11.0681
▁přijal	-11.0684
▁trendy	-11.0685
▁čekala	-11.0685
▁svato	-11.069
tion	-11.069
yn	-11.0691
▁týmem	-11.0692
▁skot	-11.0694
▁pokojů	-11.0695
▁pozdější	-11.0695
▁nevim	-11.0696
▁zlé	-11.0698
▁jazyce	-11.0699
▁současných	-11.07
▁hmoty	-11.0702
▁otáčení	-11.0706
▁tvořil	-11.0707
▁věcech	-11.0707
ečka	-11.0707
▁lidu	-11.0708
▁pracující	-11.0709
▁perfektně	-11.0709
▁spousty	-11.0709
▁provedl	-11.0711
cy	-11.0712
▁expert	-11.0714
▁puk	-11.0715
óz	-11.0716
telné	-11.0716
▁bramborové	-11.0717
▁soli	-11.0718
hlásí	-11.0719
▁píšu	-11.0719
▁veletrhu	-11.0719
▁cihel	-11.072
▁karlovy	-11.072
▁titulu	-11.0721
▁hydro	-11.0722
▁špičkové	-11.0723
▁zájezd	-11.0724
livý	-11.0725
▁barokní	-11.0726
▁prodávající	-11.0727
▁pevnost	-11.0729
▁beze	-11.073
ight	-11.0731
tvor	-11.0731
▁současného	-11.0734
▁zasloužil	-11.0736
▁přerov	-11.0737
▁dvojnásob	-11.0738
▁moto	-11.074
nických	-11.074
▁řídící	-11.0742
▁požár	-11.0742
▁ticho	-11.0744
ače	-11.0745
▁dohodě	-11.0746
dro	-11.0747
▁schopností	-11.0747
▁jazz	-11.0748
▁přípravek	-11.0748
▁redakce	-11.075
▁kř	-11.0752
▁bat	-11.0753
▁zbytky	-11.0754
▁podobnou	-11.0756
▁zabývat	-11.0756
▁čekání	-11.0759
▁omyl	-11.076
▁ital	-11.076
klop	-11.076
▁zvítězil	-11.0761
▁interní	-11.0762
▁tráví	-11.0762
▁oblouk	-11.0762
▁bomb	-11.0762
ejší	-11.0763
▁senzor	-11.0764
▁úvodu	-11.0764
▁životu	-11.0765
▁muzic	-11.0765
▁lékařů	-11.077
▁vnitra	-11.0771
▁trik	-11.0771
▁výstav	-11.0772
▁vzrostl	-11.0774
adlo	-11.0776
hodně	-11.0778
▁naplno	-11.0779
▁účinek	-11.078
▁veliký	-11.0782
▁nadšení	-11.0784
stoupí	-11.0786
▁upozorňuje	-11.0787
▁památek	-11.0787
grad	-11.0789
▁množstvím	-11.0789
▁otevřela	-11.0791
ivost	-11.0793
▁charakteru	-11.0793
▁rovin	-11.0794
▁něčeho	-11.0794
▁slev	-11.0795
lky	-11.0795
tinu	-11.0796
▁chyběl	-11.0796
▁zástupců	-11.0797
které	-11.0797
▁rozhlas	-11.08
▁výrok	-11.08
▁víru	-11.0801
▁kocour	-11.0801
▁lidská	-11.0802
▁dětských	-11.0802
▁snů	-11.0805
▁naplněn	-11.0806
ndy	-11.0807
gh	-11.081
▁komunikační	-11.081
▁prostředek	-11.0811
▁fantasy	-11.0815
▁požární	-11.0816
▁coinfalls	-11.0817
▁rohu	-11.0818
▁kredit	-11.0818
▁srpnu	-11.0818
ori	-11.0818
řazen	-11.0819
▁středně	-11.082
▁zaměřuje	-11.082
▁léčiv	-11.0821
▁objedná	-11.0821
▁opustit	-11.0823
▁hostů	-11.0824
▁přivést	-11.0827
▁sním	-11.0828
chyt	-11.083
▁nájemní	-11.083
vek	-11.0831
▁pohlaví	-11.0836
▁hluk	-11.0836
▁klienti	-11.0836
tim	-11.0837
▁neřekl	-11.0837
▁pít	-11.0837
▁hodlá	-11.0838
▁hunger	-11.0839
▁automobilů	-11.0841
▁snídani	-11.0842
▁vyrazili	-11.0844
▁pujcky	-11.0844
▁ovládá	-11.0848
▁příjezd	-11.0848
▁veden	-11.0849
▁snížil	-11.0849
▁rt	-11.0849
▁sdělil	-11.0851
▁nenechá	-11.0852
▁jasno	-11.0853
▁výstavby	-11.0854
▁hradci	-11.0855
▁pras	-11.0855
▁hodit	-11.0857
▁údaj	-11.0859
▁policii	-11.086
▁sady	-11.086
▁realitní	-11.0863
▁snahu	-11.0864
řič	-11.0864
▁párty	-11.0865
ust	-11.0867
kama	-11.087
▁upír	-11.0871
gs	-11.0871
uška	-11.0873
▁splňuje	-11.0873
▁mistrů	-11.0874
▁fyzicky	-11.0877
▁lékárn	-11.088
▁ohrožení	-11.0883
▁slovní	-11.0884
▁novi	-11.0886
▁původním	-11.0886
▁zaujal	-11.0887
▁zpoždění	-11.0887
▁resorts	-11.0888
lech	-11.0891
▁nosit	-11.0893
inger	-11.0895
▁přestal	-11.0895
▁letadlo	-11.0896
▁mno	-11.0898
▁návštěv	-11.0898
▁pravdy	-11.0901
řídil	-11.0902
▁vydržel	-11.0902
▁histor	-11.0903
dět	-11.0905
oko	-11.0906
▁lišit	-11.0906
▁hřích	-11.0908
letého	-11.0912
kovým	-11.0912
▁dek	-11.0914
▁položil	-11.0915
▁rodinných	-11.0916
illa	-11.0917
▁doprav	-11.0918
▁polohy	-11.0918
▁jindřich	-11.0921
ián	-11.0922
tím	-11.0923
▁pracovníky	-11.0924
▁nedal	-11.0924
▁lyžování	-11.0925
▁chomutov	-11.0925
▁zastupitelstva	-11.0925
▁jaksi	-11.0925
▁připojen	-11.0927
▁otrav	-11.0928
▁kart	-11.0929
▁dokončil	-11.0929
▁osad	-11.0931
▁překonat	-11.0932
▁kalhoty	-11.0934
▁hluboko	-11.0936
▁dodržování	-11.0936
▁fot	-11.0939
▁snadný	-11.0939
▁určitých	-11.094
▁potíží	-11.094
▁mříž	-11.094
▁španěl	-11.0948
▁trpělivost	-11.095
▁nářadí	-11.095
los	-11.0953
tivní	-11.0953
▁scéně	-11.0953
▁letecké	-11.0953
▁bohem	-11.0956
▁mari	-11.0957
▁sw	-11.0957
▁urč	-11.0957
▁shop	-11.0958
▁rodič	-11.096
▁vydělal	-11.0962
▁vrátila	-11.0962
▁advokát	-11.0962
▁stavebního	-11.0965
krýt	-11.0966
▁stroji	-11.0966
▁poslání	-11.0966
▁komisí	-11.0967
▁ya	-11.0968
▁zaměřené	-11.097
▁čísle	-11.0973
▁nádob	-11.0973
▁dělala	-11.0976
▁odstín	-11.0978
▁ztratí	-11.098
▁teoreticky	-11.0981
▁administrativní	-11.0981
▁psi	-11.0981
▁jemně	-11.0984
▁zaplatil	-11.0984
hub	-11.0986
▁maximum	-11.0988
▁nezbývá	-11.099
▁zkusím	-11.099
▁přidělen	-11.0991
▁vyberete	-11.0991
▁prádlo	-11.0992
▁tajné	-11.0993
▁system	-11.0994
▁odborníky	-11.0996
▁specifikace	-11.0997
▁neznámý	-11.0998
ano	-11.0999
▁dámské	-11.1001
▁vybrán	-11.1003
ure	-11.1005
▁krajského	-11.1006
▁kotel	-11.1006
dd	-11.1009
▁třebíč	-11.1009
▁čaje	-11.1011
chůd	-11.1012
▁politik	-11.1012
▁prahu	-11.1013
šování	-11.1013
▁stadionu	-11.1013
▁servery	-11.1015
▁koalice	-11.1016
bož	-11.1017
▁mostu	-11.1017
ink	-11.1019
▁ježíše	-11.1019
▁gólman	-11.102
▁minerální	-11.1021
▁poznatky	-11.1021
▁tričko	-11.1022
ivo	-11.1022
▁povol	-11.1024
▁účetnictví	-11.1024
▁rol	-11.1024
▁výchozí	-11.1027
cku	-11.1027
▁boleslav	-11.103
▁tržní	-11.1031
▁ničím	-11.1031
▁hc	-11.1031
▁ochranné	-11.1031
▁vyšetřování	-11.1032
rová	-11.1032
▁sny	-11.1033
▁psala	-11.1036
kreslen	-11.1037
▁lidského	-11.1039
▁sie	-11.104
▁tekutin	-11.104
átko	-11.1044
▁předsedy	-11.1044
▁oblé	-11.1047
▁poloh	-11.1047
▁podrobné	-11.1047
▁zveřejnil	-11.1047
ovité	-11.1051
ski	-11.1052
▁diamond	-11.1054
▁george	-11.1055
▁dopadlo	-11.1056
war	-11.1057
▁nutnost	-11.1059
▁přečtení	-11.1059
▁dopadne	-11.1061
▁motory	-11.1064
▁čerstvý	-11.1065
▁gps	-11.1071
ase	-11.1073
▁principy	-11.1074
sní	-11.1075
▁převeden	-11.1076
▁příjemná	-11.1076
▁nikam	-11.1077
▁kytar	-11.1077
▁ang	-11.1079
▁besed	-11.1079
▁novými	-11.1079
▁nechtěla	-11.1079
ket	-11.108
▁nákladní	-11.108
chot	-11.1082
▁vybere	-11.1082
▁doporučené	-11.1082
▁download	-11.1082
▁out	-11.1083
▁dělo	-11.1083
kap	-11.1083
▁kateřina	-11.1084
vám	-11.1085
▁míra	-11.1086
▁fascinující	-11.1086
▁výzva	-11.1086
▁parádní	-11.1087
▁big	-11.1087
▁výpočet	-11.1089
▁nezáleží	-11.109
▁stavbě	-11.109
▁připravena	-11.1091
▁rodu	-11.1095
▁založit	-11.1097
▁zvážit	-11.1097
▁full	-11.1097
▁určuje	-11.1097
▁fotbalové	-11.1098
▁průběžně	-11.11
▁marketingu	-11.11
▁zisky	-11.11
▁letoun	-11.1104
▁evropskou	-11.1104
▁partnerů	-11.1104
▁navrhuje	-11.1105
▁křiv	-11.1106
start	-11.1109
▁kostým	-11.111
▁asfalt	-11.1111
▁mikrofon	-11.1111
▁zajímat	-11.1111
dře	-11.1112
▁nedokázal	-11.1114
čín	-11.1114
use	-11.1114
hn	-11.112
▁letních	-11.112
pustit	-11.112
▁milovat	-11.1121
▁pozorování	-11.1122
▁plastové	-11.1123
▁pt	-11.1123
▁tvrdý	-11.1125
▁řidiči	-11.1125
stan	-11.1126
▁perl	-11.1128
▁kámoš	-11.1129
▁školního	-11.113
dně	-11.113
▁křeč	-11.1131
▁brad	-11.1131
▁ptal	-11.1132
▁krizi	-11.1133
četl	-11.1134
▁vzory	-11.1134
▁obzvlášť	-11.1135
▁navštívili	-11.1136
▁garant	-11.1136
▁koncepce	-11.1136
▁eine	-11.1137
▁statistiky	-11.1138
rovná	-11.114
zovat	-11.114
▁přinesla	-11.114
▁autorit	-11.1141
▁itálii	-11.1142
▁přirozený	-11.1144
▁prvo	-11.1145
▁stáří	-11.1146
▁odpadu	-11.1147
▁osobností	-11.1149
▁položka	-11.115
čo	-11.1151
▁sněmovny	-11.1153
▁hrozné	-11.1154
▁hej	-11.1157
▁mladík	-11.1166
▁zvládnout	-11.1166
▁organismu	-11.1166
▁věže	-11.1167
▁vyrazit	-11.117
▁vytáhl	-11.1171
▁kyt	-11.1171
▁opravu	-11.1174
▁sladké	-11.1175
▁způsoben	-11.1175
▁vnímání	-11.118
▁remíz	-11.1182
▁loterie	-11.1182
▁chytrý	-11.1182
▁krokem	-11.1183
▁operací	-11.1184
psán	-11.1184
▁bezpečně	-11.1184
dál	-11.1185
▁premier	-11.1185
▁italský	-11.1187
▁kabát	-11.1189
▁vražd	-11.1189
▁milovníky	-11.119
▁zastupitel	-11.119
▁věříme	-11.119
ňte	-11.1192
▁poskytovatel	-11.1192
▁převzetí	-11.1192
▁mapa	-11.1194
▁zastavení	-11.1194
▁pojišťovny	-11.1196
▁bronz	-11.1197
▁pap	-11.12
nož	-11.12
▁moravy	-11.1201
▁metra	-11.1201
▁jistá	-11.1202
▁určeno	-11.1204
▁ničemu	-11.1205
ními	-11.1205
pre	-11.1205
▁držitel	-11.1212
jd	-11.1213
▁trasa	-11.1213
▁odboru	-11.1214
▁listin	-11.1215
▁gro	-11.1219
▁soupeři	-11.122
▁dynam	-11.1222
▁dostávají	-11.1223
▁santa	-11.1223
cká	-11.1225
▁čechy	-11.1226
vár	-11.1226
▁sláv	-11.1226
▁spal	-11.1227
▁výš	-11.123
air	-11.1231
▁spojuje	-11.1232
pověd	-11.1232
čítá	-11.1232
▁klep	-11.1237
▁vznikají	-11.1239
▁maminky	-11.1239
▁zařazení	-11.124
▁herních	-11.124
▁ostrý	-11.124
▁domén	-11.1243
▁hostin	-11.1245
▁sněž	-11.1249
▁bože	-11.1249
▁prohlížeče	-11.125
▁činu	-11.125
▁sektor	-11.1251
▁významných	-11.1251
▁pát	-11.1252
▁nátěr	-11.1253
▁jazykové	-11.1255
▁důsledky	-11.1256
▁francouzský	-11.1257
▁interpret	-11.1258
▁vydané	-11.1259
▁sr	-11.1261
▁románu	-11.1262
▁napájení	-11.1262
▁antén	-11.1263
pět	-11.1263
▁front	-11.1264
eta	-11.1264
▁dosahuje	-11.1265
šené	-11.1266
▁uživateli	-11.1267
▁pustí	-11.1268
▁šíření	-11.1268
▁připravený	-11.127
▁trap	-11.1271
gro	-11.1274
íku	-11.1274
sv	-11.1275
▁nejznámější	-11.1275
jan	-11.1276
▁vstoupil	-11.1277
▁nádor	-11.128
ovna	-11.1281
▁vyhr	-11.1281
▁vyvinul	-11.1282
▁offline	-11.1282
▁mechan	-11.1284
▁tet	-11.1286
▁slavný	-11.1288
▁transakce	-11.1289
▁hasičů	-11.1289
▁obrovskou	-11.1293
jděte	-11.1293
hrával	-11.1295
▁hračky	-11.1295
▁nejenže	-11.1296
▁označuje	-11.1297
▁spolehlivé	-11.13
▁videoher	-11.1301
ša	-11.1303
▁pep	-11.1304
▁lyžař	-11.1304
▁vítá	-11.1307
▁srdeční	-11.1307
▁dostatečný	-11.1308
▁kameny	-11.1311
▁gl	-11.1311
▁platil	-11.1311
nců	-11.1312
▁realita	-11.1312
▁ohrožen	-11.1314
▁současná	-11.1314
▁udržení	-11.1314
▁setká	-11.1315
▁přítomnosti	-11.1316
▁příprav	-11.1318
▁pěšky	-11.1318
▁výher	-11.1318
▁plzeňský	-11.1318
▁pout	-11.1319
▁sobota	-11.1321
minut	-11.1322
▁daného	-11.1322
▁nimiž	-11.1323
▁kůr	-11.1324
▁kanceláří	-11.1325
dní	-11.1327
▁přístrojů	-11.1328
▁počátkem	-11.1328
bývají	-11.133
dávají	-11.133
▁příštích	-11.133
▁martinova	-11.1335
▁tvůrčí	-11.1336
disk	-11.1338
▁důvěru	-11.1339
▁vzpomínky	-11.1343
▁zažil	-11.1343
valo	-11.1344
vok	-11.1345
▁pokožku	-11.1347
▁nefunguje	-11.135
líb	-11.1352
▁lásce	-11.1354
▁jakožto	-11.1356
▁audi	-11.1357
▁holt	-11.1358
▁dolaru	-11.136
▁propuštěn	-11.136
▁lišt	-11.1362
▁námět	-11.1362
▁čep	-11.1364
▁zvědav	-11.1366
▁inf	-11.1372
▁vazby	-11.1373
▁láskou	-11.1373
▁pravdou	-11.1374
▁poradil	-11.1374
íčky	-11.1376
▁anglicky	-11.138
loh	-11.138
▁všiml	-11.1381
▁oprávnění	-11.1383
▁parametrů	-11.1384
číst	-11.1384
ším	-11.1386
▁pozorovat	-11.1389
▁hnízd	-11.139
int	-11.1391
▁nádobí	-11.1391
▁logicky	-11.1394
▁duel	-11.1395
▁výměnu	-11.1397
▁znamenat	-11.1401
▁intenzivně	-11.1401
klub	-11.1402
oru	-11.1404
tických	-11.1404
▁vstoupit	-11.1406
▁obývací	-11.1411
▁menšin	-11.1412
▁udrží	-11.1412
▁shi	-11.1415
▁poloze	-11.1415
▁dív	-11.1416
▁povrchů	-11.1418
▁obsahovat	-11.1419
▁příjmení	-11.142
▁elvis	-11.142
▁obsažen	-11.142
cion	-11.1422
▁členských	-11.1422
▁zadávací	-11.1423
▁bufetu	-11.1426
▁významnou	-11.1427
▁sluníčko	-11.1427
▁kontrole	-11.1427
▁gambler	-11.1428
▁hum	-11.1429
iss	-11.1429
▁výživa	-11.143
▁nováček	-11.1432
▁bos	-11.1432
▁výjezd	-11.1433
▁generátor	-11.1434
▁italské	-11.1435
anda	-11.1435
ero	-11.1436
▁dorazí	-11.1436
vého	-11.1437
▁samý	-11.1438
▁naučí	-11.1439
▁regulační	-11.144
utí	-11.1441
▁třeb	-11.1442
▁regulace	-11.1443
jmout	-11.1443
▁zóny	-11.1444
▁trenéra	-11.1444
▁zúčastnit	-11.1445
sat	-11.1446
▁golden	-11.1446
▁žluté	-11.1447
jat	-11.1448
▁nenávist	-11.1448
▁ztráta	-11.1449
try	-11.1452
tvrz	-11.1452
vec	-11.1453
peče	-11.1454
▁vládou	-11.1456
▁pádu	-11.1456
▁oznámila	-11.1458
▁vytvářejí	-11.1459
▁pochod	-11.1459
▁očekával	-11.146
▁music	-11.1461
štění	-11.1461
▁invest	-11.1462
▁pivovar	-11.1463
▁ozval	-11.1464
pne	-11.1465
▁uzavřen	-11.1466
▁zpívá	-11.1467
▁fial	-11.1468
▁listopad	-11.1469
▁lar	-11.1469
▁part	-11.1474
▁františka	-11.1474
▁schopný	-11.1474
▁uživatelské	-11.1475
▁hold	-11.1476
ložený	-11.1477
▁zapomněl	-11.1481
▁kate	-11.1481
řené	-11.1482
▁slevu	-11.1482
ile	-11.1483
▁příštím	-11.1483
tější	-11.1484
▁ukázka	-11.1485
chen	-11.1485
▁soustředění	-11.1486
▁opravit	-11.1486
▁pracovník	-11.1486
▁typický	-11.1487
kontrol	-11.1487
lazen	-11.1488
▁běl	-11.1488
▁výskyt	-11.1489
▁žijící	-11.149
▁zachránil	-11.149
ínek	-11.149
▁účinnost	-11.1492
▁nechává	-11.1494
▁kosti	-11.1495
▁úraz	-11.1495
▁opera	-11.1495
tají	-11.1496
soud	-11.1499
▁ceník	-11.1499
▁vyprávění	-11.15
rav	-11.1501
▁kotle	-11.1502
▁čechů	-11.1502
▁krou	-11.1503
▁vyvíjí	-11.1503
▁mezinárodních	-11.1506
▁rozhodovat	-11.1507
▁podzemní	-11.1507
▁případu	-11.1507
▁ránu	-11.1507
tip	-11.1509
cla	-11.1512
▁díle	-11.1512
▁řešil	-11.1513
istický	-11.1514
▁vyskytují	-11.1514
▁vrstva	-11.1514
nili	-11.1515
dáme	-11.1518
▁bezpečí	-11.1518
▁slavné	-11.1518
▁ur	-11.1521
▁iron	-11.1526
pořád	-11.1526
noc	-11.1529
▁označil	-11.153
▁ztrátu	-11.1532
▁překvapen	-11.1535
▁oborů	-11.1536
▁plnit	-11.1536
▁zlatá	-11.1537
▁rostou	-11.1537
▁předání	-11.154
▁adres	-11.154
▁myšlen	-11.154
▁reagoval	-11.154
▁klasickou	-11.1541
▁vyhrávat	-11.1542
▁rozmezí	-11.1547
▁morální	-11.1549
▁stížnosti	-11.1551
▁zač	-11.1551
▁kolej	-11.1554
přes	-11.1555
▁holdem	-11.1556
něný	-11.1556
▁dvojí	-11.1557
tví	-11.1561
tér	-11.1561
▁lidech	-11.1561
▁studené	-11.1561
mel	-11.1564
▁berou	-11.1565
▁tvůrci	-11.1566
▁vyskytuje	-11.1566
▁cíli	-11.1566
▁záležitosti	-11.1567
▁chu	-11.1567
▁dílem	-11.1568
▁černého	-11.1568
▁některým	-11.1569
▁odlišný	-11.157
▁akcií	-11.1572
▁put	-11.1575
▁alex	-11.1578
ury	-11.1578
▁růžové	-11.1578
stoupit	-11.1579
jížděl	-11.1581
▁utekl	-11.1581
▁právem	-11.1582
▁ujal	-11.1582
▁označen	-11.1583
▁neměly	-11.1583
▁lin	-11.1584
▁dálnice	-11.1584
▁nevadě	-11.1585
▁zobrazen	-11.1585
▁osn	-11.1585
▁hostující	-11.1585
▁funkčnost	-11.1588
▁zim	-11.1588
dia	-11.159
win	-11.159
▁člena	-11.1592
míst	-11.1593
des	-11.1594
▁aroma	-11.1594
▁nechám	-11.1595
▁celkového	-11.1596
▁farm	-11.1596
nar	-11.1596
▁jir	-11.1599
▁připomněl	-11.16
▁postavu	-11.1601
jal	-11.1602
▁zaručuje	-11.1603
▁rukama	-11.1603
▁inženýr	-11.1603
▁tituly	-11.1603
nutím	-11.1604
▁zlat	-11.1606
▁ostrově	-11.1606
▁sídlí	-11.1607
▁shon	-11.1607
▁focení	-11.1607
▁mah	-11.1609
hlížel	-11.161
▁lekce	-11.161
▁dort	-11.1614
▁fotografii	-11.1617
▁nemusím	-11.1617
▁ovlivněn	-11.1618
▁izolace	-11.1618
jedu	-11.1618
▁členům	-11.1618
▁kvalitního	-11.1618
▁přestav	-11.1619
▁manžela	-11.1623
▁napíše	-11.1623
▁využijte	-11.1623
▁talíř	-11.1626
▁kun	-11.1626
stu	-11.1627
▁dějiny	-11.1627
▁turné	-11.1628
▁institut	-11.1628
▁tep	-11.163
▁profilu	-11.1632
▁oslava	-11.1633
▁definitivně	-11.1633
▁vlhkost	-11.1633
▁subjekt	-11.1634
▁dceru	-11.1634
▁hledal	-11.1635
▁propagace	-11.1636
nášet	-11.1637
▁chutí	-11.1638
▁znova	-11.1641
nský	-11.1643
▁napadá	-11.1643
▁zápisu	-11.1644
▁zúčastnil	-11.1645
sb	-11.1645
▁vyšších	-11.1646
▁volí	-11.1647
▁mládí	-11.1648
▁přiznání	-11.1649
▁svěřen	-11.1649
▁výtvarné	-11.1649
lít	-11.165
▁nežádoucí	-11.1651
▁zkrácen	-11.1651
▁váží	-11.1652
▁učinil	-11.1652
▁ztrát	-11.1654
▁rozděl	-11.1656
▁dílny	-11.1656
▁luxor	-11.1657
▁soukromých	-11.1657
▁mimořádné	-11.1659
▁volná	-11.1659
naté	-11.1662
cka	-11.1662
▁příroda	-11.1662
taj	-11.1663
patr	-11.1666
▁nízká	-11.1666
▁cívky	-11.1666
sazení	-11.1667
▁stojan	-11.1672
▁há	-11.1674
▁sbírky	-11.1679
▁vybavené	-11.1681
▁revoluce	-11.1681
▁údržbu	-11.1681
▁malin	-11.1684
▁víceméně	-11.1685
▁kariéry	-11.1685
▁navazuje	-11.1686
▁hrá	-11.1687
▁angel	-11.1688
▁buňky	-11.1689
▁obojí	-11.1689
▁odpoví	-11.1689
▁velkými	-11.1691
▁ruský	-11.1693
▁lež	-11.1695
▁gre	-11.1696
řád	-11.1698
▁předchozím	-11.17
▁editor	-11.1701
▁mnichov	-11.1701
▁šťastná	-11.1701
ór	-11.1702
▁jediného	-11.1704
▁rozdělit	-11.1705
▁ovlivňuje	-11.1707
▁hrubé	-11.1708
▁vlek	-11.1709
▁těsto	-11.171
▁meč	-11.1711
▁ostrova	-11.1712
▁chytil	-11.1715
▁brněnské	-11.1716
▁nádrž	-11.1716
▁nebojte	-11.1717
▁čtk	-11.1717
▁supr	-11.1719
▁rub	-11.1719
andr	-11.172
▁nokia	-11.1723
▁lesy	-11.1724
▁činil	-11.1725
▁třetího	-11.1726
▁nabídkou	-11.1726
▁znamenalo	-11.1727
▁mluv	-11.1727
chal	-11.1727
▁special	-11.1729
▁délku	-11.173
▁hrub	-11.1732
koupil	-11.1732
▁chvil	-11.1732
íky	-11.1732
vra	-11.1733
ačního	-11.1733
▁michaela	-11.1733
▁hana	-11.1734
▁chodím	-11.1736
▁červ	-11.1737
▁kovové	-11.1737
▁hřeben	-11.1738
▁kouř	-11.1739
▁jinam	-11.1739
▁různě	-11.174
▁předpokladu	-11.1741
▁gold	-11.1742
▁pána	-11.1742
▁dělí	-11.1742
řed	-11.1743
▁lístek	-11.1745
▁kod	-11.1746
▁stře	-11.1747
▁nizozem	-11.1748
▁koření	-11.1749
fal	-11.1749
▁plném	-11.175
▁větru	-11.1753
elných	-11.1753
▁parlament	-11.1754
▁významným	-11.1755
▁víry	-11.1756
▁zažívá	-11.1756
▁klasických	-11.1757
▁zásady	-11.1758
▁ilustr	-11.1758
▁považován	-11.1759
▁kmh	-11.1761
▁zařízeních	-11.1761
▁cal	-11.1761
▁pohledem	-11.1762
▁srdečně	-11.1764
▁výhledem	-11.1765
▁uvedený	-11.1767
▁plakát	-11.1768
erie	-11.1769
pěl	-11.1769
čk	-11.177
▁lístky	-11.1771
▁obrovská	-11.1772
mám	-11.1773
▁zák	-11.1773
▁vyhodnocení	-11.1774
▁ds	-11.1775
▁media	-11.1775
▁cap	-11.1776
▁záv	-11.1777
▁.....	-11.1778
▁přednášky	-11.1779
▁operátor	-11.178
▁syr	-11.1781
▁nemovitost	-11.1782
▁procesů	-11.1784
▁ekonomický	-11.1785
▁kurzů	-11.1786
▁křídla	-11.1788
▁benešov	-11.1788
▁kariéru	-11.1788
▁nošení	-11.1789
▁mf	-11.1789
▁stříbrné	-11.1791
▁bělo	-11.1791
dokonal	-11.1792
▁společník	-11.1793
▁pel	-11.1798
▁ocení	-11.1802
▁zvyklí	-11.1805
▁nedostal	-11.1807
▁cokoli	-11.1809
▁úkolů	-11.1809
▁dluhy	-11.181
▁změnou	-11.1811
▁inform	-11.1813
▁fitness	-11.1813
▁jeví	-11.1813
▁debut	-11.1814
▁radostí	-11.1815
▁un	-11.1816
bec	-11.1818
▁výborná	-11.1819
▁účastnil	-11.182
▁snažila	-11.182
▁maskulinum	-11.182
▁želez	-11.1821
▁hon	-11.1822
▁kouzel	-11.1823
▁dozor	-11.1824
▁ltd	-11.1824
▁čistá	-11.1825
▁pě	-11.1826
takže	-11.1827
nického	-11.1829
▁hroz	-11.1831
▁zachránit	-11.1832
▁disciplín	-11.1832
draž	-11.1832
▁kvalifikace	-11.1833
▁rošt	-11.1839
lle	-11.184
▁týdenní	-11.1841
▁potvrzen	-11.1842
stří	-11.1842
čan	-11.1842
▁označován	-11.1842
▁lokality	-11.1843
rál	-11.1844
▁sakra	-11.1845
▁problematice	-11.1847
▁četla	-11.1848
▁pustit	-11.1848
▁danou	-11.1849
▁green	-11.1849
▁čsn	-11.185
had	-11.185
▁debat	-11.1851
blok	-11.1852
▁technická	-11.1856
elně	-11.1856
▁dennis	-11.1858
▁agentur	-11.1858
▁přežil	-11.1859
▁informoval	-11.1861
▁zajištěn	-11.1863
▁termo	-11.1863
▁pic	-11.1863
▁drahý	-11.1863
▁finální	-11.1864
eným	-11.1865
▁zvolte	-11.1866
▁městská	-11.1867
▁faktorů	-11.1869
▁qua	-11.187
▁panu	-11.1872
▁silnic	-11.1873
▁obvodu	-11.1874
▁troub	-11.1874
dám	-11.1875
▁sbírat	-11.1877
hen	-11.1877
▁zápor	-11.1877
gor	-11.1877
▁ležel	-11.188
▁používáte	-11.188
▁tech	-11.188
▁soustředit	-11.1881
▁nízko	-11.1883
▁zakázek	-11.1885
střih	-11.1885
▁dž	-11.1886
prod	-11.1888
▁mise	-11.1888
▁prodávají	-11.1888
▁vítězů	-11.1888
pln	-11.1889
rena	-11.1893
▁dolu	-11.1893
▁zněl	-11.1895
▁včerejší	-11.1897
▁nemáš	-11.1897
▁němci	-11.19
▁utrpení	-11.19
▁ušetřit	-11.19
▁programem	-11.1901
▁vykonávat	-11.1901
ture	-11.1902
▁uvolněn	-11.1902
▁raket	-11.1902
▁vydala	-11.1902
▁nedávné	-11.1904
▁umět	-11.1905
▁známky	-11.1906
pouští	-11.1907
itelný	-11.1908
▁závad	-11.1908
▁anglický	-11.1915
▁zimu	-11.1916
▁přidává	-11.1918
▁stanoví	-11.1919
skl	-11.192
ologii	-11.1921
▁mhd	-11.1923
▁sokolov	-11.1924
▁stěn	-11.1925
▁cykl	-11.1926
▁nejrychlejší	-11.1927
▁chleba	-11.1928
▁kulturních	-11.1929
▁turistů	-11.1932
▁účinný	-11.1933
chlad	-11.1933
ish	-11.1933
▁výstavba	-11.1934
▁složit	-11.1934
buz	-11.1934
▁haly	-11.1935
▁krystal	-11.1936
▁novák	-11.1938
▁vizuální	-11.1939
▁ztrátě	-11.194
▁kladen	-11.194
▁specifické	-11.1941
▁litrů	-11.1942
▁souhlasil	-11.1943
▁nedostane	-11.1943
▁portugal	-11.1946
▁moderních	-11.1946
ěné	-11.1948
▁galerii	-11.195
burg	-11.1953
kre	-11.1954
▁sloužil	-11.1954
max	-11.1955
ies	-11.1957
▁vybaveny	-11.1958
sloven	-11.1958
get	-11.196
▁miliónů	-11.196
▁náprav	-11.1963
tříd	-11.1968
bírají	-11.197
▁myš	-11.197
▁pláži	-11.197
▁celých	-11.1971
▁vyvážen	-11.1971
▁silnou	-11.1972
▁použity	-11.1974
▁dílčí	-11.1974
▁uzavřené	-11.1975
▁oka	-11.1975
▁volat	-11.1976
▁tratí	-11.198
▁služební	-11.198
▁barevný	-11.198
▁pad	-11.198
▁tabulek	-11.1981
▁prokázal	-11.1982
▁ramen	-11.1984
▁krajský	-11.1985
▁čtu	-11.1985
tvo	-11.1985
▁metodik	-11.1987
▁prsa	-11.1988
▁hlasy	-11.199
▁gt	-11.199
▁jednotlivými	-11.1991
▁kamer	-11.1992
▁poslanecké	-11.1992
chat	-11.1992
▁volal	-11.1994
▁fc	-11.1994
▁kupovat	-11.1995
pírá	-11.1996
▁doplňuje	-11.1997
▁hrnce	-11.1998
▁přečetl	-11.1999
▁rodičům	-11.2001
tec	-11.2002
kel	-11.2003
▁oslavy	-11.2003
áče	-11.2003
vez	-11.2004
▁ruka	-11.2006
▁zjištěn	-11.2006
▁tvor	-11.2006
▁posunul	-11.2007
▁kódu	-11.2007
ib	-11.2007
▁zahájil	-11.2009
tlak	-11.201
▁rpg	-11.2013
▁dcery	-11.2013
▁podal	-11.2014
▁přehrávače	-11.2015
▁různá	-11.2015
▁iniciativ	-11.2016
▁produkci	-11.2017
▁zavedl	-11.2017
▁patnácti	-11.2018
▁sdílení	-11.202
▁láká	-11.2022
▁jirka	-11.2023
tiky	-11.2024
▁miminko	-11.2024
denní	-11.2024
▁vztek	-11.2025
tk	-11.2028
▁dd	-11.2028
vlast	-11.2028
▁novel	-11.2028
▁restaur	-11.203
▁léčbě	-11.2031
kan	-11.2035
▁navýšení	-11.2035
▁klientům	-11.2038
▁vyrábět	-11.2039
▁stanic	-11.204
▁variantu	-11.2041
▁kanceláři	-11.2042
▁silou	-11.2042
▁kapli	-11.2043
▁přestěhoval	-11.2043
▁takzvané	-11.2043
▁patr	-11.2044
kdy	-11.2045
▁zasáhnout	-11.2047
▁naučil	-11.2048
▁byznys	-11.2048
▁zákoníku	-11.205
▁urban	-11.2051
▁vystupoval	-11.2051
dělá	-11.2054
▁umístěna	-11.2054
▁těsné	-11.2055
▁černou	-11.2055
▁váhu	-11.2056
▁soudce	-11.2057
▁kritéria	-11.2058
▁široká	-11.2058
▁reprezentace	-11.2059
▁pracovním	-11.2059
▁vydělá	-11.2061
sem	-11.2061
▁čer	-11.2062
▁souhlasí	-11.2064
▁šim	-11.2065
▁mrzí	-11.2066
▁zvyšování	-11.2068
rel	-11.2068
▁pokročilé	-11.2069
▁přijímač	-11.207
ečné	-11.207
▁jízd	-11.2074
▁významně	-11.2074
▁písk	-11.2075
▁rd	-11.2076
▁veliké	-11.2077
hlí	-11.2077
▁hled	-11.2078
▁všeobecné	-11.2082
▁textů	-11.2086
▁jezdec	-11.2086
▁nutná	-11.2088
▁orgánu	-11.2088
▁sc	-11.2088
▁alb	-11.2091
▁hrozn	-11.2092
▁sestavy	-11.2093
▁divize	-11.2093
▁náraz	-11.2094
ářské	-11.2094
▁dával	-11.2095
▁vědy	-11.2095
lor	-11.2096
▁zápasech	-11.2097
mit	-11.2097
▁góly	-11.2097
▁čínský	-11.2098
▁nemocí	-11.2101
▁olympiád	-11.2105
ovače	-11.2105
oh	-11.2106
▁rodiči	-11.2106
kého	-11.2111
mana	-11.2113
ovaném	-11.2113
vající	-11.2113
▁držení	-11.2116
▁kým	-11.2117
▁akumulátor	-11.2117
▁prvotní	-11.2117
▁zelených	-11.2118
▁svobodné	-11.212
▁hotelů	-11.2121
▁prohlídku	-11.2121
▁dealer	-11.2121
▁ignor	-11.2121
▁studoval	-11.2122
▁jaderné	-11.2122
▁objevily	-11.2123
ákem	-11.2124
▁všeobecně	-11.2125
ert	-11.2127
ins	-11.2129
▁ohni	-11.2129
▁sezonu	-11.2133
▁skladatel	-11.2134
▁prohlížeč	-11.214
▁složen	-11.2141
luje	-11.2141
▁specialit	-11.2142
▁národních	-11.2142
▁organ	-11.2143
▁chemické	-11.2143
▁skrz	-11.2144
▁jaromír	-11.2145
fouk	-11.2145
lli	-11.2146
▁plan	-11.2147
▁centr	-11.2147
▁držím	-11.215
▁citron	-11.2151
▁procesy	-11.2151
čkem	-11.2152
▁obyčejné	-11.2152
▁sestavě	-11.2152
▁detailní	-11.2154
▁bonusů	-11.2155
ňován	-11.2156
▁neřeší	-11.2157
▁vítěze	-11.2157
▁vaz	-11.2158
oto	-11.2158
wer	-11.2159
aři	-11.2162
▁tras	-11.2162
rab	-11.2163
ssi	-11.2164
▁recepty	-11.2165
▁náročnější	-11.2168
▁poznamenal	-11.2168
stávají	-11.2168
▁česnek	-11.2168
▁dítěti	-11.2168
▁dokázala	-11.2169
▁umístil	-11.217
▁dres	-11.2171
▁potvrzuje	-11.2172
▁komory	-11.2172
lova	-11.2172
zuje	-11.2173
▁číně	-11.2173
▁jader	-11.2174
lím	-11.2176
▁beat	-11.2177
▁vil	-11.2179
▁přípravky	-11.2179
▁zakázku	-11.2179
▁třiceti	-11.218
▁struktur	-11.218
▁chceteli	-11.218
▁skupinou	-11.218
▁cvik	-11.2181
▁záležitostí	-11.2181
árna	-11.2182
▁nože	-11.2183
klád	-11.2186
▁zahájen	-11.2186
▁potřebný	-11.2187
▁trvalé	-11.2187
▁lupínky	-11.2187
plán	-11.2188
▁odjel	-11.2191
▁kompromis	-11.2191
▁revoluční	-11.2191
▁reálný	-11.2191
▁městský	-11.2192
lů	-11.2193
▁dam	-11.2195
▁odehrává	-11.2195
▁dalšímu	-11.2195
▁očkování	-11.2199
▁vzadu	-11.22
▁zjev	-11.2201
▁slovan	-11.2203
táč	-11.2204
▁motorem	-11.2205
plod	-11.2205
sáhl	-11.2206
▁evidentně	-11.2207
▁odchází	-11.2207
▁týdnech	-11.2207
▁manuál	-11.2212
▁směrnice	-11.2213
▁opakovat	-11.2213
▁klín	-11.2218
▁rovn	-11.2219
▁europe	-11.222
cit	-11.222
▁prázdniny	-11.2222
▁chrudim	-11.2223
šov	-11.2225
▁hm	-11.2225
▁tamní	-11.2227
▁krista	-11.223
skočí	-11.2231
▁výsad	-11.2232
▁krav	-11.2233
drží	-11.2233
▁šo	-11.2234
▁zp	-11.2235
▁odpovědnosti	-11.2236
▁senátor	-11.2236
▁znají	-11.2236
▁přechodu	-11.2237
▁zraněn	-11.2238
▁nabízen	-11.2238
▁buďte	-11.2238
▁novinek	-11.224
▁faktur	-11.2241
▁zdravotnické	-11.2242
▁okouzlující	-11.2242
hřát	-11.2242
vaná	-11.2244
▁stovek	-11.2244
▁office	-11.2245
▁soutěžící	-11.2245
▁zmínit	-11.2246
▁novinář	-11.2247
chem	-11.2247
zích	-11.2248
▁divit	-11.225
▁vašemu	-11.225
▁doplněk	-11.225
▁mobilního	-11.2251
▁zásobník	-11.2254
▁ekonomika	-11.2254
▁oliv	-11.2254
▁konve	-11.2256
▁wal	-11.2258
▁ohně	-11.2258
▁koupelna	-11.2258
▁nejmladší	-11.2258
▁domnívám	-11.2258
gas	-11.2258
▁tanec	-11.226
▁dvanácti	-11.2262
▁konkrétních	-11.2262
áčka	-11.2264
▁popsat	-11.2267
▁komedie	-11.227
čený	-11.227
▁kad	-11.2271
▁dohoda	-11.2271
▁šťáv	-11.2274
▁zjevně	-11.2278
▁jeskyně	-11.2279
▁pátý	-11.228
▁uskutečnil	-11.228
▁vybírá	-11.2281
▁tématické	-11.2283
▁diváky	-11.2287
▁oční	-11.2288
▁prá	-11.2291
▁dokáží	-11.2294
nad	-11.2295
stři	-11.2295
čů	-11.2296
▁sdílet	-11.2298
▁medaile	-11.2299
▁mailu	-11.23
▁displeji	-11.2302
▁pověřen	-11.2303
▁kolikrát	-11.2304
▁spuštěn	-11.2306
▁háj	-11.2308
js	-11.2309
text	-11.231
▁námořní	-11.231
▁barevných	-11.231
▁poslanci	-11.231
lovi	-11.231
▁ves	-11.2311
▁divoká	-11.2311
▁kroků	-11.2312
▁tváři	-11.2314
▁pozitivně	-11.2317
bon	-11.2317
▁tvrdit	-11.2318
▁zjistěte	-11.2318
▁hypo	-11.2321
▁předán	-11.2322
nič	-11.2324
ban	-11.2324
▁zničil	-11.2325
▁wellness	-11.2326
inku	-11.2327
▁souhlasit	-11.2327
▁provádíme	-11.2327
▁nahrazen	-11.2328
▁poděkování	-11.233
▁termíny	-11.2333
▁značkou	-11.2334
▁kláves	-11.2337
film	-11.2338
▁terminál	-11.2338
▁důchodu	-11.2338
▁zahrál	-11.2339
▁postupovat	-11.234
▁zdánlivě	-11.2342
▁vyhledat	-11.2342
▁jedince	-11.2342
▁zachytit	-11.2342
▁vyrovnání	-11.2344
▁komunit	-11.2344
▁krátkou	-11.2345
▁živých	-11.2347
▁vylepšení	-11.2348
▁popsán	-11.2349
▁časově	-11.2349
▁zdali	-11.2349
▁bulhar	-11.235
▁příčiny	-11.2353
▁sop	-11.2353
▁okr	-11.2353
▁novinkou	-11.2356
▁džungle	-11.2358
▁poskytnut	-11.2358
▁trase	-11.2359
▁obyvatele	-11.2361
▁službách	-11.2366
▁podporují	-11.2366
▁velikostí	-11.2369
▁dokola	-11.237
▁hrála	-11.237
lici	-11.2371
▁boh	-11.2372
▁spotřeby	-11.2372
▁rolích	-11.2374
▁cloud	-11.2374
▁zařízením	-11.2376
▁nik	-11.2377
▁horské	-11.2377
▁představila	-11.2377
▁stravy	-11.2377
čkové	-11.2377
dis	-11.2378
▁kůň	-11.2379
děj	-11.238
▁pek	-11.2381
▁semifinále	-11.2382
▁spáchaného	-11.2382
▁časový	-11.2382
▁plí	-11.2383
▁zubní	-11.2385
▁best	-11.2385
▁vypráví	-11.2386
▁mg	-11.2391
▁koupelny	-11.2394
rož	-11.2401
▁havel	-11.2402
▁kruhu	-11.2403
▁příruč	-11.2403
▁řep	-11.2405
▁povědomí	-11.2405
▁řeknu	-11.2405
▁schopna	-11.2406
▁okraje	-11.2407
▁reaguje	-11.2414
▁nádrže	-11.2416
▁zdravotním	-11.2417
▁nezávislé	-11.2418
▁hospody	-11.2419
tik	-11.2423
▁grafiky	-11.2424
▁nájezd	-11.2425
▁spár	-11.2425
▁vchod	-11.2426
▁veškerá	-11.2426
▁chodil	-11.2426
▁oxid	-11.2427
▁postupů	-11.2429
▁vracet	-11.243
▁zajímavější	-11.2431
▁vystoupí	-11.2431
▁jara	-11.2432
▁vnímá	-11.2432
▁personální	-11.2433
▁kroku	-11.2433
▁komponenty	-11.2433
▁impuls	-11.2434
▁občanského	-11.2435
▁nabízených	-11.2435
▁listů	-11.2437
▁rychlou	-11.2437
▁umožnit	-11.2438
▁agresivní	-11.2438
▁původních	-11.2438
▁návratnost	-11.2439
▁vlna	-11.244
sadil	-11.2443
▁plody	-11.2446
▁věta	-11.2446
▁bei	-11.2446
▁house	-11.2446
▁informován	-11.2447
▁lé	-11.2449
▁věřil	-11.2449
▁kolega	-11.2449
▁fóra	-11.245
▁hotely	-11.2453
▁ameriky	-11.2454
▁souhrn	-11.2455
▁běžel	-11.2455
▁zásoby	-11.2456
▁sestry	-11.2456
▁spaní	-11.2458
▁transform	-11.2461
▁přinášejí	-11.2462
▁příšer	-11.2463
▁významný	-11.2463
mluví	-11.2464
▁úp	-11.2464
▁tichý	-11.2464
klon	-11.2465
▁signálu	-11.2465
ovník	-11.2466
▁vymyslel	-11.2467
zet	-11.2469
kovy	-11.2469
hli	-11.2469
káže	-11.247
▁stráně	-11.2472
▁bibli	-11.2473
▁kluky	-11.2474
▁rituál	-11.2475
prost	-11.2476
▁luž	-11.2476
prs	-11.2476
ht	-11.2479
▁buněk	-11.2479
třel	-11.2481
▁rak	-11.2481
▁kníže	-11.2482
▁pouhé	-11.2483
sim	-11.2483
▁získávání	-11.2485
▁šílený	-11.2487
▁zajímal	-11.2487
▁někdejší	-11.2489
chyb	-11.249
▁panička	-11.2491
▁úvěry	-11.2491
▁objednal	-11.2492
▁dominik	-11.2496
▁hospod	-11.2497
rik	-11.2497
▁odpočinku	-11.2499
▁vztahuje	-11.25
▁považoval	-11.2504
▁vzdal	-11.2506
▁zlepšuje	-11.2507
▁radar	-11.2507
▁založený	-11.2508
▁hrany	-11.2509
nickou	-11.251
▁šar	-11.2511
▁lich	-11.2514
▁kluby	-11.2514
▁pomůcky	-11.2515
▁nečas	-11.2516
▁voličů	-11.2517
důvod	-11.2517
▁kontrolovat	-11.252
▁látka	-11.252
▁padesáti	-11.2521
▁pěstování	-11.2521
▁zkoušku	-11.2523
▁družin	-11.2523
▁seniorů	-11.2526
možn	-11.2526
▁získané	-11.2527
ějí	-11.2528
▁rakouské	-11.2529
ňující	-11.253
▁snímků	-11.2531
▁roztok	-11.2533
▁uvědomil	-11.2534
▁kamaráda	-11.2534
▁írán	-11.2536
sha	-11.2539
▁výbornou	-11.254
jedno	-11.254
▁pokusí	-11.2541
▁náhradu	-11.2543
▁poptáv	-11.2545
▁komunistické	-11.2545
▁dřívější	-11.2546
▁bodem	-11.2547
▁viditelné	-11.2548
▁politický	-11.2548
▁zdravotních	-11.2549
▁našemu	-11.2549
▁kopír	-11.2551
wo	-11.2551
▁aktivita	-11.2552
php	-11.2553
▁prostřední	-11.2553
▁zrušil	-11.2554
▁nedělal	-11.2555
▁nejsilnější	-11.2556
▁napříč	-11.2556
▁bus	-11.2558
▁poslouchat	-11.256
▁odolné	-11.256
enu	-11.2561
izují	-11.2562
▁mrav	-11.2562
žívají	-11.2563
▁pořízení	-11.2563
▁nestačil	-11.2564
▁kapacity	-11.2565
▁jejímž	-11.2565
▁výstavě	-11.2566
ivější	-11.2566
▁minimal	-11.2567
▁těl	-11.2567
▁nahradil	-11.2568
▁jednomu	-11.2568
▁evidence	-11.2568
▁vojáci	-11.2569
▁fórum	-11.257
▁ford	-11.2572
▁zájmů	-11.2572
▁dostaly	-11.2573
▁přenosu	-11.2574
én	-11.2575
▁pozval	-11.2576
▁ts	-11.2576
▁páteční	-11.2576
▁telefonů	-11.2576
▁ostravy	-11.2577
▁ostré	-11.2577
▁vesnici	-11.2578
▁kontinent	-11.2579
▁vznikne	-11.2579
▁motivace	-11.258
▁básník	-11.2581
pc	-11.2581
šte	-11.2581
▁zaměřil	-11.2581
▁adapt	-11.2581
▁posteli	-11.2582
▁pala	-11.2583
▁osobě	-11.2583
▁osazen	-11.2584
▁shlédnutí	-11.2584
▁probíhají	-11.2585
▁pacienta	-11.2586
▁přijímat	-11.2586
▁rozbor	-11.259
▁předpoklady	-11.2592
▁zmrzlin	-11.2593
▁ztratit	-11.2593
▁porovnávací	-11.2593
▁věřící	-11.2593
▁střet	-11.2595
▁rejstříku	-11.2595
▁frekvence	-11.2597
▁jedinců	-11.2597
lock	-11.2598
▁global	-11.2598
▁seniory	-11.26
▁pomohla	-11.26
bin	-11.2601
▁fotku	-11.2602
▁spolku	-11.2603
▁nájem	-11.2603
▁kamera	-11.2603
▁kusy	-11.2603
old	-11.2603
▁závodech	-11.2604
▁vašim	-11.2605
▁půdu	-11.2605
ovkou	-11.2606
▁tvořit	-11.2609
▁pokryt	-11.2611
▁účinnosti	-11.2612
▁faktor	-11.2613
▁podíváme	-11.2613
nz	-11.2613
▁upozornit	-11.2613
▁bejt	-11.2614
inky	-11.2615
hro	-11.2617
▁uvědom	-11.2617
▁spolehlivě	-11.2617
▁skončilo	-11.2617
▁diplomat	-11.2618
▁ocenit	-11.2618
aného	-11.2619
▁emailu	-11.2619
▁ři	-11.2621
▁vinař	-11.2621
▁krvi	-11.2622
▁registrační	-11.2624
▁okolních	-11.2626
▁dřevěný	-11.2627
▁horký	-11.2628
▁kávu	-11.2629
▁vrb	-11.2634
▁vzápětí	-11.2634
▁slyší	-11.2635
věří	-11.2637
▁spojil	-11.2638
▁prodloužen	-11.264
▁id	-11.264
▁poruchy	-11.264
▁gaming	-11.2642
▁sadu	-11.2643
▁vyloučení	-11.2645
▁bazar	-11.2646
▁hluboký	-11.2646
▁žánr	-11.2646
▁pískov	-11.2648
▁písku	-11.2648
▁dotací	-11.2652
▁stačit	-11.2653
▁aquapark	-11.2659
bul	-11.2659
▁dětského	-11.2661
▁univerzitě	-11.2662
▁zpěvačka	-11.2663
▁varování	-11.2664
▁smart	-11.2665
▁růže	-11.2665
▁will	-11.2665
▁podoby	-11.2666
▁zvolené	-11.267
▁jih	-11.2671
▁komisi	-11.2672
▁neznal	-11.2672
áčku	-11.2674
▁známého	-11.2674
▁vlč	-11.2675
▁projde	-11.2678
▁mysleli	-11.2679
▁existovat	-11.2679
▁ostře	-11.2679
▁připraveno	-11.2679
▁simul	-11.2679
▁love	-11.268
▁koupání	-11.2681
▁zapojen	-11.2681
encí	-11.2683
▁každých	-11.2685
▁pov	-11.2685
hav	-11.2685
▁schválila	-11.2685
▁profi	-11.2686
▁vzácné	-11.2687
▁minimum	-11.2688
▁následný	-11.2688
ometr	-11.2688
▁svačin	-11.269
▁zabil	-11.2691
▁překonal	-11.2692
▁dlouhých	-11.2692
▁linku	-11.2694
▁záchod	-11.2694
mát	-11.2694
▁čtyřmi	-11.2696
▁vyrobeno	-11.2696
▁stisk	-11.2701
prac	-11.2703
▁flor	-11.2704
▁hand	-11.2704
▁jamal	-11.2705
▁podnikatele	-11.2706
▁pasu	-11.2707
▁dozvědět	-11.2708
▁dceři	-11.2708
sr	-11.2708
pravd	-11.271
▁nápojů	-11.2711
▁využíván	-11.2711
▁cp	-11.2711
izací	-11.2712
▁bil	-11.2715
▁elektronických	-11.272
ern	-11.2722
▁dp	-11.2723
▁kontrolou	-11.2725
▁normalizační	-11.2726
▁amatér	-11.2726
▁trav	-11.2728
▁popisu	-11.2729
▁rozhled	-11.273
řel	-11.273
telný	-11.2731
▁elektrárny	-11.2733
idy	-11.2734
▁pru	-11.2734
ess	-11.2736
cov	-11.2737
▁vymyslet	-11.2737
▁primárně	-11.2737
▁stejn	-11.2739
žky	-11.2739
▁odbornou	-11.2741
daná	-11.2741
▁milé	-11.2742
▁úpravě	-11.2744
▁šetření	-11.2745
ložte	-11.2746
db	-11.2746
▁kovový	-11.2746
▁mód	-11.2748
▁jinému	-11.2748
▁nepotřebuje	-11.2748
▁radní	-11.2751
▁náhod	-11.2751
▁divné	-11.2752
▁terén	-11.2752
pisovat	-11.2753
▁volejbal	-11.2754
▁vlaku	-11.2756
▁mad	-11.2756
▁polystyren	-11.2758
▁potvrdit	-11.2758
váme	-11.2758
▁hut	-11.2758
▁elektronický	-11.2759
zni	-11.2764
▁fitz	-11.2765
▁žadatel	-11.2765
▁předat	-11.2766
▁úsměvem	-11.2766
▁prs	-11.2767
▁pohybují	-11.2768
▁zabýval	-11.2769
▁ek	-11.2769
▁prázdné	-11.277
▁naznačuje	-11.2771
prá	-11.2771
▁detektiv	-11.2773
▁zahrnovat	-11.2774
▁vítězný	-11.2776
▁anglické	-11.2777
▁národním	-11.2778
▁požadovat	-11.2779
▁xp	-11.2779
▁líb	-11.2783
▁určená	-11.2784
šlap	-11.2784
árny	-11.2785
▁trval	-11.2786
▁ivana	-11.2788
▁cer	-11.2789
čar	-11.279
▁tablety	-11.279
▁nainstalovat	-11.2791
▁vsetín	-11.2792
více	-11.2794
▁toalet	-11.2794
▁jednobarevnými	-11.2795
▁nejmodernější	-11.2795
play	-11.2795
vič	-11.2797
▁kolech	-11.2798
▁pozornosti	-11.2798
▁polsku	-11.2799
▁vari	-11.28
▁zavře	-11.28
▁cup	-11.2801
▁spolupracovat	-11.2801
▁následoval	-11.2806
▁krásných	-11.2806
▁barvách	-11.2808
oly	-11.2808
▁specialist	-11.2809
▁představy	-11.2809
▁pomoct	-11.281
▁mleté	-11.2811
▁majitelů	-11.2811
▁vesmír	-11.2811
áni	-11.2812
▁ukázky	-11.2812
hru	-11.2812
▁spotřeb	-11.2812
▁čtěte	-11.2814
▁spojený	-11.2814
▁obřad	-11.2817
▁pamětní	-11.2817
▁zúčastnili	-11.2818
▁satelitní	-11.2819
ácký	-11.282
▁koncentrace	-11.282
▁rakousku	-11.282
▁vodopád	-11.2821
▁nervy	-11.2821
▁zvykl	-11.2824
▁kvalitou	-11.2825
▁dveřmi	-11.2825
▁velikonoční	-11.2825
▁plzně	-11.2825
▁důležitým	-11.2825
▁kouření	-11.2826
▁stanoven	-11.2827
▁tance	-11.2828
▁výzvy	-11.2829
▁plaz	-11.2829
▁svaly	-11.283
▁šesté	-11.2831
▁report	-11.2832
▁bublin	-11.2833
▁kritérií	-11.2833
▁žádat	-11.2833
▁končetin	-11.2833
▁opuštěn	-11.2834
▁kolektiv	-11.2834
▁vůdce	-11.2837
▁jakých	-11.2838
▁vůni	-11.2839
▁legální	-11.2839
▁bell	-11.2839
▁potrubí	-11.2841
▁výrazný	-11.2842
▁plac	-11.2843
▁nadace	-11.2843
▁německých	-11.2843
▁rumun	-11.2847
▁bílou	-11.2848
▁kartáč	-11.2849
▁ohlas	-11.285
▁nakup	-11.285
cke	-11.2854
▁videu	-11.2856
▁panelu	-11.2857
shop	-11.2857
▁crazy	-11.2858
rozum	-11.286
▁rým	-11.2861
▁směsi	-11.2862
▁mld	-11.2862
▁putin	-11.2862
▁rozměrů	-11.2863
▁jmenoval	-11.2863
oli	-11.2865
▁počítal	-11.2865
▁stadion	-11.2865
▁tvrdě	-11.2867
▁seznámil	-11.2867
▁nomin	-11.2868
▁rat	-11.287
▁teplá	-11.287
▁přijede	-11.2874
▁rally	-11.2874
▁nemluvě	-11.2875
ujou	-11.2876
▁zábavná	-11.2877
▁kro	-11.2877
čov	-11.2878
▁obuv	-11.2878
jetí	-11.2878
▁češtině	-11.2879
rez	-11.2881
▁vzpomíná	-11.2882
▁skutečností	-11.2882
▁cí	-11.2887
▁soustavy	-11.2888
▁#.#.#.#	-11.2888
▁děláme	-11.2889
▁sparta	-11.2889
▁autobusy	-11.2889
▁cvič	-11.289
▁provedete	-11.2893
gal	-11.2893
▁snaze	-11.2893
rop	-11.2896
▁vzali	-11.2896
▁rozsáhlý	-11.2896
▁element	-11.2896
▁krásy	-11.2897
▁myšlenku	-11.2897
▁hřeb	-11.2897
ičtější	-11.2897
tán	-11.2897
▁akcích	-11.2897
▁vyroben	-11.2898
▁publikum	-11.2899
▁nůž	-11.2899
▁simon	-11.29
▁hejtman	-11.29
▁dotyk	-11.29
▁mistra	-11.29
▁mimořádný	-11.29
▁klasická	-11.2902
rud	-11.2902
▁projevy	-11.2904
▁paříži	-11.2907
▁fle	-11.2907
rální	-11.291
▁rozpad	-11.2911
▁business	-11.2913
▁problematiku	-11.2913
▁výchovy	-11.2913
▁technického	-11.2914
▁zbroj	-11.2915
▁drobných	-11.2915
▁zúčastnilo	-11.2916
ere	-11.2917
▁pojede	-11.2917
▁tramvaj	-11.2921
▁vlivu	-11.2922
▁peče	-11.2923
press	-11.2924
▁nevíme	-11.2924
▁nabízející	-11.2925
ejch	-11.2926
▁cosi	-11.2929
mag	-11.2932
▁rozšiřuje	-11.2934
▁umělců	-11.2934
▁považují	-11.2935
▁light	-11.2935
▁natož	-11.2936
něná	-11.2938
▁snazší	-11.2938
▁položek	-11.2939
▁etap	-11.294
▁přihlásil	-11.294
▁představovat	-11.2941
právní	-11.2942
▁lehčí	-11.2942
▁holub	-11.2945
▁superhry	-11.2946
▁musejí	-11.2947
▁konala	-11.2947
▁neumím	-11.2947
▁vlakem	-11.2948
▁spekul	-11.2949
▁spotřebitel	-11.2949
▁kurt	-11.295
▁obchodním	-11.2953
lán	-11.2953
opis	-11.2955
▁fakta	-11.2955
▁někým	-11.2956
▁vrah	-11.2957
vézt	-11.2957
▁nějakej	-11.2958
▁umělec	-11.2962
▁dospělých	-11.2964
▁vozík	-11.2964
▁oheň	-11.2964
▁nesl	-11.2965
▁přeměn	-11.2967
▁lup	-11.2968
▁hloub	-11.2968
▁místního	-11.2969
▁čtver	-11.297
▁kolektivní	-11.297
škou	-11.297
mix	-11.2971
▁náročný	-11.2971
▁uchazeče	-11.2971
zit	-11.2972
▁oběti	-11.2972
▁investor	-11.2972
▁veřejnou	-11.2972
ella	-11.2973
▁objevovat	-11.2973
▁chrom	-11.2974
▁vlastnit	-11.2975
▁vele	-11.2976
čili	-11.2976
nin	-11.2979
▁masáže	-11.298
▁metru	-11.2981
▁okamžitý	-11.2981
▁singl	-11.2982
áčky	-11.2982
▁domluvit	-11.2982
▁válku	-11.2982
▁mrtvý	-11.2983
▁gala	-11.2983
▁zaujme	-11.2983
▁ny	-11.2985
▁republiku	-11.2986
▁člověkem	-11.2991
▁vyplnění	-11.2991
▁technicky	-11.2991
▁vyrobeny	-11.2992
▁ksčm	-11.2992
▁útoč	-11.2994
▁vojtěch	-11.2994
▁stánku	-11.2994
▁lol	-11.2995
▁oplachují	-11.2998
▁klí	-11.2999
▁španělské	-11.3
▁centrem	-11.3001
▁dostupných	-11.3001
▁jur	-11.3003
▁gene	-11.3003
▁ledě	-11.3006
▁evangeli	-11.3007
▁přelomu	-11.3007
▁výuka	-11.3007
ačku	-11.3007
klep	-11.3007
▁kamarádka	-11.3008
▁určitá	-11.301
eckého	-11.301
▁bytost	-11.3011
▁alexandr	-11.3011
▁háze	-11.3012
▁dramat	-11.3013
▁náhodně	-11.3013
pán	-11.3014
▁ly	-11.3015
▁většího	-11.3015
▁sarah	-11.3015
▁mez	-11.3017
▁chvál	-11.3018
▁příčin	-11.3019
▁handicap	-11.3019
▁podúrovní	-11.3019
▁komentářů	-11.3022
▁časové	-11.3023
rostl	-11.3023
▁skrývá	-11.3024
elnou	-11.3025
ons	-11.3026
▁tuším	-11.3027
▁dáma	-11.3028
rku	-11.3029
▁fantazie	-11.3032
praven	-11.3032
▁app	-11.3033
▁kongres	-11.3033
▁destinací	-11.3034
▁připravila	-11.3034
▁dekor	-11.3035
▁koč	-11.3035
▁struktura	-11.3037
▁rá	-11.3037
asi	-11.3037
▁vítězné	-11.3038
▁ammar	-11.3038
▁přesilov	-11.3039
▁kok	-11.3039
▁věty	-11.304
▁loupež	-11.3041
▁klavír	-11.3041
▁dostaneme	-11.3041
▁divo	-11.3041
▁každej	-11.3042
▁mol	-11.3042
▁scéna	-11.3043
▁stojící	-11.3044
kář	-11.3047
▁váhy	-11.3047
▁jedny	-11.3048
▁napsáno	-11.305
▁vážný	-11.3052
▁prohlídky	-11.3054
▁mechanik	-11.3055
tažení	-11.3056
▁kalkul	-11.3057
▁přidejte	-11.3057
poru	-11.3057
▁šťastné	-11.3058
▁různým	-11.3059
▁vítězného	-11.306
▁preventivní	-11.3062
▁amorata	-11.3062
▁růž	-11.3064
▁obsazen	-11.3064
▁ins	-11.3065
▁veškerý	-11.3065
▁hovořil	-11.3066
klá	-11.3066
ářství	-11.3067
▁nějakém	-11.3068
▁zaregistrujete	-11.3071
▁pokusy	-11.3073
▁osa	-11.3074
▁internetového	-11.3075
▁kuř	-11.3075
▁užití	-11.3077
vrstv	-11.3077
▁buk	-11.3078
tráv	-11.3079
▁trestu	-11.308
▁uvedena	-11.308
▁obranu	-11.3081
▁stejných	-11.3081
sz	-11.3081
▁zálož	-11.3081
▁připadal	-11.3085
▁státním	-11.3085
▁epizod	-11.3088
▁abys	-11.309
▁obchodování	-11.309
▁zeleniny	-11.3091
▁ref	-11.3092
▁trutnov	-11.3092
▁dokumentaci	-11.3093
▁md	-11.3094
▁úspěchy	-11.3095
▁strip	-11.3095
▁bál	-11.3096
▁skaut	-11.3098
▁správného	-11.3098
▁lhot	-11.3099
▁daphne	-11.3101
▁jakési	-11.3101
▁ztratili	-11.3105
▁desek	-11.3106
enské	-11.3107
▁pochopí	-11.3108
▁prim	-11.3109
tř	-11.311
▁praktický	-11.3112
▁rozšířit	-11.3114
▁miss	-11.3114
álních	-11.3115
▁probíhající	-11.3115
oň	-11.3117
▁kolegové	-11.3118
▁ochotni	-11.312
▁stoup	-11.3122
▁nenechal	-11.3123
▁necelých	-11.3123
▁dovolen	-11.3125
▁dostupná	-11.3127
tele	-11.3127
bít	-11.3128
▁vzhledu	-11.3128
▁vyloženě	-11.3129
▁dodržovat	-11.3131
▁kterej	-11.3131
agon	-11.3131
▁návštěvník	-11.3132
▁přejeme	-11.3132
álek	-11.3133
▁suši	-11.3134
▁úmysl	-11.3135
lování	-11.3135
▁mga	-11.3135
▁podobným	-11.3136
▁řízen	-11.3136
▁ele	-11.3139
vaný	-11.314
▁rozšířen	-11.314
▁půjčit	-11.314
▁strachu	-11.3141
lač	-11.3142
▁pozdní	-11.3142
▁fotka	-11.3143
jeme	-11.3143
▁stolů	-11.3144
platil	-11.3145
▁kategoriích	-11.3145
▁barvou	-11.315
druž	-11.315
▁setkat	-11.3151
▁semen	-11.3152
▁bytové	-11.3153
vrátil	-11.3153
▁vystoupil	-11.3153
▁družstev	-11.3153
▁kompatibilní	-11.3153
▁odpoč	-11.3154
▁prv	-11.3154
▁parlamentní	-11.3155
▁realizován	-11.3156
ografie	-11.3156
▁liš	-11.3156
potřeb	-11.3156
cházeli	-11.3157
▁léků	-11.3158
▁informačních	-11.3158
▁strukturu	-11.3159
ložené	-11.3159
níček	-11.3159
itá	-11.3159
lejší	-11.316
▁učitelů	-11.3162
zně	-11.3164
▁nhl	-11.3164
▁přistání	-11.3166
tta	-11.3167
▁prožil	-11.3167
▁králík	-11.3168
▁bílkovin	-11.317
sco	-11.3173
▁ochranný	-11.3173
▁židovské	-11.3174
▁zkouška	-11.3175
▁muslim	-11.3176
▁podrobně	-11.3176
ef	-11.3177
▁školky	-11.3177
▁šíří	-11.3179
▁jud	-11.3179
▁zoufal	-11.3181
▁optimist	-11.3182
▁leda	-11.3183
▁spi	-11.3185
▁dálnici	-11.3185
mani	-11.3186
▁udržel	-11.3187
▁desce	-11.3189
▁ztracen	-11.3189
▁%,	-11.3189
kos	-11.3191
▁hem	-11.3191
▁kliknutím	-11.3192
▁pojišťovna	-11.3192
▁seminole	-11.3192
▁generaci	-11.3192
▁ovladač	-11.3195
chnout	-11.3196
íčkem	-11.3198
sten	-11.3198
▁proměnil	-11.3199
▁prozradil	-11.32
ectví	-11.32
▁pokožky	-11.3201
▁oddílu	-11.3203
▁pump	-11.3203
▁osobou	-11.3204
▁ostrav	-11.3205
▁ovzduší	-11.3205
▁relax	-11.3205
▁indie	-11.3206
▁organizátor	-11.3206
▁koment	-11.3208
▁postih	-11.321
▁ivo	-11.321
▁připraveni	-11.321
!!!!	-11.3212
▁psychiatr	-11.3214
▁lukrativní	-11.3214
▁wie	-11.3216
ini	-11.3216
▁věnován	-11.3217
žené	-11.3217
▁odkazu	-11.3218
▁australský	-11.3218
▁dovolil	-11.3218
▁zahrnující	-11.3219
▁faktory	-11.322
▁soukromý	-11.322
▁vyráběn	-11.3221
▁testů	-11.3222
▁fenomén	-11.3222
▁aktivitu	-11.3224
▁neudělá	-11.3224
▁úloh	-11.3225
▁obličeje	-11.3227
▁příjezdu	-11.3228
▁tělesné	-11.3229
▁argumenty	-11.3231
▁muzikant	-11.3232
▁bojuje	-11.3232
▁připojil	-11.3232
▁otočení	-11.3233
▁užíval	-11.3233
▁vzpomínám	-11.3233
▁palub	-11.3235
▁druhému	-11.3236
▁hladiny	-11.3238
▁dus	-11.324
put	-11.324
▁vosk	-11.3244
fér	-11.3244
▁zákonodárci	-11.3244
▁chlazení	-11.3248
▁reakcí	-11.3249
ráže	-11.3249
počíta	-11.325
▁důležitých	-11.325
▁patron	-11.3252
▁příp	-11.3252
▁měkké	-11.3254
▁nemění	-11.3254
▁úhlu	-11.3255
▁pásma	-11.3257
▁pokut	-11.3257
▁přestane	-11.3258
▁stromu	-11.3259
▁liberci	-11.3261
▁jistoty	-11.3262
▁psychické	-11.3262
▁dokončen	-11.3262
▁zle	-11.3268
lovat	-11.3271
▁operátory	-11.3272
▁point	-11.3272
▁minulé	-11.3274
▁vyřízení	-11.3274
▁marně	-11.3275
cími	-11.3275
▁kapsa	-11.3276
▁důkazy	-11.3276
▁zastoupen	-11.3277
▁tvůrce	-11.3279
▁připsal	-11.3279
▁metodou	-11.3281
▁květy	-11.3281
▁prosadit	-11.3282
▁sešli	-11.3286
▁názorů	-11.3287
▁kino	-11.3288
▁licencované	-11.3288
▁bet	-11.3288
níkem	-11.329
▁dorost	-11.329
▁propojen	-11.3291
▁prudce	-11.3292
▁knížky	-11.3292
▁anonym	-11.3293
▁hri	-11.3294
▁naprosté	-11.3294
pin	-11.3295
▁reklamu	-11.3299
pomenu	-11.33
▁litr	-11.3301
▁technologické	-11.3301
▁sestava	-11.3301
▁rty	-11.3302
▁čtenářů	-11.3302
▁podílu	-11.3303
▁představitelé	-11.3304
▁brankáře	-11.3305
▁autorka	-11.3307
▁excel	-11.3308
rné	-11.3309
▁stali	-11.331
▁získají	-11.331
▁ujít	-11.331
▁beta	-11.3312
▁jedu	-11.3312
▁dávku	-11.3313
▁sociálním	-11.3314
▁zveřejnění	-11.3315
▁přezdív	-11.3315
▁výtvarn	-11.3315
▁parametr	-11.3317
▁důležitější	-11.3319
▁vedlo	-11.332
ery	-11.3322
▁pořádání	-11.3324
▁rob	-11.3325
krit	-11.3326
▁úkor	-11.3326
▁yto	-11.3326
▁odstup	-11.3327
▁odpolední	-11.3327
▁honz	-11.3329
▁japonské	-11.3331
▁infrastruktury	-11.3332
řin	-11.3332
▁pramen	-11.3332
▁sav	-11.334
▁perspektiv	-11.334
▁médiích	-11.3341
▁bezesporu	-11.3341
▁myspace	-11.3341
▁splátky	-11.3341
▁zmizí	-11.3341
▁táta	-11.3342
▁vodo	-11.3342
▁klo	-11.3344
▁zabít	-11.3344
▁mzdové	-11.3345
▁doručení	-11.3347
▁agend	-11.335
▁světový	-11.3352
▁herečka	-11.3356
▁utr	-11.3357
▁zanechal	-11.3359
▁veselý	-11.336
▁trpěl	-11.3361
rid	-11.3362
střelil	-11.3364
▁takovéto	-11.3364
▁polska	-11.3368
▁uznává	-11.3368
kraj	-11.3369
▁nositel	-11.337
▁dřev	-11.337
▁vlasti	-11.3372
▁malta	-11.3372
▁vyvolal	-11.3372
▁působící	-11.3374
cker	-11.3374
▁oct	-11.3375
dejte	-11.3376
▁hampshire	-11.3376
▁bílého	-11.3377
▁kultura	-11.3378
▁nehty	-11.3378
▁steve	-11.338
▁dotazník	-11.3381
▁opěr	-11.3381
▁koncertu	-11.3381
▁zaplacen	-11.3384
▁stylem	-11.3384
▁dv	-11.3385
oid	-11.3386
▁horor	-11.3388
▁číny	-11.3389
▁následovat	-11.3389
▁odemknout	-11.339
▁komunální	-11.339
▁kužel	-11.339
▁fotbalový	-11.3391
▁kaple	-11.3392
▁sur	-11.3393
▁křiž	-11.3393
▁ideálně	-11.3393
▁protivník	-11.3394
▁kořist	-11.3394
lijeme	-11.3395
▁bund	-11.3396
▁kmene	-11.3396
▁natočil	-11.3398
▁počítačových	-11.34
dél	-11.34
▁vsadil	-11.3401
▁twitter	-11.3403
▁zbytku	-11.3403
▁koupím	-11.3404
▁posílá	-11.3404
▁zvedl	-11.3404
▁opil	-11.3405
▁nádherně	-11.3406
▁finančního	-11.3406
▁krkonoš	-11.3407
▁kavárny	-11.3407
neš	-11.341
▁jezero	-11.341
▁založená	-11.341
▁aktivovat	-11.341
▁děčín	-11.3412
▁vybojoval	-11.3412
▁učil	-11.3412
íků	-11.3413
▁pokusit	-11.3414
▁netušil	-11.3414
▁londýně	-11.3414
mýšlí	-11.3415
▁zapo	-11.3415
▁přizpůsobit	-11.3416
▁tyč	-11.3417
▁přišly	-11.3419
▁drah	-11.342
▁libovolné	-11.3421
▁vitamin	-11.3421
▁cro	-11.3421
dělat	-11.3422
pracov	-11.3423
program	-11.3423
▁bc	-11.3424
▁vysočina	-11.3425
▁ničeho	-11.3425
▁sestup	-11.3425
▁letu	-11.3426
pracuje	-11.3426
pevn	-11.3428
▁kořeny	-11.3429
▁žamboši	-11.3429
ražen	-11.3431
▁jakož	-11.3433
▁kav	-11.3435
▁tlačí	-11.3436
▁hloubky	-11.3436
▁long	-11.3436
▁takovej	-11.3438
▁změnila	-11.3438
▁rozložení	-11.3439
▁slabý	-11.3439
▁světem	-11.344
▁užili	-11.3442
▁plateb	-11.3445
▁vyzval	-11.3447
▁čaroděj	-11.3447
▁náhled	-11.3448
▁dešti	-11.3449
▁spolupracoval	-11.3449
lád	-11.3449
▁pokusu	-11.345
ned	-11.3451
▁senior	-11.3451
aru	-11.3452
▁soft	-11.3452
▁hladinu	-11.3454
▁hormon	-11.3455
▁thomas	-11.3456
▁kolegů	-11.3457
▁rovině	-11.3458
plý	-11.3458
▁účinně	-11.3458
váz	-11.3459
▁hala	-11.346
počítal	-11.346
▁táboře	-11.3461
▁nevýhod	-11.3462
▁bavil	-11.3463
ujícího	-11.3464
zené	-11.3464
▁uspořádal	-11.3465
▁interval	-11.3465
▁fol	-11.3467
rium	-11.3468
hz	-11.347
▁návrhů	-11.3472
▁indián	-11.3473
▁relativní	-11.3474
▁penzijní	-11.3474
▁fakulta	-11.3478
▁počítání	-11.348
▁vyuč	-11.3482
▁stanovisko	-11.3483
▁mobile	-11.3485
▁terénní	-11.3486
▁německá	-11.3487
▁land	-11.3487
▁hlubší	-11.3487
▁vyšším	-11.3488
▁lind	-11.3489
▁kapacitu	-11.3489
▁blue	-11.3489
▁dočkal	-11.349
▁ucho	-11.3492
▁dlužník	-11.3493
▁univerzit	-11.3493
▁společnou	-11.3493
▁jakýkoli	-11.3493
stev	-11.3494
▁haf	-11.3494
vent	-11.3494
▁šum	-11.3496
▁posílat	-11.3496
▁nadcházející	-11.3497
▁zasvěcen	-11.35
▁astronom	-11.3501
▁napadl	-11.3501
▁patrné	-11.3503
▁přibyl	-11.3506
▁displeje	-11.3506
▁připomenout	-11.3507
▁tiger	-11.3507
řské	-11.3507
▁britský	-11.3508
ících	-11.3509
▁radě	-11.3509
▁poloha	-11.351
▁otázce	-11.351
▁nutný	-11.351
dav	-11.351
▁mírné	-11.3511
rf	-11.3513
▁vodních	-11.3515
stit	-11.3517
▁dobách	-11.3517
▁mechanické	-11.3518
▁začátečník	-11.352
snad	-11.3521
▁tma	-11.3521
itelná	-11.3521
▁nejvyššího	-11.3522
▁vyvolat	-11.3522
▁síle	-11.3524
▁postřeh	-11.3525
▁pomocník	-11.3526
▁věřitel	-11.3526
▁blíž	-11.3526
centrum	-11.3526
acích	-11.3527
▁písek	-11.3528
▁service	-11.3528
▁úvah	-11.3528
▁zkoušek	-11.3528
▁samotném	-11.3528
ivně	-11.3529
▁miluju	-11.3529
nesou	-11.3529
▁vyš	-11.353
▁sebevědomí	-11.3532
▁kara	-11.3536
▁představitel	-11.3537
▁dary	-11.3537
▁dotaci	-11.3538
▁webová	-11.3539
hrávat	-11.354
▁wynn	-11.3541
terapie	-11.3542
▁plamen	-11.3543
▁vnímat	-11.3544
▁nynější	-11.3544
▁spoje	-11.3544
▁přesvědčil	-11.3544
▁inetbet	-11.3546
stupuje	-11.3548
▁úředník	-11.3549
▁kemp	-11.355
▁tlakem	-11.3553
▁poskytujeme	-11.3554
▁obsazení	-11.3554
▁kreslení	-11.3555
▁odpovídat	-11.3556
▁zaplacení	-11.3557
▁obsluha	-11.3558
▁ží	-11.3561
▁páry	-11.3561
▁požáru	-11.3562
řej	-11.3562
web	-11.3562
▁pochlubit	-11.3564
▁rozvíjí	-11.3564
▁slibuje	-11.3564
▁lesů	-11.3567
▁právník	-11.3568
▁čekali	-11.3568
▁vyhraje	-11.3569
kredit	-11.3569
vaj	-11.3571
▁bariér	-11.3573
▁piráti	-11.3574
▁závodník	-11.3574
▁seznámí	-11.3575
▁uprav	-11.3575
▁nenašel	-11.3576
▁cenově	-11.3576
▁přemýšlel	-11.3576
▁slovenska	-11.3577
▁písemné	-11.3578
▁výuku	-11.3578
▁ryt	-11.3579
▁nezdá	-11.3579
▁ony	-11.3579
▁uzávěr	-11.3582
▁nekončí	-11.3582
▁sázet	-11.3582
ted	-11.3583
▁kyselin	-11.3584
▁rum	-11.3584
▁odeslání	-11.3584
▁křest	-11.3584
▁rostl	-11.3584
xe	-11.3584
▁schéma	-11.3585
▁definice	-11.3586
▁vytvořené	-11.3586
slan	-11.3587
▁garáže	-11.3588
▁čelní	-11.3589
▁oblíbených	-11.3589
hře	-11.3593
ávali	-11.3595
row	-11.3595
▁slaven	-11.3599
▁jahod	-11.3599
▁rychlo	-11.3599
▁bezpečný	-11.36
▁diskutovat	-11.36
ložených	-11.3601
nta	-11.3601
sche	-11.3603
pot	-11.3604
▁sis	-11.3604
▁leták	-11.3604
▁mapě	-11.3606
▁filosof	-11.3607
▁zaměřením	-11.3608
▁propadl	-11.361
▁hrnec	-11.361
▁natočen	-11.361
▁vyrobena	-11.361
▁prdel	-11.3611
▁červenou	-11.3612
▁vrátili	-11.3614
▁vybavena	-11.3615
▁jednotlivce	-11.3616
ware	-11.3617
▁ap	-11.3619
koupí	-11.362
▁berlín	-11.362
▁doplní	-11.3621
sie	-11.3622
▁stávají	-11.3622
▁obzvláště	-11.3623
dlem	-11.3623
▁situacích	-11.3623
▁padá	-11.3627
▁úmrtí	-11.3627
▁dokazuje	-11.3628
▁teč	-11.3628
▁komunist	-11.363
▁vyhrazen	-11.3631
▁sar	-11.3632
▁uvažuje	-11.3633
▁milost	-11.3635
▁katalogu	-11.3635
▁zón	-11.3635
▁gor	-11.3636
▁palestin	-11.3636
ati	-11.3637
▁zařadit	-11.3637
▁přesvědč	-11.3646
▁silikon	-11.3646
▁vaří	-11.3646
▁odhalil	-11.3647
dru	-11.365
▁lokomotiv	-11.365
▁jednoduchost	-11.365
▁výbuch	-11.365
▁úspěchů	-11.365
▁útěk	-11.3652
▁vyjel	-11.3653
ckého	-11.3653
▁fantastické	-11.3655
▁bojoval	-11.3656
gres	-11.3658
▁značení	-11.3659
▁průchod	-11.366
▁výhře	-11.3661
▁kapitola	-11.3661
▁předložen	-11.3662
▁náv	-11.3662
▁trávník	-11.3662
▁zpracován	-11.3663
▁složek	-11.3664
ovců	-11.3664
aktiv	-11.3664
▁emi	-11.3666
▁odběru	-11.3668
▁pohyby	-11.3668
▁ropy	-11.3668
▁obyvatelstva	-11.3669
▁pirát	-11.3671
▁zabývající	-11.3673
▁kali	-11.3673
▁objeven	-11.3677
▁prohlídka	-11.3678
haj	-11.3678
átoři	-11.368
▁fit	-11.3682
▁spolupracuje	-11.3682
▁parfém	-11.3682
▁elit	-11.3682
▁zveme	-11.3683
▁projevu	-11.3686
▁vyrovnat	-11.3687
▁heb	-11.3689
▁pozvání	-11.3691
▁královské	-11.3691
▁přidala	-11.3692
▁vhodnou	-11.3692
▁přidán	-11.3693
▁dostih	-11.3695
kost	-11.3696
ndo	-11.3699
▁odnesl	-11.3699
▁vyplácí	-11.3699
▁regulátor	-11.37
▁rozp	-11.3702
fen	-11.3702
píná	-11.3703
▁brambory	-11.3704
▁letišti	-11.3705
▁čelit	-11.3705
▁kroměříž	-11.3705
nika	-11.3707
▁bloku	-11.3708
▁administr	-11.371
rus	-11.3711
▁vrat	-11.3711
▁politická	-11.3711
jíždět	-11.3712
rko	-11.3713
▁sedmé	-11.3714
▁špičkový	-11.3714
▁neko	-11.3714
prostřed	-11.3715
▁poznal	-11.3716
▁postižené	-11.3717
▁integrované	-11.3718
▁vrtulník	-11.3718
▁prosadil	-11.3719
▁trzích	-11.3719
▁úspory	-11.3719
▁chovu	-11.3721
ograf	-11.3722
▁mary	-11.3727
▁franc	-11.3727
ward	-11.3727
▁revize	-11.3728
oun	-11.3728
▁pevnou	-11.3731
▁zpracovat	-11.3731
▁rekordní	-11.3732
▁inovace	-11.3732
▁architektury	-11.3733
▁kapitálu	-11.3733
▁lig	-11.3736
▁ovlivňují	-11.3737
▁neslyšel	-11.3737
▁loňský	-11.3737
▁nauč	-11.3741
▁využili	-11.3741
psání	-11.3744
▁vojsk	-11.3745
▁oceněn	-11.3745
▁madrid	-11.3746
▁přinášíme	-11.3748
▁hen	-11.3749
▁relaxační	-11.375
▁mak	-11.3752
▁málokdo	-11.3753
ovny	-11.3753
▁odborná	-11.3753
▁kapel	-11.3755
▁výdrž	-11.3755
▁nejspíše	-11.3756
▁milión	-11.3757
šk	-11.3757
▁que	-11.3758
▁bít	-11.3759
▁latin	-11.376
enky	-11.3761
▁dodavatelů	-11.3765
▁závodníků	-11.3765
▁terorist	-11.3766
▁core	-11.3768
knutí	-11.3769
▁snadná	-11.377
▁amazon	-11.377
▁klan	-11.377
▁světel	-11.3771
our	-11.3772
spekt	-11.3772
▁poměry	-11.3778
▁utrpěl	-11.3779
▁doplňků	-11.3779
▁chytré	-11.3779
▁zřízen	-11.378
▁sob	-11.378
lepen	-11.3781
▁muzikál	-11.3783
rol	-11.3783
▁udělám	-11.3784
até	-11.3785
▁postoje	-11.3786
ván	-11.3787
▁pořadatel	-11.3789
pul	-11.379
▁kontrakt	-11.379
▁oddělen	-11.3791
▁nedaří	-11.3792
víra	-11.3796
inek	-11.3797
▁mikuláš	-11.3801
▁právního	-11.3802
▁projeví	-11.3804
hyb	-11.3805
▁podklady	-11.3806
▁výjimky	-11.3806
▁jejímu	-11.3807
▁stu	-11.3808
▁libor	-11.3808
▁ateliér	-11.3811
▁výprav	-11.3812
ass	-11.3812
▁zbyl	-11.3812
▁ověřit	-11.3815
▁opozice	-11.382
▁portrét	-11.382
▁spatřil	-11.382
▁kreativní	-11.382
▁placht	-11.3821
▁světlé	-11.3822
▁chodník	-11.3822
lko	-11.3823
▁textil	-11.3823
druh	-11.3824
▁jádra	-11.3825
▁tar	-11.3825
▁sobot	-11.3826
▁jazyků	-11.383
▁plác	-11.383
▁spoření	-11.383
▁republikán	-11.383
▁adresy	-11.3833
▁šíp	-11.3833
▁jakýsi	-11.3833
▁odvahu	-11.3834
▁spolehlivý	-11.3834
ářů	-11.3835
▁vyjadřuje	-11.3838
▁střík	-11.3839
▁povoleno	-11.384
▁nastaví	-11.384
▁dozvěděl	-11.3841
íkem	-11.3842
map	-11.3842
▁řidičů	-11.3843
▁replik	-11.3844
▁kontroluje	-11.3844
▁anonymní	-11.3845
▁distribu	-11.3847
▁objednávku	-11.3848
prů	-11.3849
▁kdybychom	-11.3849
▁správního	-11.3849
▁back	-11.3851
▁fungoval	-11.3851
ndu	-11.3851
hánět	-11.3852
▁ukládání	-11.3854
▁komfortní	-11.3854
laz	-11.3855
ckou	-11.3856
▁she	-11.3857
▁ind	-11.3857
▁stálé	-11.3858
▁faktorem	-11.3858
ule	-11.3859
▁obchodech	-11.3859
▁příslušný	-11.386
▁usadil	-11.386
▁tp	-11.3861
▁čp	-11.3861
▁předpokládat	-11.3862
▁posoudit	-11.3862
▁čína	-11.3862
izovaný	-11.3863
▁cyklus	-11.3867
ges	-11.3868
hněd	-11.387
▁dno	-11.387
vic	-11.3871
etu	-11.3872
field	-11.3875
▁technický	-11.3876
▁koncernový	-11.3876
▁podrobnější	-11.3877
▁živnost	-11.3877
vaří	-11.3879
▁juli	-11.3879
▁důl	-11.388
▁veletrh	-11.3881
▁žili	-11.3881
▁kapacitou	-11.3881
▁procházky	-11.3885
▁obecný	-11.3885
▁promo	-11.3886
▁atp	-11.3886
▁mapu	-11.3889
▁zloděj	-11.3889
▁bitva	-11.3889
▁únor	-11.3889
▁označit	-11.389
cování	-11.389
lus	-11.389
▁dodáván	-11.3891
úr	-11.3892
▁onen	-11.3893
▁patro	-11.3894
back	-11.3895
▁scénu	-11.3895
▁nadšená	-11.3898
▁zásadě	-11.3898
▁položen	-11.3898
▁zemní	-11.3898
▁záchranné	-11.3899
▁cirkus	-11.3899
▁bohuslav	-11.39
rand	-11.39
ečná	-11.3901
▁designem	-11.3901
▁teplý	-11.3902
ono	-11.3902
▁penn	-11.3902
▁řádné	-11.3903
▁tiše	-11.3905
▁říz	-11.3906
▁odráží	-11.3906
▁vánoc	-11.3907
▁zahájila	-11.3907
▁domnívá	-11.3908
ssa	-11.3909
▁zimních	-11.3909
▁balón	-11.391
▁sobotka	-11.3911
▁non	-11.3916
▁akutní	-11.3918
▁pult	-11.3919
▁žebříčku	-11.392
▁eco	-11.392
▁mercedes	-11.3922
▁telefonicky	-11.3924
▁kouzelné	-11.3924
▁zálohy	-11.3924
▁maxim	-11.3924
▁analyz	-11.3925
▁mandát	-11.3927
▁šetří	-11.3927
vír	-11.3927
▁ptát	-11.3928
▁knižní	-11.3929
▁tereza	-11.3929
▁výstavní	-11.393
▁vzniknout	-11.393
▁chystáte	-11.393
▁partnerství	-11.3931
▁tanky	-11.3932
▁hypotéky	-11.3933
▁střelec	-11.3933
▁korál	-11.3933
▁dobrovolně	-11.3936
zán	-11.3936
▁zobrazuje	-11.3937
▁drobný	-11.3937
▁ukazatel	-11.3938
▁havl	-11.3938
▁půlnoci	-11.3941
▁expo	-11.3943
▁hotové	-11.3944
▁nacist	-11.3945
▁zdůraznil	-11.3946
▁objektivní	-11.3946
▁uvedeného	-11.3946
▁otvory	-11.3946
▁kayla	-11.3947
▁vydělávat	-11.3947
▁servír	-11.3951
▁kamion	-11.3954
lár	-11.3955
děný	-11.3956
▁rovné	-11.3956
táhnou	-11.3958
▁společenských	-11.3959
gon	-11.3961
▁dráze	-11.3961
▁digital	-11.3961
▁trn	-11.3961
▁vyzkoušejte	-11.3962
▁legislativní	-11.3965
▁miniaplikace	-11.3965
▁apartmány	-11.3965
▁likvidaci	-11.3967
▁prime	-11.3968
▁nejbohatší	-11.3969
▁zastávka	-11.3969
▁kapalin	-11.397
▁hradce	-11.3971
▁propagační	-11.3971
▁nohama	-11.3972
▁váza	-11.3973
lám	-11.3973
myslel	-11.3974
▁lepším	-11.3974
▁nejúspěšnější	-11.3974
hléd	-11.3974
▁hill	-11.3975
▁marcel	-11.3975
▁odchod	-11.3976
▁demokratické	-11.3977
▁pravá	-11.3978
▁spolupracovník	-11.3979
▁přijeli	-11.3979
▁přítelem	-11.3979
▁účty	-11.398
▁ideálním	-11.3981
vrt	-11.3981
čkám	-11.3982
▁stříbrný	-11.3982
▁kolekci	-11.3983
▁překr	-11.3986
vanou	-11.3987
▁hrab	-11.3988
▁gowild	-11.3988
▁přejí	-11.3989
▁slabé	-11.399
▁doopravdy	-11.3993
▁částech	-11.3993
▁útoky	-11.3993
▁ostří	-11.3998
▁závěrečný	-11.3998
▁notebooku	-11.3999
hrab	-11.3999
▁okrese	-11.3999
erová	-11.3999
▁běžet	-11.4
▁orientační	-11.4001
noucí	-11.4002
▁přístupné	-11.4003
▁vysílač	-11.4003
▁rozchod	-11.4007
▁inspektor	-11.4007
▁vezměte	-11.4007
▁forem	-11.4009
▁cestovatel	-11.4011
▁panny	-11.4012
▁rev	-11.4012
▁obsadil	-11.4014
▁gla	-11.4015
cat	-11.4016
čká	-11.4016
kládací	-11.4016
▁diamant	-11.4016
▁malo	-11.4017
▁američan	-11.4019
taci	-11.402
▁terapie	-11.402
▁příhod	-11.4021
▁neobvyklé	-11.4021
▁fyzikální	-11.4022
▁rolet	-11.4022
hm	-11.4022
▁zmaten	-11.4023
ped	-11.4024
▁nerez	-11.4025
▁prázdný	-11.4026
▁bezprostředně	-11.4026
▁opravdový	-11.4028
▁prožívá	-11.4029
▁fungující	-11.4031
▁stoupá	-11.4031
▁human	-11.4034
▁fér	-11.4034
▁lyžařské	-11.4035
▁sezení	-11.4036
ejí	-11.4037
▁omezený	-11.4037
kur	-11.4037
▁občanům	-11.4038
▁otevřených	-11.4038
▁přístupný	-11.4039
▁vycházel	-11.4039
▁licencí	-11.404
▁přiznává	-11.4041
čice	-11.4042
▁potřebovala	-11.4042
▁pozic	-11.4042
▁adri	-11.4042
▁světu	-11.4043
▁káv	-11.4043
▁segment	-11.4044
▁luk	-11.4044
▁nepůjde	-11.4045
▁platný	-11.4046
▁traktor	-11.4047
▁historik	-11.4047
▁matematické	-11.4049
▁zlepšil	-11.405
▁bral	-11.4051
▁kopec	-11.4052
lich	-11.4053
▁běžného	-11.4053
▁jakéhokoliv	-11.4053
ras	-11.4055
▁básni	-11.4057
▁chemie	-11.4059
▁zamířil	-11.4059
▁rulety	-11.4059
▁otvor	-11.4059
▁knihovně	-11.406
▁kv	-11.406
hořel	-11.406
▁souvisejících	-11.4061
▁čerpání	-11.4063
▁houby	-11.4064
▁svalů	-11.4065
▁děláte	-11.4065
▁vážený	-11.4066
▁rádio	-11.4067
▁úzce	-11.4068
▁poštou	-11.4069
▁výzvu	-11.407
▁alt	-11.407
▁mezinárodním	-11.4071
▁primátor	-11.4073
▁instalovat	-11.4073
▁bankomat	-11.4074
▁personálu	-11.4074
▁politickou	-11.4075
točit	-11.4076
▁položit	-11.4076
▁máslo	-11.4077
▁inzerce	-11.4078
▁nená	-11.408
▁#,#,#	-11.408
▁manželem	-11.4082
▁západu	-11.4083
dž	-11.4084
bro	-11.4085
hodnocen	-11.4088
▁rámec	-11.4089
▁kolena	-11.4089
ačním	-11.4089
▁opraven	-11.409
▁sortimentu	-11.409
▁pozoruhodné	-11.4092
▁kanalizace	-11.4092
pouštějí	-11.4094
▁bratra	-11.4096
▁řas	-11.4096
▁čemuž	-11.4096
▁požadujeme	-11.4098
▁krátká	-11.4101
▁překladu	-11.4102
▁veškerou	-11.4102
▁míň	-11.4102
▁svátky	-11.4104
▁neskutečně	-11.4106
▁hrdina	-11.4106
▁chůze	-11.4107
▁nádherná	-11.4108
▁jackson	-11.4109
gin	-11.4109
▁štěně	-11.4109
▁životy	-11.4109
▁minulost	-11.4111
▁nevin	-11.4112
▁albert	-11.4113
haz	-11.4113
▁bojím	-11.4114
spal	-11.4116
▁vyhlásil	-11.4116
▁syndrom	-11.4117
▁píšeš	-11.4118
▁pouzdro	-11.4121
▁bota	-11.4121
▁dvůr	-11.4121
▁trasu	-11.4121
▁komor	-11.4122
▁zručnost	-11.4123
▁orientaci	-11.4123
▁přístupem	-11.4126
▁jezdce	-11.4126
▁šedé	-11.4126
▁schod	-11.4127
ovacím	-11.4129
▁zůstalo	-11.413
▁implement	-11.4132
zn	-11.4134
▁austrálie	-11.4135
▁vyjít	-11.4135
▁diet	-11.4136
stříl	-11.4137
▁kupón	-11.4137
▁provedena	-11.4138
▁otoč	-11.4139
▁jednotné	-11.4139
▁pur	-11.4141
board	-11.4141
▁umělci	-11.4141
pout	-11.4141
▁hladké	-11.4141
▁pohyboval	-11.4142
ely	-11.4142
▁fóru	-11.4143
▁synchroniz	-11.4145
▁podílí	-11.4146
alu	-11.4146
▁parní	-11.4148
▁hlášení	-11.4149
▁nejjednodušší	-11.4149
▁betlém	-11.415
▁chybějící	-11.415
▁značný	-11.415
▁městských	-11.4152
▁ředitelka	-11.4152
pracovat	-11.4154
▁prince	-11.4154
▁pseudo	-11.4154
▁výměře	-11.4154
▁tes	-11.4156
▁autobusem	-11.4156
▁přesunul	-11.4159
▁zvýšenou	-11.4159
▁záběry	-11.4159
míchá	-11.416
▁nehody	-11.4161
▁jitka	-11.4163
▁premiéru	-11.4163
▁stru	-11.4164
▁výšku	-11.4164
▁kopřiv	-11.4164
▁čar	-11.4164
▁svobodný	-11.4165
▁lez	-11.4166
hs	-11.4167
▁nedostatky	-11.4169
▁nepříjemný	-11.4169
▁ženou	-11.4169
▁kyra	-11.417
▁brou	-11.4171
▁předpis	-11.4171
▁opakování	-11.4172
▁databázi	-11.4173
ktor	-11.4175
▁připrav	-11.4176
▁hůř	-11.4176
▁slovenský	-11.4177
▁označením	-11.4179
▁statistik	-11.4179
▁přívěs	-11.4179
▁song	-11.4179
▁datové	-11.418
▁motorů	-11.418
▁kysel	-11.4182
▁informuje	-11.4182
▁poslanců	-11.4183
▁pražských	-11.4184
▁zásahu	-11.4185
▁civilní	-11.4185
▁muze	-11.4187
▁gymnázia	-11.4188
▁kokos	-11.4188
střed	-11.4188
▁vypnout	-11.4189
▁dur	-11.419
▁rozložen	-11.4191
eři	-11.4192
ičkami	-11.4192
▁zkoumat	-11.4193
liš	-11.4193
▁dep	-11.4193
▁old	-11.4194
▁zanikl	-11.4195
▁komponent	-11.4195
▁přemýšlím	-11.4197
▁prospěšné	-11.4197
ební	-11.4199
race	-11.4199
▁prodejci	-11.42
▁osobám	-11.4202
▁nejraději	-11.4202
▁ocenil	-11.4204
▁rys	-11.4205
▁povolit	-11.4206
▁touru	-11.4206
▁používané	-11.4207
▁průjezd	-11.4208
▁manuální	-11.421
sal	-11.421
▁designér	-11.4211
▁andrej	-11.4211
▁ochutnat	-11.4212
▁linek	-11.4212
▁herci	-11.4212
zp	-11.4213
▁klubů	-11.4214
▁pravém	-11.4215
▁koule	-11.4216
▁učitelé	-11.4216
▁pneu	-11.4217
▁únik	-11.4218
▁voják	-11.4218
▁cheb	-11.422
▁stream	-11.4221
▁optimaliz	-11.4223
hraje	-11.4225
▁konkrétního	-11.4226
▁dodala	-11.4226
▁národů	-11.4226
▁kotv	-11.4228
▁priorit	-11.4228
▁totální	-11.4229
lok	-11.4229
▁neuro	-11.423
mini	-11.423
▁def	-11.4231
▁jaroslava	-11.4231
▁zachován	-11.4233
stroj	-11.4235
▁určených	-11.4236
sin	-11.4236
▁úvazek	-11.4237
qua	-11.4239
▁divu	-11.4239
▁stanou	-11.4242
lehl	-11.4245
▁koruny	-11.4246
▁třináct	-11.4246
▁štíhl	-11.4246
izující	-11.4247
▁civilizace	-11.4251
▁zvané	-11.4251
▁léčení	-11.4252
▁zeptala	-11.4253
▁chráněné	-11.4253
▁rameno	-11.4254
▁švéd	-11.4255
kultur	-11.4255
▁pokrytí	-11.4255
▁démon	-11.4255
▁hlasovat	-11.4257
vše	-11.4257
▁hesla	-11.426
enský	-11.426
▁řecké	-11.426
▁válci	-11.4261
▁chápe	-11.4261
▁půjdu	-11.4265
aček	-11.4265
měsíční	-11.4267
▁sah	-11.4268
▁kilometr	-11.4269
▁mos	-11.4269
▁příloh	-11.4269
▁aplikovat	-11.427
▁neode	-11.427
▁legend	-11.427
▁slovem	-11.4271
▁hudebních	-11.4272
ogen	-11.4272
▁teplotě	-11.4273
▁angličtině	-11.4275
▁nejrychleji	-11.4275
▁vydržet	-11.4275
mg	-11.4275
▁moderním	-11.4276
▁ptám	-11.4277
▁světová	-11.4277
▁úžasná	-11.4278
▁zastávky	-11.428
▁celodenní	-11.428
▁menším	-11.4281
▁pokračující	-11.4282
▁složitý	-11.4284
▁havířov	-11.4284
▁chaty	-11.4285
▁hrubý	-11.4286
▁adrenalin	-11.4287
▁distribuce	-11.4288
▁washington	-11.4289
▁tabletu	-11.4291
▁vybudování	-11.4292
▁exekutor	-11.4294
▁hodnotou	-11.4295
▁samém	-11.4296
▁procházka	-11.4296
▁you	-11.4296
▁nebezpečný	-11.4298
▁divokou	-11.4299
▁porozumění	-11.4299
▁zkušené	-11.43
▁příchodu	-11.4301
▁fel	-11.4302
▁wei	-11.4302
▁obklopen	-11.4304
▁zeptá	-11.4305
▁slz	-11.4305
▁dopravních	-11.4306
▁autobusu	-11.4306
▁cvičit	-11.4307
▁osvobození	-11.4307
▁kulturního	-11.4307
▁nadhodnocené	-11.4309
nav	-11.4312
▁adaptér	-11.4312
▁fyz	-11.4315
▁kina	-11.4316
▁magazín	-11.4316
▁vyvolá	-11.4316
▁tratě	-11.4318
▁současnou	-11.4318
▁sazba	-11.4318
▁micro	-11.4319
▁stavitel	-11.4319
▁lav	-11.432
▁davida	-11.4324
▁zvládá	-11.4327
▁spokojenosti	-11.4331
▁zavede	-11.4332
▁společných	-11.4334
wh	-11.4334
▁špatného	-11.4335
červen	-11.4335
▁sbírku	-11.4337
▁expres	-11.4337
▁konkurent	-11.4338
▁luci	-11.4338
▁kopie	-11.4341
nde	-11.4343
▁ruletu	-11.4343
▁prapor	-11.4344
▁jdete	-11.4344
▁čtrnáct	-11.4346
cin	-11.4352
▁účastníkům	-11.4352
▁charlie	-11.4353
idlo	-11.4353
▁dívá	-11.4353
▁nekonečn	-11.4355
▁duetového	-11.4357
uješ	-11.4358
▁bomba	-11.4358
▁záhy	-11.4359
▁branek	-11.436
▁herny	-11.436
▁podlehl	-11.4361
▁obnov	-11.4363
▁modř	-11.4363
▁říjen	-11.4365
▁sym	-11.4366
▁obalu	-11.437
▁fyzik	-11.4372
▁jedl	-11.4372
▁zády	-11.4372
▁nezávisle	-11.4372
▁spotřební	-11.4372
▁postoupil	-11.4373
▁starém	-11.4373
toval	-11.4373
▁tradičních	-11.4373
▁miloval	-11.4375
tkem	-11.4375
▁spolek	-11.4375
▁metro	-11.4375
▁ztratila	-11.4376
▁news	-11.4376
eren	-11.4376
▁vč	-11.4376
itý	-11.4377
▁poslouchá	-11.4379
háněl	-11.438
▁plynul	-11.4381
▁středa	-11.4381
▁poštovné	-11.4382
▁subjektů	-11.4382
▁jakoukoliv	-11.4383
▁plošin	-11.4384
▁unaven	-11.4385
▁drama	-11.4385
▁náročná	-11.4387
▁platformy	-11.4387
▁este	-11.4388
▁samoz	-11.439
▁samotnou	-11.4392
▁jev	-11.4392
▁terez	-11.4393
hlub	-11.4394
▁moravské	-11.4395
ívá	-11.4396
▁náleží	-11.4397
▁sab	-11.4397
▁sběratel	-11.4397
▁spotřebitele	-11.4398
▁rozlišením	-11.4398
▁sporu	-11.4399
▁luxus	-11.4399
covat	-11.44
▁muzeu	-11.4401
▁masaryk	-11.4401
▁pomohlo	-11.4402
▁historicky	-11.4403
▁monte	-11.4403
▁sti	-11.4404
▁vzorky	-11.4405
▁podlaží	-11.4406
▁hnědé	-11.4407
▁nezmění	-11.4407
nikl	-11.4407
▁vyplnit	-11.4408
▁vlhkosti	-11.4409
▁operačního	-11.4409
érie	-11.4409
▁obvinění	-11.441
žila	-11.4411
▁myší	-11.4412
▁hlasitě	-11.4413
slo	-11.4413
dnes	-11.4415
▁zažili	-11.4415
▁nejdelší	-11.4416
enec	-11.4416
anty	-11.4417
livé	-11.4418
vice	-11.4419
▁pochval	-11.4419
▁dobrot	-11.4419
▁magn	-11.4421
▁pozdějších	-11.4423
▁čela	-11.4424
▁kabin	-11.4425
▁přivezl	-11.4425
▁rozptýlí	-11.4426
▁snižování	-11.4426
▁mužstvo	-11.4428
▁japon	-11.4429
▁fanta	-11.4431
▁jay	-11.4432
▁kněž	-11.4432
▁jimi	-11.4433
spěch	-11.4433
▁pošty	-11.4437
plně	-11.4438
▁pevná	-11.4439
▁válečné	-11.4439
▁vít	-11.4439
▁basketbal	-11.4441
▁vybudovat	-11.4441
▁čerpací	-11.4441
▁dokážou	-11.4443
▁zrn	-11.4444
▁technikou	-11.4445
▁trén	-11.4445
▁druž	-11.4445
▁zkoušet	-11.4446
▁žetonů	-11.4446
▁nekon	-11.4448
▁přípoj	-11.445
▁ochutná	-11.445
▁téhož	-11.4451
▁změnám	-11.4451
▁hudbou	-11.4451
▁rozhodnutím	-11.4456
ett	-11.4457
ásek	-11.4457
▁věřte	-11.4458
▁návštěvnost	-11.4458
▁zelen	-11.4459
▁slavnost	-11.4459
▁nabízel	-11.4461
▁jackpotu	-11.4461
▁jó	-11.4461
king	-11.4462
hřív	-11.4462
▁parta	-11.4463
▁připraveny	-11.4463
rají	-11.4464
příjem	-11.4466
▁návštěvníkům	-11.4467
ovacího	-11.4468
▁ulic	-11.4468
éři	-11.4468
štiny	-11.4469
▁fotbalisté	-11.4469
tři	-11.4469
▁jogurt	-11.447
▁tmavé	-11.4472
mobil	-11.4472
▁card	-11.4473
▁zprávě	-11.4473
spon	-11.4473
▁záloh	-11.4475
▁úřadů	-11.4476
pusť	-11.4476
▁dl	-11.448
▁říkali	-11.448
▁žádoucí	-11.448
▁vyřešil	-11.448
▁melodie	-11.448
▁kandid	-11.4483
řila	-11.4484
schop	-11.4486
▁polit	-11.4486
▁kluka	-11.4487
síla	-11.4488
stýl	-11.4489
▁samot	-11.4489
▁selhání	-11.449
wan	-11.4492
▁čtverečních	-11.4492
výš	-11.4493
▁paříž	-11.4495
▁kočka	-11.4497
▁povedl	-11.4497
blo	-11.4498
▁zastupitelstvo	-11.45
dlu	-11.4501
▁kolečka	-11.4505
▁řekněme	-11.4505
▁přispět	-11.4505
pověděl	-11.4506
▁vrácení	-11.4509
▁svědectví	-11.451
▁náznak	-11.451
▁klap	-11.4512
▁dostával	-11.4512
▁záměru	-11.4514
▁pach	-11.4514
▁plen	-11.4515
▁nechyběl	-11.4515
elem	-11.4517
ovaně	-11.4519
počet	-11.452
▁don	-11.452
▁reflex	-11.452
phi	-11.4521
jímá	-11.4522
▁vtipné	-11.4522
zim	-11.4522
▁cítila	-11.4523
▁olymp	-11.4524
▁konstrukční	-11.4525
▁cc	-11.4525
ištích	-11.4526
▁vývojem	-11.4527
▁doufá	-11.4527
cle	-11.4528
tex	-11.4528
áty	-11.4529
tter	-11.453
▁cedul	-11.453
lex	-11.453
▁fire	-11.4531
▁cli	-11.4532
▁dovedností	-11.4532
▁phil	-11.4535
tisíc	-11.4535
▁příznivců	-11.4535
▁úzkost	-11.4535
▁odpočinek	-11.4535
▁electro	-11.4535
▁vznikly	-11.4535
ávala	-11.4536
elů	-11.4536
▁dostanu	-11.4539
▁gareth	-11.454
▁česka	-11.454
sud	-11.4541
mohl	-11.4542
▁rodné	-11.4543
▁diví	-11.4544
▁paro	-11.4544
▁vzpomněl	-11.4545
▁postavili	-11.4546
▁zavřel	-11.4547
▁senát	-11.4548
▁anglii	-11.4551
▁strategické	-11.4555
▁transakcí	-11.4555
▁flex	-11.4557
▁šestnáct	-11.4558
▁html	-11.456
▁režie	-11.456
jpg	-11.456
žívá	-11.4561
▁organismus	-11.4562
▁bavor	-11.4562
▁obrysy	-11.4565
▁jednoduchou	-11.4565
▁křesťanství	-11.4566
▁novinách	-11.4567
▁putování	-11.4567
▁energ	-11.4569
▁komplikace	-11.457
▁horizontu	-11.4571
▁styku	-11.4571
▁erotické	-11.4572
▁březen	-11.4573
lena	-11.4573
▁uvažovat	-11.4575
▁nádech	-11.4575
▁slyšeli	-11.4576
hledá	-11.4578
▁zakončení	-11.4579
▁nestál	-11.458
▁jablonec	-11.458
▁takzvaný	-11.4581
▁výměny	-11.4583
ouš	-11.4583
▁rej	-11.4583
▁koukat	-11.4585
▁poptávka	-11.4586
▁podzimu	-11.4586
▁dutin	-11.459
▁zn	-11.459
čr	-11.4591
▁vybudován	-11.4592
kryje	-11.4592
hů	-11.4592
kovice	-11.4592
▁víta	-11.4592
▁vitamín	-11.4593
▁liga	-11.4594
▁výnosy	-11.4595
▁relevantní	-11.4595
▁službě	-11.4595
▁sází	-11.4595
▁dc	-11.4596
▁oslovil	-11.4597
▁probíhal	-11.4598
▁zajišťují	-11.4598
▁platba	-11.4598
▁kata	-11.4599
▁závěrem	-11.4601
▁vzniklé	-11.4604
▁svítil	-11.4605
▁párkrát	-11.4605
▁fotbalist	-11.4606
oj	-11.4607
lila	-11.4609
▁náměstek	-11.461
▁marina	-11.461
▁lidstvo	-11.4611
▁třídu	-11.4612
▁spielen	-11.4613
[...]
