<pad>	0
<unk>	0
[CLS]	0
[SEP]	0
[MASK]	0
(	0
)	0
'	0
-	0
▁	-3.09655
,	-3.13783
.	-3.14122
▁a	-3.88954
▁na	-4.32206
▁v	-4.32694
▁se	-4.35532
▁je	-4.72165
m	-4.7332
a	-4.89918
▁s	-4.9153
▁to	-5.08969
y	-5.14849
u	-5.15447
▁z	-5.22818
▁že	-5.338
▁pro	-5.34116
▁o	-5.35349
▁do	-5.38006
i	-5.38521
▁i	-5.54601
▁za	-5.58791
ch	-5.62872
▁po	-5.68476
▁k	-5.70348
▁ale	-5.70519
▁si	-5.73282
:	-5.74718
ho	-5.77304
▁##	-5.77385
o	-5.82079
▁tak	-5.86455
▁#	-5.89449
▁jsem	-5.92859
▁ve	-5.94391
em	-5.97439
▁od	-6.03518
▁nebo	-6.04652
▁jsou	-6.05918
▁jako	-6.07043
?	-6.10445
ů	-6.14496
▁které	-6.16115
▁u	-6.17984
e	-6.20614
...	-6.20761
▁###	-6.21825
▁jak	-6.23835
▁####	-6.25455
s	-6.27475
▁by	-6.29636
▁ne	-6.29667
mi	-6.3213
▁co	-6.34936
▁při	-6.37374
í	-6.44721
▁vy	-6.47862
▁který	-6.51083
▁bude	-6.51158
te	-6.55383
▁už	-6.5573
▁jen	-6.55937
▁když	-6.56693
▁také	-6.67397
ní	-6.70299
ou	-6.73259
▁hry	-6.73532
!	-6.74624
▁má	-6.75479
▁jsme	-6.76246
ka	-6.76284
▁byl	-6.77713
me	-6.78321
▁pokud	-6.82801
▁být	-6.83421
▁před	-6.84084
ky	-6.84313
#	-6.85485
é	-6.88836
▁mi	-6.89045
ové	-6.89305
▁jeho	-6.90217
▁než	-6.91225
▁není	-6.92689
▁aby	-6.95513
▁ze	-6.96379
ně	-6.98218
▁až	-6.9929
▁která	-6.99761
t	-7.00745
▁online	-7.01465
▁pak	-7.01826
▁kde	-7.03585
▁podle	-7.04153
▁##.	-7.04186
▁bylo	-7.04859
á	-7.04994
▁ještě	-7.05062
▁více	-7.0581
▁bez	-7.06949
▁další	-7.08958
v	-7.09266
▁byla	-7.09326
d	-7.09635
ku	-7.1218
▁zdarma	-7.12272
ce	-7.1399
▁jejich	-7.14978
▁#.	-7.15156
na	-7.16566
▁pod	-7.16795
▁hrát	-7.18961
▁své	-7.20041
▁mě	-7.20474
k	-7.21206
ě	-7.217
ná	-7.21835
▁může	-7.22576
▁ani	-7.22651
mu	-7.24217
š	-7.244
li	-7.24856
▁mezi	-7.26691
▁vám	-7.26943
ová	-7.27189
▁tam	-7.28404
▁tím	-7.28871
né	-7.28977
##	-7.29154
▁velmi	-7.30684
▁či	-7.30911
▁automaty	-7.33119
n	-7.34503
▁...	-7.34837
▁let	-7.34853
▁první	-7.35639
ech	-7.35829
▁sloty	-7.36601
l	-7.38734
▁již	-7.40535
▁já	-7.40825
▁pře	-7.41508
c	-7.4199
▁ho	-7.42195
ovat	-7.42459
▁mají	-7.43613
ý	-7.44097
▁casino	-7.44147
▁toho	-7.4443
▁tu	-7.44554
ne	-7.44637
nou	-7.44724
▁ke	-7.45425
z	-7.45805
▁protože	-7.46104
▁asi	-7.46785
▁nás	-7.4813
▁zde	-7.48805
▁tedy	-7.49596
▁vás	-7.50631
▁ten	-7.52115
▁kdy	-7.52147
▁však	-7.52943
▁bych	-7.53345
▁kasino	-7.53451
▁všechny	-7.54761
it	-7.54992
▁tom	-7.55047
r	-7.56192
ci	-7.56404
▁jste	-7.56788
▁kteří	-7.57191
▁den	-7.57215
▁roz	-7.57678
▁ty	-7.58445
ek	-7.58729
▁proto	-7.59821
▁pouze	-7.60216
▁tento	-7.60376
▁třeba	-7.606
▁takže	-7.60847
▁mu	-7.61062
p	-7.61153
▁nad	-7.61291
▁tomu	-7.62482
▁ji	-7.63208
▁něco	-7.63438
▁můžete	-7.63582
▁moc	-7.64267
▁roce	-7.64641
▁roku	-7.64939
▁každý	-7.64967
x	-7.65341
▁přes	-7.65535
uje	-7.66729
ových	-7.67131
▁proti	-7.67442
▁nic	-7.68648
cí	-7.73235
ový	-7.73382
▁mám	-7.74526
▁měl	-7.75075
ování	-7.7532
ovou	-7.76687
kou	-7.76689
cz	-7.76757
ný	-7.76984
▁dnes	-7.77148
▁práce	-7.77806
▁nové	-7.7783
no	-7.78052
▁díky	-7.78404
▁mít	-7.78652
▁nám	-7.79173
▁:	-7.79203
▁budou	-7.81204
▁ta	-7.81263
▁této	-7.85382
▁místo	-7.87137
▁lze	-7.88553
▁byly	-7.88576
ých	-7.8995
la	-7.90128
▁stejně	-7.90144
ské	-7.90707
to	-7.90709
▁opravdu	-7.91102
▁vůbec	-7.91807
▁navíc	-7.92507
▁kdo	-7.93557
▁vše	-7.93781
ují	-7.93846
▁právě	-7.93984
▁musí	-7.94164
▁peníze	-7.94229
▁případě	-7.9481
▁praha	-7.94817
▁což	-7.95128
b	-7.95431
ni	-7.9579
ovi	-7.96813
▁jeden	-7.96819
▁jim	-7.97012
▁někdy	-7.97707
▁stále	-7.98277
▁dva	-7.99917
####	-8.00066
###	-8.00513
▁tyto	-8.00595
▁její	-8.00876
▁dobře	-8.01578
▁ti	-8.02094
ny	-8.02616
j	-8.043
▁například	-8.04676
▁e	-8.0488
▁budete	-8.05007
▁možná	-8.0525
▁vlastní	-8.0527
▁mohou	-8.05756
▁hra	-8.05881
▁kč	-8.05991
▁nabízí	-8.0631
▁všech	-8.06551
▁jde	-8.07215
▁možnost	-8.07384
▁české	-8.07384
ům	-8.07573
po	-8.08533
▁době	-8.08608
ách	-8.08659
▁během	-8.09332
g	-8.09436
▁video	-8.10114
▁možné	-8.10183
▁vždy	-8.10219
ž	-8.10223
▁čas	-8.10257
▁kterou	-8.10581
ných	-8.11213
▁teď	-8.11344
je	-8.11687
▁lidí	-8.11986
nu	-8.12591
▁nich	-8.12985
▁rok	-8.13353
▁nejlepší	-8.13723
▁děti	-8.13931
▁tato	-8.14422
▁proč	-8.1461
▁taky	-8.14735
č	-8.14923
▁pár	-8.1516
▁tohoto	-8.15362
▁dolarů	-8.15458
▁jinak	-8.16286
▁p	-8.16373
▁zařízení	-8.16389
▁jiné	-8.16624
▁některé	-8.1718
▁nikdy	-8.17585
▁poslední	-8.17734
▁společnosti	-8.17742
▁no	-8.1778
ská	-8.18272
▁měla	-8.1882
▁velké	-8.19242
▁dvou	-8.19395
▁tři	-8.19713
▁b	-8.19901
▁naše	-8.20047
▁č	-8.21976
▁nyní	-8.22328
▁informace	-8.2244
▁jestli	-8.22721
▁několik	-8.22826
h	-8.23541
▁#,#	-8.23704
▁hodně	-8.2412
▁celý	-8.24824
en	-8.24881
▁totiž	-8.25137
ového	-8.26196
f	-8.26326
▁kolem	-8.26473
▁tady	-8.26872
▁přímo	-8.27071
il	-8.27163
▁jí	-8.27374
▁těchto	-8.27381
▁svou	-8.27644
▁dobrý	-8.27755
▁re	-8.27999
▁sebe	-8.28129
▁dále	-8.28266
▁kasina	-8.28956
▁brno	-8.2936
▁rozhodně	-8.29386
že	-8.29448
▁lidé	-8.29655
er	-8.30205
▁prostě	-8.30426
oval	-8.30481
▁dvě	-8.30551
▁dne	-8.30878
▁de	-8.31107
▁oblasti	-8.31403
▁vaše	-8.31464
in	-8.31855
▁nejen	-8.32124
▁především	-8.32223
▁hrací	-8.32239
▁problém	-8.32397
▁někdo	-8.32412
▁mnoho	-8.32454
ko	-8.32627
▁často	-8.32818
▁trochu	-8.33133
▁slot	-8.33173
▁toto	-8.33341
ský	-8.34204
▁svůj	-8.34726
▁víc	-8.34863
▁něj	-8.34975
▁zase	-8.35005
▁určitě	-8.35237
▁zda	-8.35625
at	-8.35914
▁opět	-8.36361
st	-8.36393
▁měli	-8.36488
le	-8.36631
▁dalších	-8.36685
▁samozřejmě	-8.36687
ra	-8.37407
ma	-8.37712
ově	-8.37911
za	-8.38013
▁c	-8.38426
▁dokonce	-8.38805
ta	-8.38966
▁ob	-8.39442
▁snad	-8.3954
se	-8.3955
▁tomto	-8.39924
▁pomocí	-8.40264
▁##:##	-8.40267
▁část	-8.40553
▁společnost	-8.40831
lo	-8.41742
▁r	-8.41835
▁lepší	-8.41858
▁máme	-8.41907
▁tuto	-8.42137
▁hlavní	-8.4223
▁nový	-8.42635
▁získat	-8.4267
▁hlavně	-8.42749
▁města	-8.42836
▁největší	-8.43287
▁zejména	-8.43433
▁části	-8.43533
ého	-8.43633
▁svého	-8.43659
▁řekl	-8.4374
▁systém	-8.43852
▁jednou	-8.44264
▁máte	-8.44312
▁nej	-8.44914
▁bonus	-8.45169
▁ní	-8.45368
▁patří	-8.45429
▁my	-8.45556
▁dobu	-8.45598
▁práci	-8.45638
▁ostrava	-8.45644
▁plzeň	-8.45877
▁byli	-8.46007
▁####.	-8.46087
▁zcela	-8.46372
▁kvůli	-8.46497
▁život	-8.46634
▁dle	-8.46823
▁zatím	-8.47148
▁sice	-8.4726
▁celé	-8.4736
▁hodin	-8.4739
▁dost	-8.47437
▁chcete	-8.47546
▁větší	-8.47895
▁všechno	-8.48182
do	-8.48232
▁letech	-8.48341
▁nakonec	-8.49081
▁všichni	-8.49104
cích	-8.49144
▁rámci	-8.49237
▁téměř	-8.49421
ti	-8.49541
▁základní	-8.49888
▁d	-8.49981
ských	-8.49989
▁té	-8.50124
▁řízení	-8.50125
ků	-8.50263
▁hned	-8.5053
▁chce	-8.51065
ova	-8.51238
w	-8.51424
▁čr	-8.51586
▁hráči	-8.51711
▁ano	-8.51815
▁člověk	-8.52099
▁sám	-8.52277
▁spolu	-8.52286
lí	-8.52343
▁ovšem	-8.52423
▁dobré	-8.52612
▁nejsou	-8.52674
ného	-8.527
▁včetně	-8.52733
▁svých	-8.52804
▁prostředí	-8.5289
▁korun	-8.52897
▁druhé	-8.52956
▁mohl	-8.53708
▁jedno	-8.53851
▁kromě	-8.54285
al	-8.54631
ského	-8.55557
▁nevy	-8.55727
▁nemá	-8.55803
ované	-8.55827
▁poker	-8.56104
▁nebude	-8.56213
ba	-8.56595
▁mimo	-8.5669
▁věci	-8.56765
vy	-8.57489
ř	-8.57899
▁těch	-8.58014
▁množství	-8.5828
ze	-8.58451
▁řešení	-8.58626
co	-8.58768
▁počet	-8.59544
vá	-8.59545
▁úplně	-8.59581
▁žádné	-8.59972
▁služby	-8.60101
▁svým	-8.60179
▁dá	-8.60188
▁jedná	-8.60422
▁f	-8.60699
▁x	-8.60795
▁různých	-8.6088
▁akce	-8.61426
kem	-8.62094
▁cena	-8.62243
▁jistě	-8.62352
▁celkem	-8.62673
ty	-8.63116
▁stát	-8.63341
▁on	-8.6348
ie	-8.63729
▁příliš	-8.6399
▁myslím	-8.64165
ám	-8.64536
▁program	-8.6473
▁####,	-8.64781
▁jej	-8.6489
▁místě	-8.6528
nost	-8.65297
▁zároveň	-8.65545
▁dispozici	-8.65686
lé	-8.65835
▁světa	-8.66232
▁tří	-8.66376
▁období	-8.6648
▁velký	-8.67476
▁dál	-8.67524
▁mnohem	-8.67592
▁vlastně	-8.67683
▁naší	-8.67845
▁jan	-8.68037
▁několika	-8.68109
▁ostatní	-8.68751
▁g	-8.68875
tu	-8.68969
▁nějaké	-8.69195
ve	-8.69259
▁např	-8.69294
▁jedna	-8.69421
▁auto	-8.69607
▁zá	-8.70472
▁ať	-8.70598
▁ceny	-8.71438
ace	-8.71638
ji	-8.71908
▁t	-8.72011
▁kdyby	-8.72758
▁stojí	-8.72794
▁znovu	-8.72814
▁něm	-8.72863
ec	-8.73009
ale	-8.73208
▁dlouho	-8.73528
▁skutečně	-8.73822
▁hazardní	-8.74093
ovým	-8.74142
de	-8.74548
▁článek	-8.74563
▁přesně	-8.74623
▁rád	-8.74716
▁pří	-8.74722
▁neza	-8.74756
▁zboží	-8.74898
ší	-8.75221
▁poté	-8.75233
▁pan	-8.75281
nější	-8.75382
da	-8.75462
▁váš	-8.75632
▁nachází	-8.76146
▁vidět	-8.76153
▁vyšší	-8.76174
▁většina	-8.76296
▁říká	-8.76381
▁bohužel	-8.76438
▁systému	-8.76536
▁chvíli	-8.76573
▁strany	-8.76662
ej	-8.77021
▁můj	-8.77164
▁stránky	-8.77376
▁nikdo	-8.77382
ú	-8.77431
▁naopak	-8.77482
▁stroj	-8.77585
ly	-8.77758
ká	-8.77796
skou	-8.77816
▁součástí	-8.7806
▁sobě	-8.78476
▁různé	-8.7851
▁pracovní	-8.79024
▁minut	-8.79101
ře	-8.79527
ým	-8.79686
▁všem	-8.79735
▁rychle	-8.80047
ami	-8.80305
▁dělat	-8.80324
ující	-8.80461
tě	-8.80644
▁jsi	-8.80711
ným	-8.80742
▁nevím	-8.80798
▁prostřednictvím	-8.80806
▁zákona	-8.81024
aci	-8.8129
▁jednu	-8.81356
▁cenu	-8.81607
▁jenom	-8.81672
ích	-8.81699
▁la	-8.8175
▁doma	-8.81816
▁jo	-8.81861
ení	-8.82002
ice	-8.82175
▁doby	-8.82189
▁celou	-8.82265
ří	-8.8241
ing	-8.82888
▁svět	-8.83168
▁l	-8.83303
▁cca	-8.83333
▁alespoň	-8.83437
▁lidi	-8.83484
▁země	-8.83521
ň	-8.83719
▁půl	-8.83719
ické	-8.83783
▁jednoho	-8.83931
▁prostor	-8.84054
▁firmy	-8.84146
▁neu	-8.84154
lu	-8.84194
▁hráč	-8.84248
▁funkce	-8.84271
▁%	-8.84497
▁znamená	-8.8488
▁méně	-8.85016
▁internetu	-8.85163
pa	-8.85193
▁ra	-8.85302
▁světě	-8.85579
▁hru	-8.85713
▁chtěl	-8.85721
▁praze	-8.85827
▁fakt	-8.85907
▁pořád	-8.85928
▁děkuji	-8.86028
ost	-8.86141
▁rozhodnutí	-8.86328
el	-8.86384
▁života	-8.86444
▁žádný	-8.86453
▁okolí	-8.86548
ním	-8.86864
▁pět	-8.86961
jí	-8.87087
▁nějaký	-8.87189
▁takové	-8.87198
▁byste	-8.87216
▁spíše	-8.8756
▁tisíc	-8.87631
▁každé	-8.87651
pro	-8.87701
ru	-8.87702
▁pocit	-8.8799
▁velice	-8.88197
▁použití	-8.88202
▁vzhledem	-8.88303
▁udělat	-8.88367
▁nepo	-8.88393
▁vody	-8.88505
▁vyhrát	-8.88693
▁super	-8.88996
▁později	-8.89102
▁h	-8.89123
▁vý	-8.89211
▁najdete	-8.89295
▁peněz	-8.89475
▁milionů	-8.89579
▁našich	-8.89613
ov	-8.89673
▁letos	-8.8972
ovali	-8.89753
▁hráče	-8.8992
▁kam	-8.89943
▁můžeme	-8.90004
▁stroje	-8.9083
▁budu	-8.90881
▁trhu	-8.91046
▁rozdíl	-8.91067
▁informací	-8.91094
▁přitom	-8.91151
▁kolo	-8.91249
nosti	-8.91361
▁času	-8.91435
uji	-8.91702
▁nez	-8.91723
▁potom	-8.91867
▁atd	-8.92292
▁hraní	-8.92423
▁zatímco	-8.92511
▁in	-8.92664
▁cm	-8.92733
ovala	-8.92849
▁přesto	-8.9306
us	-8.93462
▁nová	-8.93465
▁jaké	-8.93548
▁způsobem	-8.93672
▁základě	-8.93719
▁tohle	-8.9377
▁obsahuje	-8.93818
▁sebou	-8.93848
▁věc	-8.94008
▁autor	-8.94084
▁přístup	-8.94442
an	-8.94609
▁mohli	-8.94775
ry	-8.94933
nice	-8.95033
▁nejvíce	-8.95115
▁malé	-8.95234
▁lisu	-8.95277
▁místa	-8.95306
▁zkušenosti	-8.95628
ha	-8.9565
re	-8.9582
▁kon	-8.95829
lou	-8.95929
▁skutečnosti	-8.95963
▁nějak	-8.96171
▁moje	-8.96646
▁jedním	-8.96684
kách	-8.96858
▁kvalitní	-8.97057
▁způsob	-8.9712
ací	-8.97175
▁jedné	-8.97211
▁školy	-8.97269
▁jít	-8.97444
▁večer	-8.97498
▁nebylo	-8.97692
▁nového	-8.97877
▁domácí	-8.97878
▁stav	-8.97968
čí	-8.97988
ková	-8.98067
▁osobní	-8.98306
▁nebyl	-8.98398
▁město	-8.98416
▁třetí	-8.98495
▁rádi	-8.98545
▁pa	-8.98611
▁takový	-8.98694
▁výše	-8.9921
▁týden	-8.9929
▁důležité	-8.99393
▁roky	-8.99556
▁docela	-8.99565
is	-8.99819
▁platí	-8.99877
▁většinou	-8.99943
▁programu	-9.00211
▁finanční	-9.00234
▁druhý	-9.00271
če	-9.00487
ví	-9.00534
▁chci	-9.00827
▁of	-9.00852
▁vegas	-9.00853
▁málo	-9.0094
▁petr	-9.01185
▁ú	-9.01245
▁j	-9.01348
▁svém	-9.01424
ních	-9.01601
▁zemi	-9.01834
▁století	-9.02005
sko	-9.02144
▁kasinu	-9.02257
ro	-9.02328
ím	-9.02542
ila	-9.02757
cs	-9.02826
▁sami	-9.02954
▁situace	-9.03061
▁problémy	-9.03097
▁výkon	-9.03193
ter	-9.03352
▁moderní	-9.03502
▁vítězství	-9.03646
▁jednání	-9.0381
▁herní	-9.03901
▁naprosto	-9.04023
▁najít	-9.0408
▁ha	-9.04093
▁straně	-9.04483
▁nových	-9.04585
▁použít	-9.04624
on	-9.04762
▁nes	-9.04838
▁n	-9.04848
▁model	-9.0493
▁dětí	-9.0499
▁umožňuje	-9.05139
▁http	-9.05221
▁stačí	-9.05252
▁##.##.####	-9.0531
▁budeme	-9.05513
▁tolik	-9.05571
▁dát	-9.05666
kové	-9.0571
▁prosím	-9.05753
vat	-9.05755
od	-9.05773
▁vedení	-9.05923
▁hotel	-9.061
▁mělo	-9.06259
ska	-9.06272
tak	-9.06447
▁čtyři	-9.0655
▁usa	-9.06581
▁náš	-9.06697
▁bonusy	-9.06701
www	-9.06928
▁výběr	-9.07043
ček	-9.07159
▁pohled	-9.07213
▁dítě	-9.07238
man	-9.07247
▁motor	-9.07441
▁procent	-9.07829
▁mm	-9.0795
▁jiných	-9.0816
▁prvním	-9.08284
▁dříve	-9.08296
ická	-9.08393
▁projektu	-9.08582
▁bychom	-9.08739
▁zpět	-9.08801
▁jackpot	-9.08845
ovaná	-9.08846
▁mnoha	-9.08855
▁služeb	-9.08858
▁sociální	-9.08988
▁státní	-9.08993
▁film	-9.09238
▁mohla	-9.093
▁stavu	-9.09542
▁ním	-9.09594
▁the	-9.09646
▁eu	-9.09945
čka	-9.10078
▁projekt	-9.10149
▁snadno	-9.10202
ovaný	-9.10235
▁vhodné	-9.10249
ber	-9.10362
kon	-9.10508
▁pc	-9.10571
▁ko	-9.10573
▁zákon	-9.10595
▁aplikace	-9.1067
▁rovněž	-9.1076
▁tým	-9.10771
▁zájem	-9.10903
▁možnosti	-9.10906
vi	-9.1094
▁vypadá	-9.10949
▁jiného	-9.11074
▁nedo	-9.11108
▁číslo	-9.11108
▁mne	-9.112
▁kterých	-9.11298
▁domu	-9.11525
▁kolik	-9.11528
▁dostat	-9.11833
▁dostal	-9.11931
val	-9.12034
▁nicméně	-9.12151
tí	-9.12258
ští	-9.12278
▁velkou	-9.12309
▁skupiny	-9.12323
si	-9.12446
es	-9.13006
▁ni	-9.13015
▁prý	-9.13286
▁vedle	-9.13305
▁jiný	-9.1336
▁začátku	-9.13618
ovací	-9.13673
▁výsledky	-9.13833
▁menší	-9.13927
▁dat	-9.13938
▁tě	-9.1397
▁tzv	-9.14063
ání	-9.14069
▁současné	-9.14141
vý	-9.14316
▁web	-9.14487
▁domů	-9.14613
▁nutné	-9.14642
va	-9.14831
▁popis	-9.15162
▁soud	-9.15213
▁kterým	-9.1525
sky	-9.15326
▁konci	-9.15386
▁pomoci	-9.15467
▁line	-9.15548
▁potřeba	-9.15552
nej	-9.15737
ii	-9.15833
▁stejné	-9.1588
▁snaží	-9.15944
▁uložení	-9.15973
▁pěti	-9.16247
▁sama	-9.16336
pe	-9.16466
▁některých	-9.16467
▁https	-9.16504
▁září	-9.16643
▁bar	-9.16775
bu	-9.16775
▁www	-9.16935
mo	-9.16937
▁podmínky	-9.16995
▁dní	-9.17262
▁posledních	-9.17271
▁##%	-9.17571
▁uvedl	-9.17615
▁přijde	-9.17718
▁republiky	-9.17789
▁druhou	-9.17814
sa	-9.17889
▁oba	-9.18065
▁poměrně	-9.18095
▁#.#	-9.18173
▁her	-9.18288
▁progresivní	-9.18315
▁využít	-9.18324
▁verze	-9.18472
▁novou	-9.18726
▁originální	-9.18818
▁ženy	-9.18833
▁území	-9.19112
▁hodnocení	-9.19319
ga	-9.19385
▁nějakou	-9.19444
▁česká	-9.19458
ři	-9.19539
▁provedení	-9.19578
let	-9.1967
▁pi	-9.19719
▁typu	-9.19955
▁kol	-9.20047
by	-9.20081
▁možností	-9.20259
▁tímto	-9.20359
▁dal	-9.20389
▁téma	-9.20525
▁poprvé	-9.20533
▁názvem	-9.20638
▁mohu	-9.20639
▁nemůže	-9.20734
▁kola	-9.20807
▁jehož	-9.20847
▁chtějí	-9.20954
▁km	-9.21008
bo	-9.21096
▁začal	-9.21277
#.	-9.21634
▁pomoc	-9.21718
▁čím	-9.21768
▁případně	-9.2189
▁společně	-9.21992
▁konkrétní	-9.22166
▁jež	-9.2219
▁štěstí	-9.22248
▁každého	-9.22285
▁občas	-9.22288
▁návrh	-9.22304
▁volné	-9.22408
▁soutěže	-9.22421
▁skoro	-9.22558
du	-9.2259
▁firma	-9.22663
ců	-9.22794
▁webu	-9.22815
▁odpověď	-9.22831
děl	-9.22873
▁velká	-9.22938
▁našeho	-9.22957
▁##.#.####	-9.23364
▁neboť	-9.23426
▁dr	-9.23442
▁situaci	-9.23473
▁paní	-9.2351
▁dům	-9.23573
▁nelze	-9.23876
et	-9.23879
▁nejvyšší	-9.2392
▁blackjack	-9.2399
▁lépe	-9.24097
▁hodiny	-9.2423
▁jednotlivých	-9.24403
▁obou	-9.24691
▁nabídky	-9.25037
▁utkání	-9.25091
▁mně	-9.25094
ém	-9.25174
ák	-9.2519
▁pozici	-9.25243
▁cílem	-9.25358
ální	-9.25487
▁musím	-9.25503
ili	-9.2551
▁spíš	-9.2558
▁cestu	-9.25725
▁dny	-9.258
▁energie	-9.26075
di	-9.26139
▁ba	-9.26146
▁ideální	-9.26667
▁vysoké	-9.26888
os	-9.26926
▁osobně	-9.27037
▁evropské	-9.27201
jší	-9.27668
▁českých	-9.27819
▁speciální	-9.27918
▁naši	-9.27955
▁abych	-9.27975
▁přece	-9.28231
▁zřejmě	-9.28344
or	-9.28504
▁řadu	-9.28573
▁maximální	-9.28622
▁střední	-9.28723
▁neo	-9.28795
▁náklady	-9.28847
▁ráda	-9.289
nout	-9.28906
▁##,#	-9.2893
▁věcí	-9.28969
▁místní	-9.28999
▁vaší	-9.29054
▁w	-9.29073
ovaných	-9.29091
▁martin	-9.2911
▁konečně	-9.29128
sku	-9.29178
▁činnosti	-9.29181
▁moci	-9.29196
▁new	-9.29402
▁radost	-9.29577
▁výši	-9.29583
▁konce	-9.29707
▁buď	-9.29708
ed	-9.29798
▁las	-9.29859
vě	-9.30056
▁škol	-9.30073
fi	-9.30083
▁seznam	-9.30383
▁nimi	-9.30433
▁nemám	-9.30464
▁#####	-9.30471
▁muž	-9.30557
▁trh	-9.30791
▁postupně	-9.3082
dě	-9.30971
ního	-9.31061
▁nena	-9.31238
▁zhruba	-9.31292
▁prodej	-9.31324
▁měly	-9.31345
▁led	-9.31371
dy	-9.31413
▁zajímavé	-9.31602
▁klubu	-9.31685
!!!	-9.31832
▁český	-9.31954
▁daleko	-9.32174
▁zdraví	-9.32235
ží	-9.32254
▁ubytování	-9.32313
▁říct	-9.32371
hod	-9.32496
▁mohlo	-9.32516
▁šanci	-9.32645
▁začíná	-9.32673
▁tehdy	-9.32789
▁text	-9.32952
▁apod	-9.32965
či	-9.32984
osti	-9.33025
ství	-9.33079
▁knihy	-9.33086
▁ná	-9.33428
▁takto	-9.33451
▁zrovna	-9.33488
▁týmu	-9.33566
▁článku	-9.33616
vol	-9.33744
▁soubor	-9.33774
ck	-9.33828
▁začít	-9.33983
▁nastavení	-9.33994
com	-9.34075
▁vklad	-9.3421
▁hor	-9.34235
▁telefon	-9.34293
▁tradiční	-9.34305
▁úřad	-9.34317
▁měsíc	-9.34348
▁nemusí	-9.34364
▁foto	-9.34375
dí	-9.34435
▁následně	-9.34588
▁typ	-9.34661
lá	-9.34691
▁akci	-9.34727
▁organizace	-9.34786
▁vývoj	-9.3479
▁obě	-9.34935
▁postup	-9.35033
ických	-9.35054
▁dnešní	-9.35083
▁došlo	-9.35203
▁podobně	-9.35269
prav	-9.3533
▁původní	-9.35383
▁jenže	-9.35421
▁internet	-9.35523
▁státu	-9.35559
▁kterého	-9.35591
▁někteří	-9.35652
▁tvoří	-9.35663
▁jednoduše	-9.3574
▁tentokrát	-9.35766
▁člověka	-9.35802
▁bonusové	-9.35994
ujeme	-9.36025
▁ráno	-9.36169
▁dělá	-9.36182
▁právo	-9.36188
▁vašeho	-9.36225
▁smlouvy	-9.36257
wikipedia	-9.36431
▁vybrat	-9.3644
▁názor	-9.36468
▁mé	-9.36545
▁######	-9.36598
▁lety	-9.36647
▁provoz	-9.36762
▁požadavky	-9.3679
kč	-9.36797
▁nejde	-9.36858
ův	-9.36867
▁vím	-9.37001
▁sportovní	-9.37072
▁spoustu	-9.37135
▁května	-9.3726
ickou	-9.37286
▁pozor	-9.37289
hu	-9.37381
▁osob	-9.37421
▁někde	-9.37474
ť	-9.37505
▁dovede	-9.3763
▁plus	-9.37987
sti	-9.38069
ační	-9.38281
ník	-9.38348
▁dalším	-9.38366
ina	-9.38432
▁materiál	-9.38512
▁vliv	-9.38649
▁slova	-9.38651
▁hráčů	-9.38713
▁nebyla	-9.38734
▁průběhu	-9.38919
ob	-9.38988
▁prahy	-9.39159
▁podporu	-9.39264
▁stal	-9.39284
ický	-9.39302
▁nabízíme	-9.39397
▁čtyř	-9.39474
▁ma	-9.39824
▁nově	-9.39856
▁jich	-9.39923
▁výrazně	-9.40017
▁starší	-9.40054
▁výrobce	-9.40245
▁jakmile	-9.40313
▁technologie	-9.40334
ál	-9.40361
▁cen	-9.40447
▁he	-9.40512
▁zdá	-9.40513
▁rady	-9.40523
▁vede	-9.40767
▁dává	-9.4079
▁měsíců	-9.40905
stav	-9.40915
še	-9.40921
▁provozu	-9.4108
▁uvnitř	-9.41135
▁podobě	-9.41152
▁pravděpodobně	-9.41232
▁komise	-9.4129
▁hod	-9.41413
▁veřejné	-9.4143
▁jiří	-9.41533
▁změny	-9.41557
▁působí	-9.41587
▁důvodu	-9.41652
sk	-9.41723
▁činnost	-9.41753
▁právní	-9.41838
▁důvod	-9.41944
▁celém	-9.42121
▁ruce	-9.42208
▁cesta	-9.42229
▁nepři	-9.4223
▁musíte	-9.42326
▁obvykle	-9.42329
ště	-9.42341
▁ředitel	-9.42413
▁měsíce	-9.42526
▁plán	-9.42535
▁celá	-9.42585
▁sport	-9.42609
▁čeká	-9.42613
▁sobotu	-9.42715
▁data	-9.42796
▁jméno	-9.42802
▁webové	-9.42848
▁stránkách	-9.42849
▁stranu	-9.42895
▁bodů	-9.42999
▁obchodní	-9.43042
▁kterém	-9.43115
▁zemí	-9.43185
▁ně	-9.43191
▁míst	-9.43261
▁nemají	-9.43299
ován	-9.43321
▁řada	-9.43367
ovými	-9.43391
ají	-9.43708
▁jaký	-9.43786
▁práva	-9.43919
▁věku	-9.44073
lit	-9.44111
▁mar	-9.44146
▁stran	-9.44209
▁jasné	-9.44231
▁mil	-9.44231
tá	-9.44384
ct	-9.44426
▁muset	-9.44527
▁bod	-9.44799
▁máš	-9.44872
▁styl	-9.44873
nit	-9.44933
▁využití	-9.44936
▁nepře	-9.44994
nutí	-9.45102
ke	-9.45176
▁počasí	-9.45326
▁musel	-9.45327
▁noci	-9.45344
▁software	-9.45433
ď	-9.45437
▁hudební	-9.4547
▁druh	-9.45487
ujte	-9.45503
▁roli	-9.45508
▁skutečné	-9.45581
▁obce	-9.45591
▁jelikož	-9.45618
be	-9.45637
▁funguje	-9.45641
té	-9.45701
mě	-9.45704
▁zpracování	-9.45769
▁českého	-9.45952
▁ona	-9.46161
ovém	-9.4635
▁umí	-9.46369
▁filmu	-9.46514
▁hotelu	-9.46518
▁plně	-9.46564
▁roze	-9.46597
▁mezinárodní	-9.46624
▁přišel	-9.46701
▁městě	-9.46747
▁národní	-9.46807
▁příběh	-9.46838
▁cesty	-9.46845
▁pozice	-9.46849
▁kraje	-9.46925
ala	-9.4695
ic	-9.47067
▁poskytuje	-9.47191
▁zápas	-9.47365
▁mo	-9.47449
▁#,##	-9.47474
min	-9.47515
kov	-9.47557
▁bo	-9.47605
▁zdravotní	-9.47838
▁dvěma	-9.47899
▁spolupráci	-9.47921
th	-9.48009
▁di	-9.4804
▁pravda	-9.4817
▁nižší	-9.48208
▁kraj	-9.4839
ými	-9.48485
▁vlády	-9.48548
▁deset	-9.48557
▁celého	-9.4864
▁podstatě	-9.48705
▁název	-9.48748
▁zas	-9.48785
▁odst	-9.48853
▁roztočení	-9.48877
▁setkání	-9.4888
▁samo	-9.4889
▁ex	-9.48997
▁dnů	-9.49159
▁existují	-9.49171
▁šance	-9.49254
▁chtěla	-9.49266
▁neměl	-9.4927
▁brzy	-9.49274
▁sv	-9.49371
bou	-9.49375
▁značky	-9.49378
▁ovoce	-9.49393
▁republice	-9.49409
▁umístění	-9.49433
▁prezident	-9.49456
ovy	-9.4948
▁nichž	-9.49569
▁pr	-9.49654
▁vstup	-9.49681
▁obraz	-9.49701
nými	-9.49708
▁hrál	-9.49728
▁nepro	-9.49789
▁soudu	-9.4984
▁pravidla	-9.49967
▁delší	-9.49986
▁le	-9.49995
▁zvláštní	-9.50107
▁aktuální	-9.5011
▁policie	-9.50205
▁existuje	-9.50217
▁prostoru	-9.50261
▁jednom	-9.50369
▁pole	-9.50413
▁centra	-9.5051
▁stavební	-9.50557
▁design	-9.50559
▁auta	-9.50644
▁pátek	-9.50738
▁podařilo	-9.50761
▁každou	-9.50786
▁škoda	-9.50806
▁syn	-9.50837
ca	-9.50841
▁podobné	-9.50869
▁fa	-9.50913
su	-9.50977
▁představuje	-9.51032
▁výsledek	-9.51262
tr	-9.51292
▁nejprve	-9.5134
▁kole	-9.51341
ver	-9.51354
▁dosud	-9.51419
▁metrů	-9.51432
▁denně	-9.51454
ském	-9.51479
▁ja	-9.51554
▁řadě	-9.51578
▁oproti	-9.51587
▁tělo	-9.51686
▁uvádí	-9.51719
ar	-9.51726
▁automat	-9.51732
▁pojištění	-9.51788
▁vždycky	-9.51807
▁níž	-9.51946
▁normální	-9.51955
▁listopadu	-9.51974
nic	-9.5199
▁osoby	-9.51995
▁taková	-9.52049
▁teprve	-9.52068
ční	-9.52078
▁neustále	-9.52081
▁začala	-9.52103
▁obsah	-9.52366
go	-9.52427
▁top	-9.52458
▁jednoduché	-9.52665
▁mého	-9.52867
▁š	-9.52935
stup	-9.53049
▁pokoje	-9.5317
▁spojení	-9.53239
íme	-9.53268
▁smysl	-9.53424
▁abychom	-9.53429
▁kniha	-9.5346
kám	-9.53461
▁směrem	-9.53465
▁stolní	-9.53513
▁šest	-9.53531
▁ode	-9.53544
▁kasinové	-9.53554
▁nechat	-9.53569
▁sto	-9.53642
▁vybavení	-9.53681
▁úrovni	-9.53794
▁díl	-9.53849
▁stalo	-9.53859
▁per	-9.53873
▁příjemné	-9.53916
▁dlouhé	-9.54061
zi	-9.54182
▁výherní	-9.54268
▁malý	-9.54356
▁prakticky	-9.54371
▁vytvořit	-9.54475
ši	-9.54802
▁lidem	-9.5483
▁opatření	-9.54862
?!	-9.54864
▁tvrdí	-9.55048
br	-9.55278
▁námi	-9.5534
▁raději	-9.55342
čky	-9.55461
▁středu	-9.55605
▁předem	-9.55947
▁rukou	-9.55971
▁hraje	-9.55992
▁takhle	-9.5603
viz	-9.56061
ps	-9.56115
▁vyzkoušet	-9.56296
▁ví	-9.56346
▁pohledu	-9.56358
▁vnitřní	-9.56487
▁žádná	-9.56543
▁napsal	-9.56611
▁vydání	-9.56654
▁oni	-9.56785
den	-9.568
▁používat	-9.5687
▁podíl	-9.56936
▁horní	-9.56967
▁#######	-9.56992
▁body	-9.57018
▁řešit	-9.5713
▁svoji	-9.57143
ot	-9.57193
▁dotaz	-9.57198
▁následující	-9.57257
ja	-9.57276
▁mobilní	-9.57302
ant	-9.57401
▁výkonu	-9.57446
▁noc	-9.57554
▁ihned	-9.57605
fa	-9.57839
▁případ	-9.58031
dr	-9.5816
id	-9.58188
▁činohra	-9.58238
▁byt	-9.58456
sta	-9.58645
▁aktivní	-9.58766
▁doba	-9.58781
ovanou	-9.58841
▁krásné	-9.58897
pr	-9.58921
ton	-9.5893
▁řady	-9.58932
▁jackpoty	-9.58956
▁používá	-9.5906
▁účet	-9.59063
▁bi	-9.59114
▁obchod	-9.59165
▁mobil	-9.59222
▁vůči	-9.59228
▁oči	-9.59265
▁tv	-9.59289
át	-9.59474
▁potřeby	-9.59606
▁stránek	-9.59765
▁sítě	-9.59838
ol	-9.59842
▁hlediska	-9.59971
▁tomáš	-9.60015
▁vedoucí	-9.60062
zá	-9.60176
▁rodiče	-9.6026
▁evropě	-9.6033
▁sb	-9.60481
▁fotografie	-9.60725
▁klub	-9.60746
ner	-9.60749
▁dnech	-9.6076
▁du	-9.6091
ment	-9.60955
▁vztah	-9.61016
▁okolo	-9.61104
▁jasně	-9.61111
▁spousta	-9.61204
▁viz	-9.61283
ul	-9.61284
▁připojení	-9.61297
▁karty	-9.61323
▁boj	-9.6159
sh	-9.61615
my	-9.61629
▁sou	-9.61703
▁rodiny	-9.61721
▁příležitost	-9.61804
▁svými	-9.6181
▁nejlépe	-9.62025
▁obyvatel	-9.62038
▁stejný	-9.62057
▁okamžitě	-9.62219
▁rychlé	-9.62222
▁materiálu	-9.62248
tek	-9.623
▁životní	-9.62315
▁be	-9.62403
▁důvodů	-9.62408
per	-9.6247
▁stane	-9.62482
▁klasické	-9.62523
▁veškeré	-9.6255
▁každá	-9.62572
ovány	-9.62588
kami	-9.62689
▁pre	-9.62695
▁ahoj	-9.62733
bi	-9.62952
▁staré	-9.62967
▁oblast	-9.62971
▁##.##	-9.62983
▁zprávy	-9.63081
▁minimální	-9.63153
▁našem	-9.63187
▁rozvoj	-9.63219
▁počtu	-9.63332
▁úřadu	-9.63344
▁hodnoty	-9.63408
▁někoho	-9.6353
▁dokáže	-9.63569
▁stažení	-9.63634
▁muže	-9.63638
▁spojené	-9.63706
bě	-9.63707
▁přináší	-9.6375
▁chtít	-9.63787
▁pravidelně	-9.63986
▁údaje	-9.64044
▁otázka	-9.64052
▁verzi	-9.64084
ené	-9.64158
▁závod	-9.64172
▁hlavním	-9.64175
čku	-9.64275
▁zadní	-9.64415
pří	-9.64471
▁jana	-9.64532
▁slov	-9.64628
▁mp	-9.64781
▁pracovat	-9.64802
▁kompletní	-9.64827
▁koupit	-9.64888
ster	-9.64906
▁centrum	-9.64965
▁vlastnosti	-9.6497
▁píše	-9.65046
der	-9.65124
▁euro	-9.65165
str	-9.65174
▁rozhodl	-9.65236
q	-9.65246
▁konec	-9.65284
ten	-9.65285
zu	-9.65289
▁najednou	-9.65375
▁člen	-9.65399
▁podívat	-9.65438
▁celkové	-9.65489
▁lu	-9.65509
▁skupina	-9.65538
▁vaši	-9.65596
▁těžké	-9.65635
stra	-9.65673
▁blaník	-9.65728
ur	-9.65753
▁slovo	-9.6578
jak	-9.65799
▁druhá	-9.65836
▁příští	-9.65882
▁populární	-9.65898
▁velikost	-9.66051
▁žen	-9.66108
▁náměstí	-9.66211
▁dokud	-9.66322
▁správně	-9.66357
▁skvělé	-9.66357
▁voda	-9.6645
▁růst	-9.66499
▁jednotlivé	-9.66517
lin	-9.6652
ge	-9.66545
▁plné	-9.66599
▁chuť	-9.66612
▁dar	-9.66635
son	-9.66729
▁těla	-9.66759
▁aspoň	-9.66832
▁žena	-9.66838
##.	-9.66847
▁všude	-9.66894
▁vynikající	-9.66951
▁funkci	-9.66976
▁životě	-9.67046
▁pl	-9.67063
▁#:#	-9.67093
má	-9.67192
▁naleznete	-9.67197
▁kategorie	-9.6725
▁park	-9.67255
▁vz	-9.67317
▁velikosti	-9.67429
▁srdce	-9.67456
so	-9.67474
▁každém	-9.67556
ruš	-9.67591
▁špatně	-9.6762
▁péče	-9.67694
▁problémů	-9.67715
▁šlo	-9.67787
▁sajid	-9.67821
▁správné	-9.67865
▁funkcí	-9.67876
▁světové	-9.67878
as	-9.68065
▁hře	-9.6816
▁pe	-9.68252
▁nabízejí	-9.68334
kl	-9.68378
▁zdroj	-9.68434
nění	-9.68442
▁slouží	-9.68494
▁začne	-9.6852
▁pán	-9.68573
▁příspěvek	-9.6865
▁letošní	-9.68656
▁vláda	-9.68727
ským	-9.68735
icky	-9.6874
▁osm	-9.68809
byt	-9.68886
▁prvního	-9.68918
▁též	-9.68945
▁možno	-9.68958
▁nabídka	-9.68966
▁nedávno	-9.69117
▁nijak	-9.69235
▁oddělení	-9.69236
▁pavel	-9.69279
▁dostanete	-9.69404
ilo	-9.69427
▁nejsem	-9.6951
▁hlas	-9.6952
▁chtěli	-9.69662
▁ulici	-9.69769
▁dobrá	-9.69936
▁vědět	-9.69962
▁ostatních	-9.70121
▁neděli	-9.70183
tra	-9.70204
▁centru	-9.70206
▁přední	-9.70229
▁barvy	-9.70241
▁nesmí	-9.70354
▁přírodní	-9.70364
▁windows	-9.70375
▁min	-9.70396
▁pu	-9.70441
▁jediné	-9.70452
pal	-9.70474
▁zvýšení	-9.70512
▁umění	-9.70631
▁chování	-9.70662
▁platit	-9.70848
▁společností	-9.71041
▁pomalu	-9.71233
▁současně	-9.71266
ejte	-9.71277
▁minimálně	-9.71289
nici	-9.71299
▁brně	-9.71317
▁technické	-9.71419
▁prvních	-9.71421
▁ono	-9.71509
▁přičemž	-9.71528
▁obecně	-9.71579
ována	-9.71583
▁odkaz	-9.7176
ent	-9.71953
▁viděl	-9.71987
▁ministr	-9.7205
▁cz	-9.72052
věř	-9.72075
▁války	-9.72114
▁otázky	-9.72125
▁jediný	-9.72159
▁význam	-9.72187
up	-9.72211
ík	-9.72231
▁přehled	-9.72256
vin	-9.72257
▁vydělat	-9.7228
já	-9.7231
▁líbí	-9.72324
▁aut	-9.72374
▁zahraničí	-9.72421
▁nadále	-9.72443
▁os	-9.72504
▁cíl	-9.72725
šť	-9.72756
▁sedm	-9.72783
men	-9.72845
ri	-9.72927
▁max	-9.72958
▁října	-9.72967
ff	-9.73015
zí	-9.73041
▁bezpečnostní	-9.73259
▁neod	-9.73271
▁volný	-9.73271
▁souvislosti	-9.73322
▁pokoj	-9.7342
▁doufám	-9.73455
▁výzkum	-9.73463
▁vzrušující	-9.7351
bal	-9.73534
▁škole	-9.7359
▁evropy	-9.73599
▁třídy	-9.73622
▁dobrou	-9.73646
▁zeptat	-9.73729
▁těm	-9.7373
▁nedá	-9.7379
nka	-9.73855
nul	-9.73905
▁řad	-9.73946
▁výběru	-9.73957
???	-9.7396
▁musíme	-9.73984
▁teda	-9.74027
▁tj	-9.74088
▁těžko	-9.74185
▁hot	-9.74252
▁škola	-9.74327
hl	-9.74347
▁včera	-9.74372
▁termín	-9.74534
sp	-9.74686
kovi	-9.74768
pře	-9.74982
▁cestě	-9.74996
há	-9.75062
ké	-9.75091
▁malá	-9.75106
▁avšak	-9.75194
ler	-9.75219
▁mat	-9.75313
orgwiki	-9.75339
ané	-9.75429
pí	-9.75456
▁komunikace	-9.75467
bra	-9.75495
pi	-9.75624
▁většinu	-9.75677
▁jejím	-9.75718
pu	-9.75769
cm	-9.75822
▁řekla	-9.75887
▁prostředky	-9.75992
▁mini	-9.75996
uju	-9.76013
▁loni	-9.76034
▁cestou	-9.76049
▁us	-9.7605
▁případech	-9.76059
▁přestože	-9.76202
▁sp	-9.76204
iny	-9.76237
▁říci	-9.76248
▁jenž	-9.76401
▁abyste	-9.76434
▁produkt	-9.76451
vají	-9.76523
▁podmínek	-9.76534
▁nápad	-9.76565
▁cíle	-9.76668
nt	-9.76693
▁hrad	-9.76693
▁pozornost	-9.76723
▁pondělí	-9.76729
vo	-9.76852
▁jejichž	-9.76886
▁technologií	-9.76925
▁titul	-9.77023
▁oboru	-9.7722
▁dalšího	-9.77433
▁místech	-9.77539
tou	-9.77865
▁vážně	-9.77873
▁články	-9.77891
▁umožní	-9.7799
▁stránce	-9.78082
▁man	-9.78116
▁par	-9.78154
▁ohledu	-9.78183
▁čase	-9.78295
▁dubna	-9.78298
▁objeví	-9.78382
▁dph	-9.78401
▁vysoce	-9.78436
▁vys	-9.78456
▁restaurace	-9.78626
ovo	-9.78669
▁prací	-9.78676
cha	-9.78772
▁pokračovat	-9.78776
▁takovou	-9.78984
▁dopravní	-9.79018
▁pravdu	-9.79026
▁proces	-9.79359
▁udělal	-9.79383
▁pořádku	-9.79426
ali	-9.79488
▁závěr	-9.79604
▁lo	-9.79706
ici	-9.79725
▁snadné	-9.79834
▁videa	-9.79925
▁smyslu	-9.79941
▁omezení	-9.80024
bit	-9.80094
▁kasin	-9.80095
▁června	-9.80137
▁moře	-9.80142
▁rychlost	-9.80215
▁kap	-9.8028
krát	-9.80401
▁bio	-9.80436
pl	-9.80572
▁chybí	-9.80644
ičky	-9.80649
▁internetové	-9.80665
▁ž	-9.80693
pě	-9.80727
▁šel	-9.80783
▁kor	-9.8079
▁stávající	-9.8091
▁kategorii	-9.81018
▁anebo	-9.81089
bí	-9.81104
▁zvuk	-9.81133
dl	-9.81147
▁pěkně	-9.81171
▁letní	-9.81179
▁david	-9.81216
▁známé	-9.81248
▁stavby	-9.81299
▁získal	-9.813
▁vhodný	-9.81408
▁schopni	-9.81452
▁série	-9.81475
▁obrovské	-9.81573
▁nebudou	-9.81636
tý	-9.81831
sil	-9.8188
▁hokej	-9.81893
tka	-9.8192
▁eur	-9.81927
▁skupin	-9.82046
▁tvar	-9.82223
▁soutěž	-9.8236
▁sledovat	-9.82401
▁ochranu	-9.82439
▁pracuje	-9.82478
▁velkých	-9.82512
▁doporučuji	-9.82524
inu	-9.82538
pat	-9.82554
▁pozitivní	-9.82573
▁sdružení	-9.82586
▁nárok	-9.82763
při	-9.82788
▁pane	-9.82794
itu	-9.82799
▁vzdělávání	-9.82852
▁klidně	-9.82868
např	-9.82895
▁výroby	-9.82984
ita	-9.83028
▁drží	-9.83049
dle	-9.83103
čení	-9.8313
▁ukazuje	-9.83165
án	-9.83167
▁test	-9.83248
▁srovnání	-9.83317
▁jídlo	-9.8341
▁prvky	-9.83438
▁dvoj	-9.83458
▁původně	-9.8347
▁péči	-9.83503
▁nabídku	-9.83527
▁svoje	-9.83592
▁profesionální	-9.83638
▁dveře	-9.83696
hy	-9.83712
kovou	-9.83762
▁miliard	-9.83801
▁jižní	-9.83879
▁znám	-9.83899
ška	-9.83933
▁typy	-9.83951
▁schopnost	-9.83971
už	-9.84043
▁fi	-9.84045
▁dosáhnout	-9.84067
▁svému	-9.84077
▁pohyb	-9.841
▁zjistit	-9.84104
▁horší	-9.84175
▁jiná	-9.84246
ár	-9.84272
▁elektro	-9.84389
▁karolínka	-9.84404
ity	-9.84409
net	-9.84422
▁skutečnost	-9.84436
▁deseti	-9.84459
▁unikátní	-9.84508
▁hlavu	-9.84602
▁symbol	-9.84615
mluv	-9.84658
▁změnit	-9.84671
▁virtuální	-9.84744
▁pobyt	-9.84764
ném	-9.84802
▁zásadní	-9.84902
▁mor	-9.84973
line	-9.8504
pad	-9.8505
▁minulosti	-9.8507
▁zajistit	-9.85106
▁sil	-9.85148
▁nechce	-9.85257
ička	-9.85262
▁stanice	-9.85442
▁balení	-9.85444
ovalo	-9.85533
▁ms	-9.85554
mat	-9.85555
▁cvičení	-9.8559
▁stala	-9.85592
▁kvality	-9.8562
▁produkty	-9.85777
▁formou	-9.8587
▁čtvrtek	-9.85899
▁dvakrát	-9.859
vod	-9.85962
▁kombinaci	-9.85972
▁zdrojů	-9.86045
▁hledat	-9.86065
▁str	-9.86071
dá	-9.86094
▁vzít	-9.86179
▁režimu	-9.86181
▁snížení	-9.86324
top	-9.86349
plat	-9.86388
ící	-9.86455
▁účast	-9.86474
▁mluvčí	-9.86554
▁dostala	-9.86622
▁nebezpečí	-9.86635
▁ca	-9.86636
▁firem	-9.86662
ia	-9.86674
▁wi	-9.86698
▁václav	-9.8671
▁onemocnění	-9.86733
▁léta	-9.86828
ral	-9.8686
▁zůstává	-9.86887
mar	-9.86974
▁smrti	-9.87018
▁nejnovější	-9.8707
roz	-9.87073
▁uživatele	-9.87086
▁banky	-9.87171
poj	-9.87225
kr	-9.87231
▁druhého	-9.87296
▁síť	-9.87304
▁anti	-9.87334
▁nejdříve	-9.8736
▁určité	-9.87373
ováno	-9.87395
ovaly	-9.87398
▁pomůže	-9.87403
▁kus	-9.87437
op	-9.87546
▁vrchol	-9.87667
nebo	-9.87676
▁zdroje	-9.87746
▁unie	-9.87755
sek	-9.87768
▁start	-9.87788
▁šesti	-9.87795
▁spolupráce	-9.87838
▁kurz	-9.87847
▁strana	-9.87865
ik	-9.87884
▁zkušenost	-9.87885
▁práv	-9.8789
▁jazyk	-9.87955
▁ml	-9.8804
ký	-9.88053
▁sta	-9.88069
sí	-9.88174
▁stylu	-9.88209
▁nabídnout	-9.8821
ily	-9.88229
▁ovládání	-9.88243
▁pra	-9.8832
▁stává	-9.88382
ion	-9.88409
▁děje	-9.88459
▁mnou	-9.88504
▁plánu	-9.88533
vr	-9.88563
nem	-9.88606
▁vyhrál	-9.88618
▁takového	-9.88688
▁telefonu	-9.88698
▁kg	-9.88715
▁oblečení	-9.88775
ence	-9.88798
▁jinou	-9.88823
▁dítěte	-9.8884
nek	-9.88882
▁hlavy	-9.88887
▁velkým	-9.8909
hle	-9.89094
▁#:##	-9.89218
nik	-9.89246
▁lehce	-9.89323
▁miliardy	-9.89386
▁řád	-9.89388
jet	-9.89389
▁muži	-9.89447
▁druhém	-9.89538
vaz	-9.89607
▁podání	-9.8962
▁krok	-9.89659
▁nejméně	-9.89721
▁vychází	-9.89736
▁dolů	-9.89759
▁základ	-9.89769
▁mal	-9.89802
▁druhy	-9.89923
▁přichází	-9.89954
▁ven	-9.90046
▁server	-9.90079
▁bu	-9.90127
▁oblíbené	-9.90201
▁historie	-9.9022
žit	-9.90262
ovaného	-9.90318
▁ohledně	-9.90324
▁dodává	-9.90406
▁manžel	-9.90407
▁němu	-9.9043
▁mas	-9.90432
eb	-9.90467
▁##,##	-9.90498
iště	-9.90565
▁návrhu	-9.90577
▁záleží	-9.9066
▁zahraniční	-9.90675
kal	-9.90676
▁ledna	-9.90679
čit	-9.90743
▁skončil	-9.90767
▁praxi	-9.9079
▁čem	-9.90849
ak	-9.90855
▁státy	-9.90875
▁for	-9.90942
▁povrch	-9.90956
▁přání	-9.91124
▁podporuje	-9.91157
▁výhru	-9.91206
▁dochází	-9.91277
▁polo	-9.91297
pt	-9.91364
▁úspěch	-9.91384
ika	-9.91428
▁konstrukce	-9.91447
pol	-9.91485
▁přibližně	-9.91486
ut	-9.91487
▁bank	-9.91498
▁turnaje	-9.91538
▁současnosti	-9.91553
stí	-9.91568
těž	-9.91614
▁tomuto	-9.91672
ron	-9.91693
▁dostane	-9.91703
▁michal	-9.91734
gen	-9.91755
▁most	-9.91814
▁března	-9.91896
▁víte	-9.91981
▁tri	-9.91986
▁dojde	-9.92022
▁úterý	-9.92109
kový	-9.92131
▁jinde	-9.92147
▁nějaká	-9.92176
▁museli	-9.92196
▁měření	-9.9226
▁světlo	-9.92264
▁videohry	-9.92275
▁aktivity	-9.92281
kat	-9.92289
▁jestliže	-9.92294
▁zpráva	-9.92333
▁liber	-9.9235
▁#.#.####	-9.92376
▁post	-9.92397
▁režim	-9.92398
ického	-9.92429
▁automaticky	-9.9247
▁luxusní	-9.92631
▁vodou	-9.9264
stru	-9.92693
▁dostali	-9.92699
▁ministerstvo	-9.92756
rat	-9.92769
▁těšit	-9.9278
ější	-9.92869
vou	-9.92908
▁čech	-9.92947
▁pomáhá	-9.92954
▁ga	-9.92973
▁akcí	-9.93006
▁webových	-9.93034
▁ali	-9.93049
▁myslí	-9.93083
▁vlasy	-9.93094
▁fotky	-9.93095
▁bezplatné	-9.93111
▁ročník	-9.93125
land	-9.93137
▁dostupné	-9.93182
▁výlet	-9.93299
▁zájmu	-9.93329
▁ruleta	-9.9336
▁vzduchu	-9.93431
▁da	-9.93527
▁chyb	-9.93533
▁historii	-9.93533
▁vysokou	-9.93535
▁procenta	-9.93537
▁všeho	-9.93604
▁car	-9.93617
▁vámi	-9.93713
▁vod	-9.93714
▁souladu	-9.93716
▁symboly	-9.93729
▁budovy	-9.9376
▁kombinace	-9.93822
▁předseda	-9.93848
nes	-9.93992
▁volby	-9.93994
▁leží	-9.94063
▁týká	-9.94107
gu	-9.94118
▁žádnou	-9.94259
▁tudíž	-9.94267
▁předtím	-9.94336
▁kousek	-9.94357
▁místnosti	-9.94358
▁tlak	-9.94416
▁standardní	-9.94433
▁náhodou	-9.94505
tel	-9.94538
▁šp	-9.94563
▁prostředků	-9.94618
▁josef	-9.94624
▁cd	-9.94653
věr	-9.94663
bor	-9.94698
▁ods	-9.94736
▁kód	-9.94741
▁půjčky	-9.94836
▁členové	-9.94903
▁víkend	-9.94936
▁ru	-9.94937
▁bývá	-9.94951
▁hranice	-9.94953
▁plný	-9.94979
▁týče	-9.94979
tv	-9.94989
mal	-9.95055
▁provést	-9.95055
▁al	-9.9515
▁beste	-9.95308
▁počítače	-9.95368
ven	-9.95387
▁bytu	-9.95415
nov	-9.95421
▁odpoledne	-9.95477
▁vodu	-9.95504
▁multi	-9.95564
rt	-9.95571
▁ps	-9.956
▁ii	-9.95633
▁automatů	-9.95637
▁napětí	-9.95647
▁vodní	-9.95658
dal	-9.95668
▁kontaktní	-9.95734
▁servis	-9.95753
▁poněkud	-9.95792
▁cit	-9.95829
▁br	-9.95872
▁poplatek	-9.9589
▁aniž	-9.95962
▁nechci	-9.96023
▁končí	-9.96062
▁strach	-9.96071
▁změnu	-9.96091
▁síly	-9.96102
jo	-9.96119
▁můžu	-9.96142
▁dneska	-9.96156
▁sázení	-9.96197
▁obchodu	-9.96333
▁podniky	-9.96345
▁celkově	-9.96435
▁přišla	-9.96489
▁čísla	-9.96526
▁##:##:##	-9.96549
▁dětmi	-9.96557
▁států	-9.9665
ki	-9.96673
▁rad	-9.96686
▁podnik	-9.96775
▁vztahu	-9.96864
▁op	-9.96866
▁extra	-9.96906
▁tabulky	-9.96961
▁ing	-9.9698
▁list	-9.97019
▁výrobu	-9.97061
ená	-9.97139
▁zaměstnání	-9.97163
▁tebe	-9.97254
▁kvalitu	-9.97273
▁trest	-9.97336
▁oprav	-9.97366
▁němž	-9.97414
▁jiným	-9.97448
▁stůl	-9.9752
▁využívá	-9.97526
▁úroveň	-9.9753
▁hlad	-9.97614
▁go	-9.97642
zna	-9.97657
▁otázku	-9.9767
▁zábavu	-9.97683
▁ceně	-9.97794
▁bydlení	-9.97811
▁představit	-9.97858
▁funkční	-9.97881
ín	-9.97897
▁ustanovení	-9.97906
▁televize	-9.98022
▁chceme	-9.98027
▁kraji	-9.98034
▁podpory	-9.98047
ovka	-9.98048
▁nohy	-9.98159
▁noční	-9.98159
▁události	-9.9816
▁předchozí	-9.98348
▁studii	-9.98379
ó	-9.98395
▁ročně	-9.984
hal	-9.98416
▁půjde	-9.98502
py	-9.98577
▁potřebné	-9.98619
▁potřebuje	-9.98619
půjč	-9.98684
▁dětské	-9.98687
era	-9.98771
▁uvedené	-9.98868
▁kontakt	-9.98923
▁areálu	-9.98967
▁změna	-9.98997
▁blízko	-9.9906
▁příjmy	-9.99095
▁vánoční	-9.99104
▁st	-9.99167
▁míru	-9.99188
▁domě	-9.99195
mail	-9.9923
▁hledání	-9.99233
▁několikrát	-9.99234
▁členů	-9.99376
▁šéf	-9.99439
tře	-9.99441
▁vzniku	-9.99452
▁chodí	-9.99467
▁studie	-9.99505
▁touto	-9.99537
▁částí	-9.99565
var	-9.99619
▁výhody	-9.99644
▁udržet	-9.99646
▁kom	-9.99678
▁sam	-9.9977
▁jednotky	-9.99777
▁naštěstí	-9.9982
átor	-9.99854
▁podnikání	-9.99899
▁mohly	-9.99902
▁hřiště	-9.99923
▁příklad	-10.0001
hlíd	-10.0005
▁nemohl	-10.0006
▁žít	-10.0007
ňuje	-10.0007
▁strategie	-10.0009
▁kasinech	-10.001
ovky	-10.0013
nil	-10.0014
▁přidat	-10.0016
▁hvězd	-10.0019
▁troj	-10.0028
▁představení	-10.0031
▁nemocnice	-10.0044
he	-10.0051
▁čtení	-10.0052
rou	-10.0053
▁zimní	-10.0057
▁spodní	-10.006
▁přijít	-10.0063
čně	-10.0064
▁kostel	-10.0064
▁pana	-10.0066
▁časem	-10.0067
▁řečeno	-10.0069
▁odpovídá	-10.0086
▁trenér	-10.0088
▁konkrétně	-10.009
▁riziko	-10.009
▁digitální	-10.0098
▁techniky	-10.01
▁dopravy	-10.0105
▁žije	-10.0106
▁systémy	-10.0107
▁průmyslu	-10.0121
▁trošku	-10.0122
▁aplikací	-10.0128
mít	-10.0129
▁turbo	-10.0139
▁zajištění	-10.0142
▁bor	-10.0145
▁druhů	-10.0152
▁novým	-10.0158
▁praxe	-10.0164
▁okna	-10.0168
▁nechal	-10.018
▁částku	-10.0182
▁skvěle	-10.0185
▁obrovský	-10.0188
▁česku	-10.0195
▁dávno	-10.0197
vz	-10.0199
▁rada	-10.0203
▁vytvoření	-10.0204
▁směr	-10.0204
ine	-10.0205
▁dětem	-10.0208
▁vzdělání	-10.0211
ista	-10.0211
▁vzor	-10.0214
mer	-10.0218
▁bezpečnost	-10.0235
▁or	-10.0239
▁používání	-10.0248
▁veřejnosti	-10.0257
▁generace	-10.0257
hr	-10.026
▁nebudu	-10.0265
▁nákup	-10.0265
▁dodal	-10.0266
▁neví	-10.0268
áček	-10.0273
▁plat	-10.0277
běh	-10.0279
▁serveru	-10.0284
▁bingo	-10.0285
▁kterému	-10.0286
▁prosince	-10.0293
▁příležitosti	-10.0297
▁zbytek	-10.0297
ií	-10.0298
▁dřív	-10.0306
▁neměla	-10.0307
▁českou	-10.0308
▁zelenom	-10.0308
▁podpora	-10.0308
▁slunce	-10.0309
▁programy	-10.0311
▁běžné	-10.0314
▁zahrnuje	-10.0322
▁vozidla	-10.0326
▁potravin	-10.0328
▁nim	-10.0332
▁plyn	-10.0334
ena	-10.0343
▁mou	-10.0347
▁krásně	-10.0348
▁nejlepších	-10.0352
št	-10.0355
hled	-10.0356
▁sociálních	-10.036
▁zkuste	-10.0364
▁produktů	-10.0376
▁řeší	-10.0376
šel	-10.0378
▁zemích	-10.0387
▁mění	-10.0387
měr	-10.0393
▁rock	-10.0397
hra	-10.0406
▁probíhá	-10.0408
stří	-10.0409
▁premiér	-10.0415
▁dárek	-10.0415
▁koncem	-10.0422
▁lid	-10.0427
jen	-10.0428
▁ročníku	-10.0434
▁hrají	-10.0443
▁nabídce	-10.0448
▁paměti	-10.0449
▁zabývá	-10.0451
▁poměr	-10.0452
▁počátku	-10.0452
▁nejvíc	-10.0455
▁ocenění	-10.0457
▁plnění	-10.0458
▁nákladů	-10.0459
▁začali	-10.0462
▁americké	-10.0463
par	-10.0463
▁hnutí	-10.0469
▁book	-10.0471
▁vhodná	-10.0473
▁hodí	-10.0475
▁zvláště	-10.0476
▁nahoru	-10.0485
mp	-10.0494
▁produktu	-10.0499
▁složení	-10.05
▁dlouhou	-10.0504
▁prů	-10.0507
▁poli	-10.0509
▁dovolené	-10.0517
fr	-10.0519
▁neměli	-10.0519
▁účtu	-10.0521
▁ok	-10.0526
ovu	-10.053
▁baterie	-10.0533
▁mr	-10.0539
▁centrální	-10.0539
▁otec	-10.0542
▁dvacet	-10.0548
ss	-10.0552
▁spojených	-10.0556
▁papír	-10.0562
▁zástupce	-10.0562
slov	-10.0567
▁zadavatel	-10.0573
▁výroba	-10.0574
▁maximálně	-10.0581
lý	-10.0586
▁dělají	-10.0587
ař	-10.0593
▁trvá	-10.0593
kro	-10.0609
▁mluví	-10.061
▁vašich	-10.061
▁skvělý	-10.0613
▁rovnou	-10.0615
▁sklad	-10.0616
▁příjem	-10.0616
▁obec	-10.062
▁textu	-10.062
▁reakce	-10.0624
▁petra	-10.063
▁třech	-10.0653
▁ulice	-10.0655
▁vlastním	-10.066
▁materiálů	-10.066
ris	-10.0664
▁bolest	-10.0666
letý	-10.0672
▁nese	-10.0674
▁řádu	-10.0675
▁údajů	-10.0682
▁činí	-10.0687
▁výhodou	-10.0689
▁es	-10.0693
▁tisk	-10.0695
▁využívat	-10.07
▁fo	-10.0705
dat	-10.0709
▁politické	-10.071
▁základních	-10.0712
▁vítěz	-10.0715
▁července	-10.0722
▁koncert	-10.0725
ismus	-10.0726
▁pes	-10.0726
ismu	-10.0727
▁spol	-10.0729
▁partner	-10.0734
▁vždyť	-10.0736
kla	-10.0743
čas	-10.0743
▁musela	-10.0745
▁kdysi	-10.0746
▁široké	-10.0746
▁polovině	-10.0751
▁rozsahu	-10.0751
▁cest	-10.0755
▁zisk	-10.0755
▁objem	-10.0757
▁blízkosti	-10.0757
šek	-10.076
▁hu	-10.0763
▁dostatečně	-10.0765
▁mladší	-10.0771
▁zákazníky	-10.0772
lek	-10.0775
▁nástroje	-10.0776
▁finále	-10.0784
▁schopnosti	-10.0792
ováním	-10.0801
▁maso	-10.0804
rod	-10.0805
▁bývalý	-10.0806
▁hodnota	-10.0807
▁vyšetření	-10.0819
▁našel	-10.0832
▁vystoupení	-10.0833
▁závěru	-10.0836
▁výrobky	-10.0837
kup	-10.0837
▁školní	-10.0839
▁mistrovství	-10.0841
▁podívejte	-10.0847
▁pohybu	-10.0856
▁členy	-10.0858
▁hodnotu	-10.0859
▁resp	-10.0863
ani	-10.0866
▁jakékoliv	-10.0867
▁nikoliv	-10.0873
▁výsledků	-10.0873
▁dala	-10.0874
íte	-10.0881
▁pěkný	-10.0884
▁sk	-10.0891
▁dalšími	-10.0899
▁adresu	-10.09
▁roční	-10.09
▁rozsah	-10.0906
▁zaměstnanců	-10.0912
▁##.#.	-10.0913
nky	-10.0914
▁free	-10.0914
▁získání	-10.0915
▁pokus	-10.0915
liv	-10.0919
ana	-10.092
▁bazén	-10.092
▁tr	-10.092
ran	-10.0921
▁nutno	-10.0922
▁krásný	-10.0922
rá	-10.0924
▁vrátil	-10.0926
▁#:#.	-10.0927
▁pat	-10.0931
▁fotbal	-10.0932
kaz	-10.0934
▁zkušeností	-10.0936
▁olej	-10.094
▁sms	-10.0941
▁ministerstva	-10.0944
álně	-10.0946
▁starý	-10.0947
▁hodinu	-10.0953
čin	-10.0957
▁mnohé	-10.0959
▁potřebujete	-10.0959
▁srpna	-10.0962
▁východní	-10.0967
▁žádost	-10.097
▁mí	-10.0972
▁vidím	-10.0973
▁inter	-10.0974
▁politiky	-10.0991
áci	-10.1
▁povinnost	-10.1001
▁odborné	-10.1002
▁city	-10.1005
▁kterými	-10.1006
když	-10.1008
▁parku	-10.1015
▁dostatek	-10.102
▁jisté	-10.1025
▁všechna	-10.1026
▁tisíce	-10.1027
▁názoru	-10.1029
▁mam	-10.1032
ér	-10.1033
▁pá	-10.1033
▁mužů	-10.1035
▁hr	-10.1038
ger	-10.1038
▁modelu	-10.1045
▁špatné	-10.1052
ll	-10.1054
▁festival	-10.106
▁severní	-10.1061
▁pořádně	-10.1062
▁nev	-10.1063
▁bezplatně	-10.1072
▁černé	-10.1074
▁pás	-10.1075
▁zvýšit	-10.1079
▁společné	-10.108
▁lib	-10.1081
▁lidské	-10.1091
sed	-10.1092
▁play	-10.1096
ex	-10.1096
ok	-10.1104
▁mikro	-10.1105
pod	-10.111
▁světla	-10.1111
▁prezidenta	-10.1111
▁prodeje	-10.1116
▁rostlin	-10.1119
▁kal	-10.112
bl	-10.1123
nd	-10.1124
▁zemřel	-10.1128
koli	-10.1132
wa	-10.1134
▁všemi	-10.1141
▁jaká	-10.1141
▁podzim	-10.1143
pis	-10.1143
▁provádět	-10.1146
▁pryč	-10.1147
▁dovolenou	-10.115
▁limit	-10.1151
▁osoba	-10.1153
▁financí	-10.1157
▁děl	-10.1158
▁dárky	-10.1163
▁února	-10.1165
▁kajot	-10.117
len	-10.117
▁čele	-10.1176
▁změně	-10.1178
▁většině	-10.118
▁veřejných	-10.1182
▁aplikaci	-10.1183
▁jídelní	-10.1187
ráž	-10.1188
▁projektů	-10.1206
▁and	-10.1208
▁kdykoliv	-10.1214
▁schopen	-10.1214
pokud	-10.1217
▁google	-10.1221
▁rozšíření	-10.1226
ovač	-10.1232
aj	-10.1237
▁mladé	-10.1242
▁létě	-10.1244
▁samotné	-10.1246
▁stop	-10.1247
▁boží	-10.1248
▁var	-10.125
▁formě	-10.1257
izace	-10.1258
▁počítač	-10.1263
▁obci	-10.1264
▁metody	-10.1264
ts	-10.1266
▁ruku	-10.1266
▁délka	-10.1268
▁chod	-10.1274
▁česko	-10.1278
sl	-10.1281
▁nastavit	-10.1284
mín	-10.1286
▁tématu	-10.1287
▁těsně	-10.1289
▁minulý	-10.1289
▁dohromady	-10.129
▁denní	-10.129
zzling	-10.1294
▁zkrátka	-10.1295
▁han	-10.1299
▁pokaždé	-10.1302
▁kop	-10.1308
▁individuální	-10.1311
až	-10.1311
▁dané	-10.1312
▁rokem	-10.1313
▁napsat	-10.1315
▁nebyly	-10.1316
▁dokument	-10.1316
▁městské	-10.132
▁lidmi	-10.1321
▁naučit	-10.1325
▁stud	-10.1327
nech	-10.1331
nese	-10.1336
▁cesky	-10.1337
▁krátké	-10.1342
▁bílé	-10.1343
▁hd	-10.1348
fer	-10.1348
▁odhad	-10.1355
▁ge	-10.1356
lík	-10.1357
▁mírně	-10.1363
▁dveří	-10.1374
les	-10.1375
▁info	-10.1387
▁stejnou	-10.1388
▁jezdí	-10.1391
ač	-10.1392
▁dokázal	-10.1394
ář	-10.1399
ený	-10.1402
▁procesu	-10.1404
▁ši	-10.1408
▁nejspíš	-10.1416
▁charakter	-10.1419
ks	-10.1419
▁pal	-10.1423
cím	-10.1423
▁systémů	-10.1427
▁bratr	-10.1427
▁klid	-10.1429
▁měst	-10.1432
▁el	-10.1433
▁bůh	-10.1433
zení	-10.1436
hor	-10.1437
ft	-10.144
▁majetku	-10.1444
!!	-10.1444
▁jménem	-10.1448
▁látky	-10.1452
tem	-10.1454
svět	-10.146
van	-10.1461
ovce	-10.1467
▁používáme	-10.147
▁ligy	-10.1473
▁obsahu	-10.1477
▁studia	-10.1481
▁karel	-10.1484
▁míč	-10.1484
▁uživatelů	-10.1487
▁připomíná	-10.149
▁vodě	-10.1495
dla	-10.1496
▁negativní	-10.1499
▁smlouvu	-10.15
▁en	-10.1502
stat	-10.1503
▁vrátit	-10.1506
rad	-10.1511
slav	-10.1526
▁tip	-10.1526
jde	-10.1528
▁jakou	-10.1529
▁red	-10.1529
pla	-10.1532
▁prospěch	-10.1534
▁kojot	-10.1535
ist	-10.1546
▁odpovídající	-10.1553
▁dodat	-10.1557
▁rozměry	-10.1558
eš	-10.1562
▁související	-10.1563
▁svá	-10.1566
▁uprostřed	-10.157
▁med	-10.1578
nce	-10.1582
▁hudba	-10.1582
▁kilometrů	-10.1583
▁povolení	-10.1585
▁daně	-10.1591
▁zpátky	-10.1596
▁domov	-10.1598
▁posledním	-10.1601
ad	-10.1607
▁zajišťuje	-10.1611
▁hledá	-10.1615
ers	-10.1621
voz	-10.163
▁milionu	-10.1632
vé	-10.1635
ama	-10.1638
lan	-10.1638
▁informační	-10.1643
▁rozpočtu	-10.1645
áč	-10.1652
▁částečně	-10.1658
▁lan	-10.1659
▁zakázky	-10.1662
▁životního	-10.1663
▁modely	-10.1665
▁nu	-10.1676
▁bryan	-10.1676
▁port	-10.1684
▁dalo	-10.1695
▁val	-10.1696
que	-10.1697
▁fin	-10.1705
▁mnozí	-10.1706
▁rozhodli	-10.1714
▁válce	-10.1715
▁doslova	-10.1716
▁pla	-10.1721
▁přechod	-10.1722
zer	-10.1729
▁star	-10.1733
▁výsledkem	-10.1743
drž	-10.1743
▁přinést	-10.1743
▁nemusíte	-10.1744
▁výherních	-10.1749
ností	-10.1753
▁týdny	-10.1761
▁směru	-10.1764
▁americký	-10.1768
▁zábavné	-10.1769
▁dlouhodobě	-10.177
▁ryb	-10.1776
▁sedmi	-10.1783
klad	-10.1784
▁poskytují	-10.1787
▁jejího	-10.1795
▁strom	-10.1799
▁hus	-10.1799
ujete	-10.1802
▁číst	-10.1805
▁zážitek	-10.1805
▁ju	-10.1806
▁věnovat	-10.1807
▁malých	-10.1807
▁rozhraní	-10.1809
▁usb	-10.1814
▁úkol	-10.1816
▁zvířat	-10.1822
bá	-10.1822
▁lékař	-10.1828
▁tenhle	-10.1829
čet	-10.183
▁cítit	-10.1833
▁silné	-10.1835
▁obrázky	-10.1835
střel	-10.1839
▁ochrany	-10.1842
▁rodina	-10.1843
▁otevření	-10.1843
▁klidu	-10.1845
▁nejdůležitější	-10.1845
▁kabel	-10.1845
▁kost	-10.1852
▁účinky	-10.1855
her	-10.1856
vedl	-10.1865
iv	-10.1872
pp	-10.1874
▁sluneční	-10.1878
▁venku	-10.1879
▁elektronické	-10.1882
▁zvyšuje	-10.1888
▁obrázek	-10.1889
▁dis	-10.189
▁budeš	-10.1892
▁kontrolu	-10.1896
▁postavení	-10.1897
▁vytváří	-10.19
▁známý	-10.1901
▁kulturní	-10.1901
▁###%	-10.1901
▁kar	-10.1903
▁seznamu	-10.1905
▁vrací	-10.1906
▁věřím	-10.191
▁vzal	-10.1911
▁ukončení	-10.1913
▁psal	-10.1913
▁manažer	-10.1924
▁knihu	-10.1929
▁mysli	-10.1929
▁prohlásil	-10.1934
▁stáhnout	-10.1939
kových	-10.1941
▁regionu	-10.1953
▁čaj	-10.196
led	-10.196
▁pěkné	-10.196
▁kup	-10.1964
▁klíč	-10.1965
▁baví	-10.1967
▁jednak	-10.1968
▁prohlášení	-10.197
▁taneční	-10.1976
▁údajně	-10.1976
dů	-10.1979
▁psát	-10.1986
▁projekty	-10.1989
▁částky	-10.1992
▁očekávání	-10.1995
▁novo	-10.1999
▁nikoli	-10.2001
▁pil	-10.2002
▁bavit	-10.2002
▁potřebují	-10.2005
▁dojem	-10.2009
▁strojů	-10.2009
tom	-10.2013
▁nejčastěji	-10.2014
▁hub	-10.2017
▁názory	-10.2023
ovice	-10.2024
▁ohledem	-10.2025
▁ri	-10.2026
čil	-10.2031
▁proud	-10.2034
▁vývoje	-10.2038
▁displej	-10.2043
▁doprava	-10.2043
▁knih	-10.2047
▁pobytu	-10.2049
▁stará	-10.2051
instal	-10.2054
▁obehrát	-10.2056
▁úpravy	-10.2056
▁tel	-10.2057
▁student	-10.2059
▁filmy	-10.2064
pá	-10.2065
▁bezpečnosti	-10.2066
▁chvíle	-10.2066
▁šla	-10.2071
▁venkovní	-10.2071
▁objekt	-10.2072
▁objektu	-10.2075
▁okamžiku	-10.2081
▁děkujeme	-10.2088
▁nemáte	-10.2091
▁barva	-10.2091
▁takových	-10.2093
▁nikde	-10.2097
▁výrobků	-10.2097
stře	-10.2098
▁pokračování	-10.21
▁působení	-10.2109
ění	-10.2111
kop	-10.2114
▁jakým	-10.2117
▁postavy	-10.2123
níci	-10.2125
▁doporučení	-10.2126
čko	-10.2131
měř	-10.2131
ng	-10.2136
▁vidí	-10.2137
▁vzhled	-10.214
▁holky	-10.2141
▁půjčka	-10.2144
▁majitel	-10.2146
form	-10.2152
gr	-10.2156
▁králové	-10.2159
▁fan	-10.2167
▁uživatel	-10.2168
zen	-10.2169
▁desky	-10.2175
▁určen	-10.2176
ren	-10.218
▁čeho	-10.2183
▁hrat	-10.2188
▁král	-10.2191
▁programů	-10.2191
▁show	-10.2197
▁zajímavý	-10.2197
▁spin	-10.2199
▁recenze	-10.2206
▁duchovní	-10.2207
▁turnaj	-10.2209
▁čekat	-10.2209
▁vysoká	-10.2216
▁matka	-10.222
▁poškození	-10.222
▁koho	-10.2231
▁pravé	-10.2231
▁kříž	-10.2233
▁nízké	-10.2234
▁novém	-10.2235
▁dob	-10.2235
hi	-10.2243
▁klient	-10.2246
▁akorát	-10.2251
▁tipy	-10.2251
▁úrovně	-10.2252
▁hlavou	-10.2253
▁kvalita	-10.2253
▁úst	-10.2257
▁přednost	-10.2261
▁čt	-10.2266
▁evropských	-10.2266
▁krém	-10.2267
▁pořadí	-10.2269
▁týdnů	-10.227
▁konference	-10.2274
▁roh	-10.2274
▁vyžaduje	-10.2275
▁email	-10.2276
▁ačkoliv	-10.2279
lez	-10.228
▁jména	-10.2281
▁mých	-10.2283
▁des	-10.2286
▁zákazníků	-10.229
▁německu	-10.2296
▁začalo	-10.2297
▁con	-10.23
▁obr	-10.2301
▁nejhorší	-10.2306
▁rychlosti	-10.2306
del	-10.2308
▁mac	-10.2308
▁osmi	-10.2313
▁zlepšení	-10.2314
▁materiály	-10.2322
▁bal	-10.2323
▁stovky	-10.2324
▁vyjádření	-10.2325
krá	-10.2331
▁čímž	-10.2333
▁druhým	-10.234
▁datum	-10.2342
▁říkal	-10.2343
eno	-10.2349
▁hosté	-10.235
▁zranění	-10.2368
▁očekává	-10.237
ang	-10.2374
▁nejbližší	-10.2374
cího	-10.2379
▁fe	-10.2383
bil	-10.2385
set	-10.2386
▁víme	-10.2387
▁západní	-10.2389
▁používají	-10.2392
rk	-10.2392
▁pivo	-10.2393
rov	-10.2398
▁krátce	-10.2399
sen	-10.2399
cen	-10.24
▁bezpečné	-10.2401
▁oficiální	-10.2405
▁závodní	-10.2406
▁hol	-10.241
▁chlap	-10.2411
▁android	-10.2413
▁vyrábí	-10.2414
▁vyplývá	-10.2417
▁vzduch	-10.242
▁letiště	-10.242
▁plochy	-10.2425
▁díla	-10.2434
vala	-10.2436
▁sloup	-10.2436
▁doktor	-10.2437
běž	-10.2438
ič	-10.2439
im	-10.244
▁letošního	-10.2443
▁dílo	-10.2444
▁převážně	-10.2447
▁přenos	-10.2447
▁černý	-10.2448
▁tlačítko	-10.2448
nické	-10.2448
nku	-10.2451
▁pochází	-10.2453
▁počítači	-10.2454
▁přeci	-10.2455
▁zůstane	-10.2456
▁dopis	-10.2458
▁zajímá	-10.2458
▁cukr	-10.246
▁průměru	-10.246
▁nemoc	-10.2465
▁malou	-10.2466
▁výplaty	-10.2466
▁stol	-10.2471
▁resort	-10.2474
▁ro	-10.2474
sou	-10.2477
▁živé	-10.2482
▁pri	-10.2484
▁příjmů	-10.2492
▁trénink	-10.2492
ker	-10.2493
váže	-10.2495
▁spoj	-10.25
ria	-10.2503
▁níže	-10.2505
▁případné	-10.2508
est	-10.2511
rn	-10.2515
mb	-10.2515
▁zkusit	-10.2518
▁něho	-10.2518
▁organizací	-10.252
▁údolí	-10.2524
▁van	-10.2525
▁pas	-10.2526
▁fr	-10.2533
▁účel	-10.2536
▁náročné	-10.2536
▁součást	-10.2538
▁závodu	-10.2543
▁san	-10.2548
áře	-10.2548
▁pracovních	-10.2549
ance	-10.2557
ření	-10.2567
▁žádosti	-10.2569
▁radu	-10.2572
▁minutě	-10.2575
jezd	-10.2579
▁ostatně	-10.2583
▁správný	-10.2583
▁začátek	-10.2589
▁kůže	-10.2592
▁energii	-10.2618
▁zahájení	-10.2618
▁veřejnost	-10.262
▁adam	-10.2622
▁novinky	-10.2635
▁správy	-10.2639
▁pozemku	-10.2639
▁apple	-10.2643
čer	-10.2648
▁festivalu	-10.265
▁nejmenší	-10.2651
▁roman	-10.2655
cvič	-10.2656
▁tvaru	-10.2656
▁obcí	-10.2657
▁hlavního	-10.2659
▁prostory	-10.2659
▁umožňují	-10.2661
▁art	-10.2664
▁můžeš	-10.2667
kání	-10.2669
▁hudby	-10.2674
▁vést	-10.2679
elné	-10.268
▁black	-10.2684
▁dlouhá	-10.2684
▁james	-10.2685
▁efekt	-10.2687
▁zvlášť	-10.2695
▁komentáře	-10.2696
ži	-10.2701
▁jedinou	-10.2707
nos	-10.2712
▁závislosti	-10.2716
▁psa	-10.2722
▁pražské	-10.2724
▁hit	-10.2725
▁vysoký	-10.2727
ac	-10.2728
▁sex	-10.2734
▁doporučujeme	-10.2735
▁q	-10.2735
rek	-10.2736
▁chodit	-10.2739
▁pozadí	-10.2741
eček	-10.2741
▁praktické	-10.2744
▁zobrazení	-10.2746
věd	-10.2752
▁sprinklers	-10.276
▁čssd	-10.2761
▁důsledku	-10.2772
▁pokles	-10.2773
▁mobilu	-10.2778
▁perfektní	-10.2779
▁osvětlení	-10.2779
▁udělá	-10.2784
▁alkohol	-10.2791
▁řidič	-10.2794
ano	-10.2799
▁bolesti	-10.2805
▁myslel	-10.2806
▁flash	-10.2809
▁českém	-10.2811
▁účelem	-10.2813
▁sílu	-10.2815
▁ježíš	-10.2815
padne	-10.2815
▁bankovní	-10.2817
▁přírody	-10.2829
▁posil	-10.2829
chut	-10.2834
▁komu	-10.2843
▁desítky	-10.2846
▁růstu	-10.2846
▁návrat	-10.2848
sy	-10.2848
ovku	-10.2849
▁zápis	-10.2858
▁gr	-10.2859
▁znění	-10.2867
vis	-10.2869
▁případů	-10.2871
▁získali	-10.2874
▁fotografií	-10.2882
▁řeč	-10.2887
tan	-10.2887
▁kartu	-10.2894
▁ber	-10.2897
▁dodnes	-10.2898
▁dřevo	-10.29
▁policejní	-10.2901
▁softwaru	-10.2903
▁tra	-10.2903
▁mluvit	-10.2905
▁jejíž	-10.2905
▁gól	-10.2911
▁miliony	-10.2912
ému	-10.2914
vali	-10.2914
zní	-10.2916
▁způsoby	-10.2918
▁zůstat	-10.2919
ble	-10.2922
mír	-10.2923
▁zábavy	-10.2924
▁prodám	-10.2924
▁systémem	-10.2927
▁věnuje	-10.2927
ír	-10.2928
▁náhradní	-10.2928
▁týdne	-10.2929
▁rozhodnout	-10.293
ju	-10.2937
fo	-10.294
tor	-10.2943
▁disk	-10.2954
▁karet	-10.2956
▁banka	-10.2971
▁zelené	-10.2972
#####	-10.2973
▁znamení	-10.2973
▁televizní	-10.2988
kova	-10.2991
podob	-10.2995
▁soutěži	-10.3001
vání	-10.3002
▁přítel	-10.3003
▁vztahy	-10.3007
vál	-10.3007
av	-10.301
ickým	-10.3015
▁starost	-10.3016
▁vznik	-10.3016
▁poskytnout	-10.3016
▁nebe	-10.3028
▁ztráty	-10.3031
jm	-10.3036
▁souhlas	-10.3045
▁kultury	-10.3051
▁odpovědi	-10.3051
▁měsících	-10.3055
▁rusko	-10.3055
kládat	-10.3057
▁nemůžu	-10.3059
▁střel	-10.3061
▁les	-10.3064
▁zástupci	-10.3066
ation	-10.3067
kor	-10.3073
▁vládní	-10.3074
▁lásky	-10.3077
▁univerzity	-10.3095
hlí	-10.3096
pen	-10.3098
▁celkový	-10.3101
živ	-10.3101
▁užívání	-10.3107
▁uvedla	-10.3107
hne	-10.3112
▁sledování	-10.3115
▁krize	-10.3115
▁so	-10.3117
▁znalost	-10.3119
před	-10.3121
▁teploty	-10.3121
▁rod	-10.3121
▁dotace	-10.3124
▁argument	-10.3125
ární	-10.3125
▁tábor	-10.3132
▁nástroj	-10.3134
▁těší	-10.3136
▁lék	-10.3141
tř	-10.3142
▁zápasu	-10.3142
aný	-10.3143
lov	-10.3146
▁druhu	-10.3149
▁příslušenství	-10.315
▁kr	-10.3153
▁volba	-10.3154
važ	-10.3154
▁forma	-10.3156
▁komplexní	-10.3157
▁věk	-10.3158
▁jediná	-10.3164
▁hazardních	-10.3165
▁potřeb	-10.3168
jící	-10.317
▁představ	-10.3172
▁zjistil	-10.3173
▁výhod	-10.3173
uš	-10.3178
▁svaz	-10.3182
▁kryt	-10.3185
▁samé	-10.3186
▁bere	-10.3186
íček	-10.3188
the	-10.3188
▁liší	-10.3194
▁republika	-10.3195
▁vybaven	-10.3196
▁jízdy	-10.3197
▁výzkumu	-10.3199
▁jednat	-10.32
▁odpad	-10.32
▁postav	-10.3201
uz	-10.3201
sle	-10.3204
▁stál	-10.3204
ivé	-10.3205
▁fajn	-10.3207
hrad	-10.3208
▁odpor	-10.3208
kot	-10.3209
▁die	-10.321
▁soupeře	-10.3212
▁označení	-10.3213
▁službu	-10.3215
▁prodeji	-10.3216
▁ekonomické	-10.3217
▁hledáte	-10.3219
nová	-10.3228
▁smrt	-10.3232
nové	-10.3233
▁dokonale	-10.3236
▁dřeva	-10.3238
▁nemohou	-10.3245
▁vašem	-10.3247
tin	-10.3247
▁sazky	-10.3254
▁hrozí	-10.3256
▁#.#.	-10.3262
▁společného	-10.3262
▁zásob	-10.3264
▁každodenní	-10.3268
▁john	-10.3269
gar	-10.327
▁zad	-10.3271
▁relativně	-10.3272
▁zvolit	-10.3272
níků	-10.3273
ré	-10.3274
▁samsung	-10.3276
bez	-10.3276
▁objevil	-10.3277
bol	-10.3278
▁nádraží	-10.3279
ičku	-10.3281
▁jistý	-10.3284
▁určené	-10.3288
▁strašně	-10.3297
▁chystá	-10.3298
▁hi	-10.3302
▁vozidel	-10.3308
▁různými	-10.3311
▁sedí	-10.3316
▁divadla	-10.3319
▁kuchyně	-10.3322
ste	-10.3322
▁zítra	-10.3325
▁návod	-10.3326
▁mag	-10.3329
▁iii	-10.3337
▁získala	-10.3338
icí	-10.3338
▁jednoznačně	-10.3339
▁ústí	-10.3344
▁oběd	-10.3346
▁silný	-10.3355
▁dali	-10.3355
▁poklad	-10.3356
▁uni	-10.336
▁jakékoli	-10.336
▁průměr	-10.3362
▁oznámení	-10.3363
▁tro	-10.3364
▁úvodní	-10.3365
▁tajemství	-10.3366
▁karta	-10.3367
dou	-10.3368
▁úspěšně	-10.3368
ola	-10.3369
▁vypadat	-10.3371
▁podlahy	-10.3381
▁zatočení	-10.3381
itel	-10.3381
▁seriál	-10.3384
▁montáž	-10.3386
▁budoucí	-10.339
▁pravidel	-10.3393
▁myslíte	-10.3394
▁dají	-10.3395
▁akční	-10.34
▁zeman	-10.3415
▁každopádně	-10.3415
▁znalosti	-10.3418
▁dolní	-10.342
▁přístupu	-10.3421
tech	-10.3423
▁map	-10.3424
▁stránka	-10.3425
▁bodu	-10.3428
▁ruky	-10.3432
▁počítá	-10.3436
▁byť	-10.3436
gener	-10.3443
▁silnice	-10.3445
▁výraz	-10.3447
#,#	-10.3448
▁ostrov	-10.3449
▁volební	-10.3449
alo	-10.345
isté	-10.3451
▁barev	-10.3451
ající	-10.3453
▁##.##.	-10.3456
ávání	-10.3456
nie	-10.3459
▁daň	-10.3463
stal	-10.3463
▁vznikla	-10.3466
▁podobný	-10.3468
▁brát	-10.3475
ón	-10.3477
▁poradit	-10.3479
▁optimální	-10.3479
tro	-10.3484
▁lit	-10.3501
ecké	-10.3506
▁špatný	-10.3507
▁dopředu	-10.3507
▁záměr	-10.3507
▁aktuálně	-10.351
▁vozu	-10.3511
▁jinými	-10.3511
▁fungovat	-10.3511
rs	-10.3515
▁déle	-10.3521
dají	-10.3522
rie	-10.3524
▁nabídne	-10.3529
▁pravidelné	-10.353
▁divadelní	-10.353
▁prezentace	-10.3531
▁dub	-10.3532
▁stránku	-10.3532
sla	-10.3534
▁hodnot	-10.3537
▁konkurence	-10.3541
▁řez	-10.355
▁rozvoje	-10.3554
▁červené	-10.3556
▁zdravotnictví	-10.3558
▁hlavě	-10.3565
▁někomu	-10.3572
ingu	-10.3574
▁rám	-10.3574
▁věděl	-10.3578
▁věd	-10.358
▁zprávu	-10.3588
▁román	-10.3588
dra	-10.3592
▁stupně	-10.3593
ele	-10.3593
▁vnější	-10.3593
táhne	-10.3595
▁běžně	-10.3596
▁dostává	-10.3598
▁barevné	-10.3599
tal	-10.3616
▁podmínkách	-10.362
mysl	-10.3623
enci	-10.3625
▁role	-10.3632
řez	-10.3632
▁filtr	-10.3634
▁dělal	-10.3635
▁vznikl	-10.3636
▁žáci	-10.3641
▁posuzována	-10.3642
▁možný	-10.3646
▁včas	-10.3648
▁vsadit	-10.3651
▁soused	-10.3656
▁přišlo	-10.3662
km	-10.3663
▁investice	-10.3666
▁působil	-10.3667
▁vyp	-10.3667
lát	-10.3674
▁studenti	-10.3674
ple	-10.3674
▁komentář	-10.3675
▁nechtěl	-10.3675
▁hazard	-10.3677
▁div	-10.3682
▁souboru	-10.3689
▁přestup	-10.3694
▁televizi	-10.3694
▁občanů	-10.3698
šku	-10.37
▁vyberte	-10.37
▁vlastních	-10.3701
wi	-10.3702
stran	-10.3713
▁štít	-10.3713
▁modré	-10.3719
▁tablet	-10.3719
▁řekne	-10.3721
▁postoj	-10.3722
▁pí	-10.3722
▁láska	-10.3724
▁samu	-10.3734
▁válců	-10.3739
▁pohodě	-10.3742
▁míry	-10.3742
▁týkající	-10.3743
nete	-10.3743
▁atmosféru	-10.3746
▁bys	-10.3748
▁hranici	-10.3749
▁zaměstnance	-10.3751
▁změn	-10.3751
######	-10.3754
▁wa	-10.3754
▁čisté	-10.3759
▁největších	-10.376
pan	-10.3767
▁hudbu	-10.3767
▁bra	-10.377
▁ústav	-10.3781
nému	-10.3783
▁valcove	-10.3789
chy	-10.379
▁kurzu	-10.379
hrá	-10.3795
▁zdravím	-10.3798
▁volně	-10.3801
▁slib	-10.3804
▁dlouhý	-10.3807
▁látek	-10.3808
chu	-10.3812
▁třemi	-10.3813
▁pol	-10.3813
▁boha	-10.3819
▁rodičů	-10.382
lep	-10.3822
▁zaměstnanci	-10.3822
▁osud	-10.3824
▁zápase	-10.3825
fe	-10.3831
▁komerční	-10.3836
▁jídla	-10.3838
▁neexistuje	-10.3844
▁marie	-10.3845
▁květního	-10.385
▁vydal	-10.3852
▁nos	-10.3853
▁problému	-10.3853
fu	-10.3853
▁těhotenství	-10.3854
lar	-10.3854
▁každému	-10.3855
▁dojít	-10.386
▁rozhodla	-10.3861
nc	-10.3862
▁povrchu	-10.3867
▁pokračuje	-10.3868
▁parametry	-10.3869
▁týdnu	-10.3872
▁pečlivě	-10.3875
▁přišli	-10.3875
▁hlasování	-10.3879
▁zákaz	-10.3884
▁menu	-10.3889
▁rodinu	-10.3891
▁rychlý	-10.39
.....	-10.3903
▁boje	-10.3905
▁hmotnost	-10.3914
▁knize	-10.3921
gy	-10.3922
▁can	-10.3923
▁pilot	-10.3925
▁motoru	-10.3925
rychl	-10.3929
▁získá	-10.393
▁snažil	-10.3934
▁média	-10.3937
▁har	-10.3938
▁vlastnictví	-10.3947
ěn	-10.395
▁usnesení	-10.3954
mrz	-10.3956
▁účetní	-10.3961
▁značka	-10.3977
▁soupeř	-10.3979
▁vůz	-10.3979
▁kurzy	-10.398
▁držet	-10.3982
▁běh	-10.3984
▁uvedených	-10.3985
▁hlavních	-10.3985
tz	-10.3987
áš	-10.3988
▁přeji	-10.3989
▁jaroslav	-10.399
jdou	-10.3992
▁lodi	-10.3995
▁nikoho	-10.3997
▁otevřené	-10.3998
▁lip	-10.4002
▁služba	-10.4006
řit	-10.4013
han	-10.4017
▁příspěvku	-10.4022
▁sklo	-10.4023
▁jednoduchý	-10.4028
▁čemu	-10.4029
▁koní	-10.403
▁říkám	-10.403
▁set	-10.4032
▁financování	-10.4035
▁řídí	-10.4039
izaci	-10.4039
▁hodinách	-10.404
▁hráčům	-10.4043
gan	-10.4045
▁platby	-10.4046
▁výhradně	-10.4046
▁#.##	-10.4046
▁rekonstrukce	-10.4066
▁oblastí	-10.4067
dar	-10.4067
▁automatech	-10.4068
til	-10.4072
cu	-10.4074
▁chyby	-10.4081
▁osobních	-10.4083
▁sla	-10.4085
▁čs	-10.4088
fl	-10.4088
raz	-10.4095
▁respekt	-10.4098
▁důvodem	-10.4098
▁vol	-10.4101
▁víkendu	-10.4113
lon	-10.4113
enou	-10.4116
▁nevadí	-10.412
▁měnit	-10.4121
▁měsíční	-10.4121
tt	-10.4121
jako	-10.4122
▁ul	-10.4123
▁zajistí	-10.4126
▁bohatství	-10.4126
▁výročí	-10.4126
▁zahradní	-10.4131
un	-10.4134
▁kdybych	-10.4137
iva	-10.4137
bus	-10.414
díl	-10.4142
vu	-10.415
▁slovy	-10.415
▁provádí	-10.4152
ostí	-10.4153
▁dosavadní	-10.4156
▁měsíci	-10.4158
▁vyhledávání	-10.416
asi	-10.4162
▁těmi	-10.4162
tů	-10.4163
end	-10.4164
con	-10.4165
sc	-10.4166
▁potřebovat	-10.4166
▁zrušení	-10.4167
▁rozhovor	-10.4167
▁win	-10.4168
▁areál	-10.4171
▁celo	-10.4171
▁porovnání	-10.4177
▁výboru	-10.4177
▁milan	-10.4177
▁ad	-10.4178
▁formát	-10.4181
▁jarní	-10.4185
tur	-10.4185
uf	-10.4186
▁momentálně	-10.4188
▁potenciál	-10.4188
▁budoucnosti	-10.4189
▁průmysl	-10.4189
log	-10.4196
cht	-10.4197
psal	-10.42
▁kas	-10.4201
▁úvěr	-10.4202
tah	-10.4205
▁stavba	-10.421
▁předpisů	-10.4211
▁školení	-10.4213
▁vědomí	-10.4214
▁výrobní	-10.4215
▁přístroje	-10.4217
▁myšlení	-10.4218
▁vstupní	-10.4218
ivý	-10.4222
tl	-10.4222
▁mega	-10.4223
▁odkud	-10.4226
▁boty	-10.4227
▁silně	-10.4228
nut	-10.423
▁soudní	-10.4231
we	-10.4232
▁atraktivní	-10.4233
měl	-10.4236
▁blog	-10.4239
šky	-10.4245
▁rozlišení	-10.4249
▁seriálu	-10.426
▁přijetí	-10.4264
▁krásná	-10.4265
▁moment	-10.4266
klop	-10.4268
▁kandidát	-10.4275
▁zákonem	-10.4276
▁velkého	-10.428
▁poblíž	-10.428
▁hazardu	-10.4288
▁užívat	-10.4288
▁chyba	-10.4288
▁rychlejší	-10.4292
▁vozů	-10.4295
▁najde	-10.43
▁loď	-10.4304
▁duch	-10.4305
▁učitel	-10.4305
▁lev	-10.4307
▁narodil	-10.4309
▁provede	-10.431
▁vlastního	-10.4312
▁stahování	-10.4315
boj	-10.4316
▁čistě	-10.4318
▁soukromé	-10.4322
▁syna	-10.4322
▁pravděpodobnost	-10.4323
▁pevné	-10.4325
▁pohybuje	-10.4326
▁nějakého	-10.4335
▁odměny	-10.4337
▁##.###	-10.4338
zdrav	-10.4339
ard	-10.4342
▁host	-10.4342
▁uživatelé	-10.4345
▁západ	-10.4345
▁vším	-10.4345
▁tahle	-10.4349
▁aktivit	-10.435
▁popisuje	-10.4354
▁lékaři	-10.4355
▁opti	-10.4357
▁účasti	-10.4357
▁št	-10.4358
▁výrobě	-10.4358
▁historické	-10.436
▁hosty	-10.436
▁koně	-10.4366
▁vína	-10.4369
▁duše	-10.4372
▁slyšet	-10.4373
▁písm	-10.4375
▁fyzické	-10.4377
▁ztratil	-10.4385
uk	-10.4387
byl	-10.4388
▁opak	-10.4389
▁žáků	-10.439
▁hal	-10.4391
áž	-10.4392
▁považuje	-10.4392
▁informaci	-10.4394
ovský	-10.4395
lice	-10.4395
▁krve	-10.4396
▁dávat	-10.4398
ovské	-10.44
▁bonusová	-10.4401
▁výjimkou	-10.4402
▁zaplatit	-10.4403
kg	-10.4406
▁eva	-10.4424
▁národního	-10.4426
oví	-10.4431
▁bur	-10.4433
▁signál	-10.4436
▁zastavit	-10.4436
ir	-10.4437
▁povinnosti	-10.4441
▁těle	-10.4442
▁dopad	-10.4444
▁komunikaci	-10.4453
▁zvon	-10.4454
▁diskuze	-10.4454
▁jdou	-10.4455
▁brna	-10.4456
▁tehdejší	-10.4456
▁hory	-10.4462
▁los	-10.4462
▁efektivní	-10.4464
▁provozní	-10.4467
▁takovém	-10.4469
▁facebook	-10.4474
▁gar	-10.4475
▁upwards	-10.4477
▁nejstarší	-10.4477
▁úprava	-10.4478
▁skupině	-10.4478
▁gu	-10.4479
▁značně	-10.4482
▁záznam	-10.4483
▁formy	-10.4483
váž	-10.4485
ča	-10.4487
▁roste	-10.4488
▁plná	-10.4489
▁jasný	-10.449
▁uvidíme	-10.449
▁úžasné	-10.449
▁motiv	-10.4491
▁znát	-10.4492
▁operace	-10.4492
▁vysoko	-10.4493
rát	-10.4496
din	-10.4502
zo	-10.4503
▁platební	-10.4504
▁největším	-10.4509
gb	-10.4511
▁rychleji	-10.4511
▁mladých	-10.4512
▁power	-10.4513
▁jakoby	-10.452
▁předmět	-10.452
▁kamarád	-10.4532
▁filip	-10.4535
lení	-10.4536
▁recept	-10.4539
▁německé	-10.4539
▁ram	-10.454
nictví	-10.4542
▁fondu	-10.4543
tic	-10.4544
▁svojí	-10.4548
▁koupil	-10.4549
▁sbor	-10.4551
jedná	-10.4552
moc	-10.4553
▁obal	-10.4553
▁myšlenky	-10.4558
▁vrátí	-10.4561
▁podniku	-10.4563
eč	-10.4564
▁zabezpečení	-10.4566
▁skle	-10.4569
▁správní	-10.457
▁tvrzení	-10.457
iky	-10.4575
▁lou	-10.4577
▁metod	-10.4582
▁ter	-10.4582
rd	-10.4584
šly	-10.4587
▁čištění	-10.4587
bar	-10.4591
▁samotný	-10.4593
čná	-10.46
▁kul	-10.46
rý	-10.4601
stud	-10.4606
▁přihlásit	-10.4607
ml	-10.4609
▁využívání	-10.461
▁dra	-10.4611
vid	-10.4611
▁podstatně	-10.4611
▁čin	-10.4615
▁místem	-10.4618
lka	-10.4619
▁parlamentu	-10.4621
▁panel	-10.4624
▁ačkoli	-10.4625
▁řecko	-10.4628
▁kub	-10.4629
way	-10.4633
▁vydrží	-10.4634
leté	-10.4635
▁neznamená	-10.4636
▁vzdálenost	-10.4636
▁získáte	-10.4636
▁dvd	-10.464
▁hezký	-10.4642
▁lékaře	-10.4645
▁pracoval	-10.4646
▁určitou	-10.4646
ovaným	-10.4647
▁globální	-10.4649
▁otázkou	-10.465
▁místnost	-10.4651
razil	-10.4652
▁čistý	-10.4655
šli	-10.4656
star	-10.4657
▁diskuse	-10.4661
▁profil	-10.4661
▁obavy	-10.4661
▁účastníků	-10.4663
▁británii	-10.4667
▁kontrola	-10.4677
ených	-10.468
▁chybu	-10.4681
▁bud	-10.4681
▁hledají	-10.4683
něte	-10.4687
▁povede	-10.4691
▁ruské	-10.4699
▁vedením	-10.47
▁tendenci	-10.4705
▁připravit	-10.4708
▁stan	-10.4709
▁slavnostní	-10.4711
▁fotograf	-10.4713
▁hezky	-10.4716
▁pochopitelně	-10.4717
▁dokumentace	-10.4718
▁neznám	-10.4719
▁zimě	-10.4723
cp	-10.4726
▁výbor	-10.4734
▁kapitán	-10.4734
pouští	-10.4737
áky	-10.4738
▁členem	-10.4738
▁nemoci	-10.4738
▁zbraně	-10.4741
išti	-10.4741
▁záležitost	-10.4743
sel	-10.4744
▁útočník	-10.4746
▁kontroly	-10.4747
▁produkce	-10.4747
▁sal	-10.4747
▁čekají	-10.4751
▁vyz	-10.4752
▁útoku	-10.4755
vel	-10.4756
jel	-10.4758
uj	-10.4759
isty	-10.4763
▁########	-10.4764
▁mistr	-10.4767
res	-10.477
▁ostatními	-10.4773
mann	-10.4774
▁chceš	-10.4778
▁nástup	-10.4779
▁někam	-10.4779
▁školu	-10.478
▁rezerv	-10.4782
▁nedaleko	-10.4782
zem	-10.4784
▁mnohdy	-10.4784
▁režisér	-10.4788
▁minulého	-10.479
▁studentů	-10.4791
▁přede	-10.4791
▁postavit	-10.4792
▁díly	-10.4798
▁jazyka	-10.4799
itě	-10.4799
▁cho	-10.4801
▁přátel	-10.4803
brat	-10.4805
▁robot	-10.4806
▁smlouva	-10.4808
▁cokoliv	-10.4812
▁průvodce	-10.4813
▁válcích	-10.4814
▁gum	-10.4816
▁překvapení	-10.4816
▁rekord	-10.482
▁kancelář	-10.4821
▁zbytečně	-10.4822
▁vyjde	-10.4824
▁kanceláře	-10.4825
▁představí	-10.4826
▁zadavatele	-10.4831
▁masivní	-10.4836
▁trati	-10.4838
▁podél	-10.4839
▁státního	-10.484
▁nýbrž	-10.4842
▁instalace	-10.4842
▁domácnosti	-10.4842
▁počáteční	-10.4844
dále	-10.4845
▁neroz	-10.4849
myšlen	-10.485
nějších	-10.4853
▁správce	-10.4854
▁oslav	-10.4856
▁výsledku	-10.4859
▁finančních	-10.4863
▁prvků	-10.4865
vět	-10.4866
hel	-10.4867
▁úklid	-10.4869
▁teplo	-10.487
ev	-10.4873
▁rozhovoru	-10.4874
▁příště	-10.4877
kli	-10.4881
▁volbách	-10.4884
▁přínos	-10.4886
▁filmů	-10.4887
▁zázemí	-10.4894
▁jednotka	-10.4895
▁bot	-10.4896
▁realizace	-10.4902
▁nalézt	-10.4904
▁minuty	-10.4909
▁očekávat	-10.491
▁princip	-10.4913
▁boji	-10.4918
por	-10.492
▁nebudete	-10.492
▁zánět	-10.4922
▁majetek	-10.4922
▁open	-10.4923
▁klasický	-10.4927
▁přístroj	-10.4928
▁silnici	-10.4929
▁sobotního	-10.4929
cky	-10.493
▁absolutní	-10.4936
▁uvedení	-10.4938
▁modelů	-10.4938
▁regionální	-10.4938
▁potíže	-10.4941
▁zbraní	-10.4943
▁věří	-10.4943
▁nevíte	-10.4946
▁elegantní	-10.4947
▁poznat	-10.495
▁čerstvé	-10.4953
▁standard	-10.4953
▁přípravy	-10.4956
▁častěji	-10.4961
▁mateřské	-10.4961
pek	-10.4963
▁zlín	-10.4964
▁interiér	-10.4965
▁plynu	-10.4966
▁příjmu	-10.4966
▁středo	-10.4968
▁up	-10.4969
▁položky	-10.4971
jmen	-10.4972
▁čekal	-10.4975
pra	-10.4976
▁začínají	-10.4976
▁bonusu	-10.4983
▁bohaté	-10.4987
▁psaní	-10.4989
▁pohodlí	-10.4991
▁kdykoli	-10.4993
▁výhled	-10.4995
▁jede	-10.4998
kne	-10.5001
▁říkají	-10.5001
▁dan	-10.5008
▁zdi	-10.5009
▁otevřít	-10.501
▁změnil	-10.5016
▁zpráv	-10.5016
▁uskuteční	-10.5018
▁témat	-10.5019
itou	-10.5019
▁františek	-10.502
▁blok	-10.502
▁kluci	-10.502
▁jack	-10.5027
stá	-10.5029
▁opravy	-10.503
▁spa	-10.5032
▁společenství	-10.5032
hlédl	-10.5034
▁jediným	-10.5035
▁výška	-10.5037
▁rodině	-10.504
▁ostatním	-10.5041
▁cr	-10.5049
▁deska	-10.5051
▁dotazy	-10.5052
▁lehké	-10.5053
čte	-10.5054
▁divadlo	-10.5054
▁zkoušky	-10.5056
▁poslal	-10.5057
▁und	-10.5057
▁většiny	-10.5059
▁pláž	-10.5062
▁dostupnost	-10.5062
▁bodový	-10.5063
▁úsilí	-10.5063
age	-10.5063
▁trať	-10.5066
▁třetím	-10.5069
▁nesmysl	-10.507
▁oznámil	-10.5071
▁zlatý	-10.5074
cení	-10.5075
▁příprava	-10.5075
▁ochrana	-10.5078
mí	-10.5078
▁způsobil	-10.5079
▁čechách	-10.508
▁jezdit	-10.5084
▁dívky	-10.5087
▁účely	-10.5088
▁sítí	-10.5088
▁pedagog	-10.5089
▁devět	-10.5091
▁ukázat	-10.5099
▁vzdálenosti	-10.5099
ig	-10.5101
▁navštívit	-10.5102
▁obecné	-10.5106
cházel	-10.5109
▁domova	-10.5113
▁zámku	-10.5118
▁mimochodem	-10.5119
škol	-10.5122
▁nechápu	-10.5125
▁obrany	-10.5125
▁dobou	-10.5125
rot	-10.5127
▁snažit	-10.513
▁net	-10.5132
lová	-10.5138
▁originál	-10.5141
▁pobřeží	-10.5141
ez	-10.5143
▁plast	-10.5145
▁oblastech	-10.5145
▁firmu	-10.5145
▁zpravidla	-10.5149
▁zámek	-10.515
▁násilí	-10.5151
▁přinese	-10.5153
▁ministra	-10.5153
▁zobrazit	-10.5161
▁vytvořil	-10.5161
▁radši	-10.5168
▁jaře	-10.5171
▁formulář	-10.5173
▁budoucnost	-10.5173
▁hráli	-10.5176
▁air	-10.5182
▁závislost	-10.5182
tní	-10.5183
▁církve	-10.5186
▁lak	-10.5187
▁odbor	-10.5188
▁kvalitě	-10.5188
▁klik	-10.5193
▁příjemný	-10.5195
▁vysvětluje	-10.5197
▁box	-10.5202
▁obor	-10.5202
▁účastníci	-10.5202
▁pracovníků	-10.5207
▁stolu	-10.5207
loží	-10.5208
šlo	-10.5214
▁hovoří	-10.5215
div	-10.5217
▁škod	-10.5218
▁tý	-10.5219
▁velko	-10.5219
▁můžou	-10.5221
▁odstranění	-10.5221
▁cestování	-10.5221
lig	-10.5223
▁ph	-10.5224
▁černá	-10.5225
▁činností	-10.5227
▁bob	-10.5229
▁dobrodružství	-10.5229
rost	-10.523
▁vydat	-10.523
▁učení	-10.5231
▁domy	-10.5232
▁naposledy	-10.5236
▁dia	-10.5239
kládá	-10.5243
bezpeč	-10.5245
nat	-10.5247
▁těmito	-10.5249
lf	-10.525
▁pop	-10.5253
▁cha	-10.5254
▁microsoft	-10.5257
▁generální	-10.5266
▁elektrické	-10.5266
▁evropského	-10.5269
▁autobus	-10.5269
▁zločin	-10.5269
▁vzrušení	-10.5271
▁obvod	-10.5273
▁normálně	-10.5274
▁pojist	-10.5279
▁gril	-10.5279
▁silnější	-10.528
leh	-10.5281
▁poz	-10.5282
▁narození	-10.5284
▁budov	-10.5285
▁podaří	-10.5285
▁pohár	-10.5285
▁bojovat	-10.5296
▁výživy	-10.5298
▁jakub	-10.5299
bude	-10.5302
▁jím	-10.5302
▁zajímavých	-10.5302
▁skupinu	-10.5304
▁nápoje	-10.5305
níky	-10.5305
kol	-10.5307
dět	-10.5309
▁liberec	-10.5313
▁studium	-10.5315
ling	-10.5321
▁ben	-10.5324
▁vlasů	-10.5324
▁evropská	-10.5325
lid	-10.5326
▁černo	-10.5328
▁pracují	-10.533
rin	-10.5333
▁hlava	-10.5334
hání	-10.5334
▁vysílání	-10.5339
voj	-10.534
▁sezóny	-10.5341
▁zvyk	-10.5341
mil	-10.5343
▁vteřin	-10.5344
▁staveb	-10.5345
ag	-10.5346
▁šu	-10.5353
▁pacientů	-10.5356
▁mém	-10.5356
▁ver	-10.5357
▁sub	-10.5359
▁sněhu	-10.5366
▁jiní	-10.5366
▁levné	-10.5366
▁fu	-10.5367
▁dohody	-10.5369
▁bohu	-10.5373
sty	-10.5373
lej	-10.5375
centr	-10.5375
pak	-10.5377
▁zdeněk	-10.5378
▁tyhle	-10.5379
▁drobné	-10.5379
bran	-10.5381
▁království	-10.5383
▁tvář	-10.5384
▁kontrol	-10.5387
▁poloviny	-10.5392
▁tuhle	-10.5392
▁levnější	-10.5394
▁mon	-10.5395
zy	-10.5396
▁uz	-10.5396
▁událost	-10.5397
▁závody	-10.5397
▁přečíst	-10.5406
▁věřit	-10.5407
ns	-10.5407
▁přesné	-10.5407
▁zahraničních	-10.541
▁počítat	-10.541
berg	-10.5411
▁monitor	-10.5411
vrh	-10.5411
▁drog	-10.5412
▁těším	-10.5412
vit	-10.5415
eni	-10.5416
▁martina	-10.5417
▁hotovosti	-10.5418
▁národ	-10.5422
▁muzeum	-10.5426
ls	-10.5426
▁pohodlné	-10.5427
▁výstava	-10.5427
▁hodnotě	-10.5434
▁fázi	-10.544
▁real	-10.5443
▁ř	-10.5444
čce	-10.5445
▁ukázal	-10.5447
▁talent	-10.5451
▁nařízení	-10.5451
▁jistotu	-10.5452
▁typů	-10.5453
▁zůstal	-10.5453
▁cestovní	-10.5454
▁malého	-10.546
▁jednotek	-10.5463
▁dětský	-10.5463
▁paměť	-10.5464
knout	-10.5465
▁patice	-10.5465
▁nemáme	-10.5471
▁margo	-10.5476
and	-10.548
▁sun	-10.5482
istů	-10.5483
▁hoř	-10.5483
▁procento	-10.5489
▁dopravu	-10.549
áku	-10.5492
kdo	-10.5494
▁cizí	-10.5494
▁gen	-10.5495
▁zápasy	-10.5496
port	-10.5496
▁připraven	-10.5499
▁čtvrt	-10.5499
▁operační	-10.5501
jte	-10.5502
▁projev	-10.5504
▁vzniká	-10.5508
▁jednoduchá	-10.5509
▁síti	-10.551
▁zaměstnavatel	-10.5512
dn	-10.5513
▁dám	-10.5513
▁zvuky	-10.5518
▁výhodu	-10.5519
▁následujících	-10.5522
▁širší	-10.5523
▁nepod	-10.5524
iček	-10.5525
▁alternativní	-10.5527
▁výživu	-10.553
▁kroky	-10.5532
rád	-10.5533
▁samostatné	-10.5536
▁přípravu	-10.5537
mon	-10.5543
▁líp	-10.5548
▁profesor	-10.5552
▁automatické	-10.5556
▁určena	-10.5556
▁žil	-10.5557
▁školství	-10.556
▁pleť	-10.5562
▁zajímalo	-10.5568
▁otce	-10.5574
▁očí	-10.5575
▁příspěvky	-10.5576
▁porušení	-10.5582
▁sexuální	-10.5584
▁letošním	-10.5585
▁tepla	-10.5586
▁gabriela	-10.559
▁výhry	-10.5592
▁jest	-10.5592
▁módní	-10.5594
▁bran	-10.5595
dol	-10.5595
▁budova	-10.5597
▁doporučuje	-10.5599
▁koná	-10.5601
▁mladý	-10.5602
▁maz	-10.5604
▁výrobci	-10.5605
▁fanoušci	-10.5607
▁kra	-10.5609
buz	-10.5609
iku	-10.5609
▁řeky	-10.5611
▁zájemce	-10.5611
▁miroslav	-10.5612
▁způsobu	-10.5613
▁polovinu	-10.5614
▁der	-10.5615
nk	-10.5621
dit	-10.5624
▁trend	-10.5625
▁takovým	-10.5626
▁blb	-10.5626
tk	-10.5628
▁zdaleka	-10.5629
▁studenty	-10.5631
▁sekund	-10.5635
▁nemovitosti	-10.5635
▁okraj	-10.5635
▁pokoji	-10.5636
▁reklamní	-10.5637
▁chrám	-10.5638
ela	-10.5639
▁zábava	-10.5642
▁přidal	-10.5642
lev	-10.5642
▁zadání	-10.5643
▁komfort	-10.5643
▁dostanou	-10.5644
▁chrání	-10.5645
▁státech	-10.5648
▁barvu	-10.5648
▁ukázek	-10.5649
▁přinesl	-10.5656
▁poměru	-10.5659
▁bas	-10.5663
měst	-10.5663
▁jmen	-10.5664
cel	-10.5665
▁ros	-10.5665
▁dole	-10.5668
▁krátký	-10.5668
▁gel	-10.5669
více	-10.5671
▁vůně	-10.5671
▁připojit	-10.5676
▁místních	-10.5677
▁plav	-10.5678
▁firmě	-10.5679
▁třídě	-10.5685
▁cítí	-10.5686
▁texty	-10.569
▁hel	-10.5692
▁trump	-10.5693
▁přírodě	-10.5694
sto	-10.5697
▁proměn	-10.5697
▁oleje	-10.5699
jede	-10.5699
any	-10.5701
▁sol	-10.5701
▁vozy	-10.5702
▁index	-10.5707
▁et	-10.5708
▁zní	-10.5709
lat	-10.5711
▁ham	-10.5711
▁nějakým	-10.5718
áz	-10.5725
směr	-10.5727
fik	-10.5727
▁natolik	-10.573
▁dech	-10.5732
▁dovednosti	-10.5735
plá	-10.5736
▁týmy	-10.5738
▁mimořádně	-10.5747
▁dospělé	-10.5748
▁celková	-10.5752
hrál	-10.5752
▁uzavření	-10.5754
▁rostoucí	-10.5756
▁jiném	-10.5757
▁agentury	-10.5757
▁nedostatek	-10.5757
pou	-10.5758
ian	-10.5764
▁plány	-10.5765
▁ivan	-10.5767
býval	-10.5767
dom	-10.5773
▁číslovkách	-10.5774
▁potvrdil	-10.5777
▁fotoaparát	-10.5778
▁šli	-10.5778
▁manželství	-10.5779
▁zasedání	-10.578
▁nechte	-10.5781
▁junior	-10.5783
▁tradičně	-10.5785
kům	-10.5788
▁soutěží	-10.5789
don	-10.5791
▁kat	-10.5792
▁mým	-10.5792
▁sázka	-10.5793
▁klad	-10.5795
▁plnou	-10.5796
▁průběh	-10.5797
▁ústavu	-10.5799
▁británie	-10.58
▁masa	-10.5802
▁škody	-10.5802
▁vidíte	-10.5806
padla	-10.5808
skými	-10.5809
▁rozum	-10.5813
▁poskytování	-10.5813
▁obsahují	-10.5815
▁ip	-10.5816
▁hospodářské	-10.5818
▁chlad	-10.5819
▁známo	-10.582
▁rozhodování	-10.5821
▁přihlášení	-10.5822
pas	-10.5822
▁článků	-10.5823
▁rozměr	-10.5824
▁snížit	-10.5828
▁teplota	-10.583
▁skončila	-10.5833
▁víno	-10.5837
▁barvě	-10.5839
▁návštěvu	-10.584
▁ondřej	-10.5842
shop	-10.5843
▁zahradě	-10.5844
▁agentura	-10.5846
▁zbrusu	-10.5846
▁médií	-10.5848
▁lednu	-10.5855
▁zdejší	-10.5858
▁objektiv	-10.5859
▁deník	-10.5861
▁skrze	-10.5865
▁skvělá	-10.5868
▁brzd	-10.587
▁univerzální	-10.587
▁firemní	-10.5874
pust	-10.5875
▁vojenské	-10.5876
řil	-10.5877
▁myslet	-10.5877
▁konferenci	-10.5884
▁odborníků	-10.5886
▁linky	-10.5889
▁tah	-10.5889
▁rizika	-10.589
lezl	-10.5894
▁tito	-10.5896
ben	-10.5898
▁archiv	-10.59
ává	-10.5903
vka	-10.5905
▁kůži	-10.5907
koliv	-10.5908
▁děj	-10.591
▁stranou	-10.591
kul	-10.5913
▁tréninku	-10.5914
▁licence	-10.5914
nový	-10.5915
fon	-10.5918
▁vysvětlení	-10.592
lil	-10.5921
▁vytváření	-10.5921
▁poplatky	-10.5921
produ	-10.5922
▁neumí	-10.5923
▁rus	-10.5924
▁červen	-10.5924
ep	-10.593
▁motivaci	-10.5932
▁odvětví	-10.5933
iz	-10.5933
▁sérii	-10.5934
▁tvůj	-10.5936
▁ultra	-10.5936
šla	-10.5936
▁autem	-10.5937
▁spisovatel	-10.5938
▁stravování	-10.5939
gi	-10.5939
▁labem	-10.5943
▁automobil	-10.5944
▁výborný	-10.5944
▁reagovat	-10.5946
letí	-10.5949
▁skončí	-10.5949
▁francie	-10.5949
▁hrozně	-10.5952
▁album	-10.5955
▁jednalo	-10.5957
▁vstupu	-10.5958
▁stavbu	-10.596
eny	-10.5961
▁zákony	-10.5962
▁založení	-10.5965
▁našim	-10.5965
vař	-10.5966
▁chápu	-10.5966
▁vánoce	-10.5969
▁neob	-10.5969
▁soubory	-10.597
▁posun	-10.597
ret	-10.5973
▁nasazení	-10.5973
dob	-10.5974
▁krist	-10.5974
▁dílů	-10.5975
▁divoké	-10.5975
▁jedinečné	-10.5975
▁nárůst	-10.5977
▁nemohla	-10.5978
tické	-10.5978
▁far	-10.5979
tky	-10.5985
▁výstavy	-10.5986
dně	-10.5987
▁souvisí	-10.5988
▁realizaci	-10.599
##:##	-10.5991
▁levé	-10.5992
▁podepsal	-10.5992
▁síla	-10.5993
▁skládá	-10.5994
▁německý	-10.5995
ujících	-10.5996
▁vybírat	-10.5997
▁občan	-10.6003
▁speciálně	-10.6005
ator	-10.6007
ovaní	-10.601
▁daniel	-10.601
▁rozhodne	-10.6011
▁změní	-10.6012
▁naviják	-10.6014
?..	-10.6017
▁pouhých	-10.6017
▁party	-10.602
▁průzkum	-10.6023
▁plocha	-10.6026
▁učí	-10.6028
▁širokou	-10.6029
▁intel	-10.603
ňování	-10.6032
▁dni	-10.6033
držel	-10.6035
▁stráž	-10.6035
▁vyjádřil	-10.6035
▁registraci	-10.6037
▁odborníci	-10.6039
▁ústavní	-10.6042
▁maj	-10.6043
suv	-10.6044
kyně	-10.6046
▁vtip	-10.6046
nách	-10.6047
▁cel	-10.6047
fér	-10.6048
▁životnost	-10.6048
▁skal	-10.6048
▁mince	-10.605
▁skóre	-10.6052
▁starých	-10.6054
▁léky	-10.6055
▁potvrzení	-10.6059
skem	-10.6059
▁připadá	-10.6061
▁we	-10.6065
▁opustil	-10.6066
▁okamžik	-10.6072
kres	-10.6073
pět	-10.6079
▁svobody	-10.6079
▁tříd	-10.6085
olog	-10.6085
▁následné	-10.6088
▁návštěvníci	-10.6088
▁mark	-10.6091
pri	-10.6092
▁registrace	-10.6093
??	-10.6094
▁příslušné	-10.6095
▁kout	-10.6095
▁pavla	-10.6098
▁yorku	-10.6101
▁voleb	-10.6103
ole	-10.6103
kus	-10.6106
▁komp	-10.6109
▁zbytečné	-10.6111
metr	-10.6113
▁vidění	-10.6113
▁blesk	-10.6113
vlád	-10.6114
▁lidských	-10.6118
▁učit	-10.6126
▁zip	-10.6126
▁dvaceti	-10.6141
▁sběr	-10.6143
▁plot	-10.6143
▁listy	-10.6145
▁dávají	-10.6145
jsem	-10.6145
ňují	-10.6147
ide	-10.6152
▁založena	-10.6154
▁mladá	-10.6156
jedno	-10.6157
▁parkování	-10.6164
▁jedinečný	-10.6166
▁pochopit	-10.6168
▁ženu	-10.6168
▁četl	-10.6169
▁podzimní	-10.6169
▁souhlasím	-10.617
▁požadované	-10.6171
▁mládež	-10.6172
▁york	-10.6178
▁nádherné	-10.6179
▁termínu	-10.618
▁zobrazí	-10.618
▁vzdělávací	-10.6183
kom	-10.6183
▁nákupu	-10.6185
▁začaly	-10.6187
▁pochyb	-10.6188
▁široký	-10.6189
▁značné	-10.619
▁postupu	-10.6192
čen	-10.6193
▁domácích	-10.6194
▁daří	-10.6194
▁grafické	-10.6196
▁dcera	-10.6198
▁pokies	-10.6198
rz	-10.6202
http	-10.6207
▁důvody	-10.6208
▁blíží	-10.6211
▁amerických	-10.6218
▁mladí	-10.6218
sloven	-10.6219
▁podat	-10.622
▁daní	-10.6223
▁začátkem	-10.6223
▁zkušební	-10.6223
▁oddíl	-10.6223
▁lep	-10.6225
▁kusů	-10.6226
▁zásad	-10.6229
▁stabilní	-10.6231
▁podvod	-10.6231
▁branky	-10.6232
▁zajímavá	-10.6232
▁zdravé	-10.6233
▁czech	-10.6235
▁úspěchu	-10.6236
▁dosažení	-10.6239
▁čísel	-10.6239
▁pevně	-10.6242
▁objednávky	-10.6244
▁th	-10.6244
▁událostí	-10.6246
▁sloužit	-10.6246
▁překlad	-10.625
▁okruh	-10.6251
▁zákazníka	-10.6254
▁tele	-10.6255
▁lov	-10.6256
▁nezbytné	-10.6257
▁bydlí	-10.626
chem	-10.6261
▁nemovitostí	-10.6265
▁obsahem	-10.6267
▁volného	-10.6267
▁radio	-10.6268
▁požadavků	-10.6268
cem	-10.627
▁zavedení	-10.6271
▁žijí	-10.6273
▁objemu	-10.6273
▁protest	-10.6274
hří	-10.6277
který	-10.6278
▁trpí	-10.628
▁testování	-10.6282
▁ed	-10.6282
▁poradenství	-10.6283
▁robert	-10.6283
onu	-10.6284
prac	-10.6286
izovat	-10.6288
▁útok	-10.6292
▁důležitá	-10.6292
▁nutnosti	-10.6294
▁tlačítka	-10.6294
▁varianta	-10.6295
▁externí	-10.6296
ium	-10.6298
▁samostatně	-10.6304
▁hezké	-10.6307
▁plánuje	-10.6308
▁podporovat	-10.6308
▁asistent	-10.6309
▁narazil	-10.631
lie	-10.6311
▁hřišti	-10.6313
▁formátu	-10.6313
▁polí	-10.6321
▁volných	-10.6322
▁sjezd	-10.6324
ologie	-10.6324
rp	-10.6327
▁experiment	-10.6328
▁stanov	-10.633
▁vězení	-10.6331
▁vyplatí	-10.6333
bud	-10.6334
▁žádném	-10.6334
▁koz	-10.6336
▁výrobců	-10.6336
▁muzea	-10.6342
▁uvedeno	-10.6343
▁certifikát	-10.6344
pevn	-10.6344
▁klienty	-10.6345
▁twist	-10.635
mas	-10.6355
▁hrajete	-10.6355
syp	-10.6356
▁teorie	-10.6356
▁našli	-10.6357
lem	-10.6357
▁gi	-10.6357
▁jedině	-10.6358
▁duchu	-10.6359
▁kupující	-10.6362
▁nemocnici	-10.6364
▁známá	-10.6364
▁představu	-10.6366
▁jejích	-10.6366
▁porod	-10.637
out	-10.6372
▁#.###	-10.6373
▁odpověděl	-10.6376
▁interiéru	-10.6378
▁vývoji	-10.6379
trž	-10.6382
skočil	-10.6382
▁výkonem	-10.6383
hý	-10.6383
neme	-10.6388
▁nabídek	-10.6389
▁komplex	-10.639
▁porad	-10.6393
draž	-10.6393
▁doposud	-10.6395
▁demokracie	-10.6395
nož	-10.6396
▁výrobek	-10.6397
▁karl	-10.6399
▁léto	-10.64
▁typické	-10.64
▁kolekce	-10.6403
▁rodin	-10.6404
▁příběhu	-10.6404
▁vyžadují	-10.6405
ica	-10.6405
▁významné	-10.6406
líb	-10.6408
ňa	-10.6409
▁zjistíte	-10.6411
ther	-10.6411
▁tiskové	-10.6413
▁převod	-10.6414
kt	-10.6415
ier	-10.6416
▁bohatý	-10.6419
▁dopoledne	-10.642
▁absolutně	-10.6421
oz	-10.6421
▁dřevěné	-10.6423
▁směs	-10.6423
▁mgr	-10.6423
sch	-10.6424
▁tvořen	-10.6425
▁představují	-10.6425
▁zvířata	-10.6425
▁armády	-10.6427
▁wc	-10.6428
gn	-10.6429
rem	-10.643
▁nejnižší	-10.643
▁důraz	-10.6432
▁nohou	-10.6433
▁tis	-10.6434
dem	-10.6435
▁stín	-10.6436
▁proběhne	-10.644
▁objevit	-10.644
▁rytíř	-10.6441
aby	-10.6443
▁některá	-10.6444
rc	-10.6456
▁ša	-10.6456
▁odehrál	-10.6459
ros	-10.6461
▁nemohu	-10.6461
táhl	-10.6461
▁sklep	-10.6466
▁naděje	-10.6467
▁částka	-10.6468
vil	-10.6468
▁pořídit	-10.6469
▁příkaz	-10.647
▁vydává	-10.6473
▁věž	-10.6475
vky	-10.6476
čkou	-10.6477
▁trans	-10.6481
▁důležitý	-10.6485
▁sýr	-10.6485
hlav	-10.649
▁návrhy	-10.6492
▁pokeru	-10.6494
gon	-10.6502
▁železniční	-10.6506
pokoj	-10.6507
▁počtem	-10.6508
▁nejlepším	-10.6509
▁pode	-10.6514
▁založené	-10.6514
▁humor	-10.6517
istické	-10.6519
▁využitím	-10.652
▁ředitele	-10.6521
▁stálo	-10.6523
tes	-10.6524
▁olomouc	-10.6525
váděn	-10.6528
▁hradu	-10.6531
nor	-10.6532
▁anděl	-10.6532
▁milion	-10.6538
▁kw	-10.6538
▁sha	-10.6538
▁mer	-10.6539
▁kontrolní	-10.654
▁rozhodčí	-10.6544
put	-10.6545
▁chybět	-10.6546
▁viděli	-10.6546
sv	-10.6549
▁domácím	-10.6549
▁mudr	-10.6551
nický	-10.6552
▁náklad	-10.6554
▁vztahů	-10.6554
kle	-10.6557
▁lukáš	-10.6557
▁men	-10.6558
▁technika	-10.6562
▁důchod	-10.6563
▁vlas	-10.6563
▁zpěv	-10.6565
ňák	-10.6567
▁připravuje	-10.657
▁řidiče	-10.6572
▁fondů	-10.6573
▁vychutnat	-10.6575
▁dokončení	-10.6577
▁knihovny	-10.6582
letá	-10.6582
▁mzdy	-10.6584
elná	-10.6584
▁udělali	-10.6585
▁reálném	-10.6585
▁tématem	-10.6589
▁budoucnu	-10.6589
▁úvod	-10.659
▁krev	-10.6592
▁přesvědčen	-10.6594
▁modul	-10.6596
▁kořen	-10.6601
▁motivační	-10.6602
rb	-10.6604
▁ran	-10.6604
▁gb	-10.661
šti	-10.661
▁zato	-10.6611
▁rekonstrukci	-10.6611
lín	-10.6612
▁metoda	-10.6612
rit	-10.6615
ečky	-10.6621
▁sazby	-10.6623
▁klidné	-10.6625
▁předmětem	-10.6625
▁průkaz	-10.6631
▁vladimír	-10.6631
▁zákazník	-10.6634
▁výborné	-10.6635
▁poznání	-10.6636
▁pet	-10.6643
▁německa	-10.6645
▁vysvětlil	-10.6645
chází	-10.6647
▁ban	-10.6648
▁zahrady	-10.6649
▁filmové	-10.6649
šil	-10.6649
▁mail	-10.6649
dání	-10.6651
▁projít	-10.6652
▁volbou	-10.6652
▁řídit	-10.6652
ata	-10.6656
bel	-10.6656
▁ep	-10.6662
řík	-10.6664
▁víš	-10.6666
vede	-10.6666
▁ventil	-10.6667
▁staví	-10.6671
▁strávil	-10.6672
▁nejdřív	-10.6675
ds	-10.6675
▁délce	-10.6679
▁pracovního	-10.6682
▁společenské	-10.6686
▁mel	-10.6688
list	-10.6691
▁městem	-10.6692
▁klientů	-10.6694
kování	-10.6695
▁přidává	-10.6695
▁návštěvníky	-10.6696
hrom	-10.6696
▁ručně	-10.6698
▁porodu	-10.6699
▁uhlí	-10.6699
▁scény	-10.6704
▁svazu	-10.6705
▁sázkové	-10.6707
▁literární	-10.6709
▁lesní	-10.671
▁formu	-10.6711
▁porno	-10.6712
▁požadavek	-10.6715
▁časopis	-10.6719
▁pobídky	-10.6721
▁přijmout	-10.6723
▁kanál	-10.6725
▁nacházejí	-10.6726
▁lehký	-10.6726
fin	-10.6731
lib	-10.6731
▁úspěšný	-10.6734
▁nástrojů	-10.6735
▁alp	-10.6745
▁jmenuje	-10.6745
▁připravil	-10.675
▁tobě	-10.675
kovat	-10.6753
▁písmen	-10.6755
nést	-10.6757
▁kuchyni	-10.6757
▁sada	-10.6758
▁čínské	-10.6759
▁tun	-10.6762
▁vzájemné	-10.6764
und	-10.6765
▁mb	-10.6766
loh	-10.6771
▁gra	-10.6771
▁zoo	-10.6773
▁asociace	-10.6774
tivní	-10.6774
▁jdu	-10.6774
▁vysokých	-10.6775
▁písně	-10.6775
▁šťastný	-10.6775
▁restauraci	-10.6778
▁para	-10.6778
▁dodá	-10.6779
▁obrázku	-10.678
▁stejným	-10.6784
▁telefonní	-10.6785
▁rom	-10.6787
▁problémem	-10.6788
▁navzdory	-10.679
▁desítek	-10.6796
ket	-10.6799
áků	-10.6799
▁kamen	-10.6804
▁přátelé	-10.6804
elný	-10.6804
▁politika	-10.6806
▁uplatnění	-10.681
zd	-10.6812
▁###.###	-10.6818
▁očima	-10.6819
▁tvorbu	-10.6823
▁bytů	-10.6826
▁okolní	-10.6828
▁poslat	-10.683
mám	-10.6839
stoupil	-10.684
▁designu	-10.6842
žád	-10.6843
▁stejném	-10.6844
▁disku	-10.6849
▁nejste	-10.6851
eň	-10.6857
▁detaily	-10.6857
▁all	-10.6858
▁zdravý	-10.686
▁mír	-10.6865
ida	-10.6865
▁dokumenty	-10.6866
▁postavil	-10.6867
▁přehrávání	-10.6869
kají	-10.6871
mož	-10.6872
icích	-10.6873
mez	-10.6875
▁straš	-10.6878
ast	-10.6878
▁internetových	-10.6878
▁nechá	-10.6884
ité	-10.6886
▁facebooku	-10.6887
▁bre	-10.6888
▁vrt	-10.6888
▁vytápění	-10.6888
ab	-10.6888
▁doplňky	-10.6889
▁tank	-10.6895
▁týdně	-10.6896
▁výkony	-10.6896
▁rychlostí	-10.6898
žení	-10.6899
▁určení	-10.6901
které	-10.6903
▁mediální	-10.6907
nn	-10.6908
pů	-10.6908
box	-10.6916
test	-10.6917
▁sen	-10.6919
ativní	-10.692
razí	-10.692
▁snímek	-10.6926
▁startu	-10.6927
▁potraviny	-10.6932
▁odešel	-10.6932
vl	-10.6934
▁poly	-10.6935
▁hradec	-10.6936
hla	-10.6938
kově	-10.6939
▁celek	-10.6942
▁začnou	-10.6942
▁dobro	-10.6942
▁majitele	-10.6942
▁zlato	-10.6942
▁zakoupit	-10.6943
padá	-10.6947
▁odstranit	-10.6954
▁otevřel	-10.6954
▁úkoly	-10.6955
ill	-10.696
▁určený	-10.696
▁dělám	-10.696
▁žáky	-10.6962
▁kapely	-10.6962
▁sval	-10.697
ačky	-10.697
tar	-10.697
▁naším	-10.697
▁bon	-10.6972
▁pozemek	-10.6976
lik	-10.6977
▁mlýn	-10.6981
▁přijdou	-10.6982
▁odběr	-10.6984
▁zemědělství	-10.6984
▁restaurací	-10.6984
▁václava	-10.6985
▁starosti	-10.6986
▁spočívá	-10.6986
▁vaření	-10.6986
▁instituce	-10.6988
▁zřejmé	-10.699
▁opakovaně	-10.6996
▁neděle	-10.6998
▁prodává	-10.7002
▁fal	-10.7003
▁spokojen	-10.7004
▁obrazu	-10.7005
▁postupy	-10.7005
ins	-10.7009
▁nechybí	-10.7011
park	-10.7013
rok	-10.7014
▁zápasů	-10.7014
▁sklon	-10.7017
▁okolností	-10.7018
▁char	-10.7019
▁ruční	-10.7023
▁mc	-10.7024
▁investiční	-10.7025
▁pochopení	-10.7025
▁názvu	-10.7026
letěl	-10.7026
▁rop	-10.703
▁bro	-10.703
vejte	-10.7032
▁dosáhl	-10.7032
met	-10.7034
▁těžký	-10.7038
dek	-10.7048
▁registru	-10.7049
ino	-10.7051
ačka	-10.7052
▁běží	-10.7054
▁studiu	-10.7054
▁koncept	-10.7059
▁provozuje	-10.706
▁výdaje	-10.7061
▁nejoblíbenější	-10.7061
get	-10.7062
▁vystaven	-10.7066
▁von	-10.7067
▁prach	-10.7068
vce	-10.7069
▁dějin	-10.7071
▁snaha	-10.7074
▁rekreační	-10.7075
druž	-10.7076
▁stejná	-10.7078
▁podklad	-10.7078
▁teplé	-10.7079
▁posouzení	-10.7079
▁chvilku	-10.7079
▁rostliny	-10.708
▁bývalého	-10.7081
▁plno	-10.7083
eg	-10.7088
▁stupňů	-10.709
pel	-10.709
▁založen	-10.7091
pustí	-10.7093
▁aktivně	-10.7098
▁objektů	-10.7099
ous	-10.7099
▁pav	-10.7099
▁rodinný	-10.7099
▁výrobku	-10.71
▁tvorbě	-10.7101
▁oficiálně	-10.7102
▁postaven	-10.7103
▁krát	-10.7104
▁balík	-10.7104
▁osobnosti	-10.7105
▁francii	-10.7107
▁kratší	-10.7107
aly	-10.7108
▁americká	-10.7109
▁hroz	-10.711
▁květin	-10.7112
letou	-10.7115
▁myšlenka	-10.7118
▁namísto	-10.7119
▁přítomnost	-10.712
▁osobu	-10.7121
▁pacient	-10.7121
▁úřady	-10.7122
bral	-10.7124
▁povinen	-10.7125
cest	-10.7126
kv	-10.7127
▁nebyli	-10.7128
▁fond	-10.7128
▁oprávněn	-10.7132
něji	-10.7134
oš	-10.7139
▁osobnost	-10.7139
▁jednodušší	-10.714
▁nešlo	-10.7147
▁matky	-10.7149
▁mluvil	-10.7149
zel	-10.715
▁rodinné	-10.7152
▁michael	-10.7158
plo	-10.7159
▁kapela	-10.7162
ťák	-10.7164
▁čl	-10.7165
▁prvek	-10.7166
▁paul	-10.7166
▁správnou	-10.7167
▁publikace	-10.717
▁živ	-10.7172
tion	-10.7174
▁oken	-10.7177
pořád	-10.7178
▁zjištění	-10.718
▁návštěvě	-10.718
padají	-10.7181
▁vlak	-10.7181
▁dospěl	-10.7182
▁nelíbí	-10.7183
dan	-10.7183
▁složité	-10.7184
▁doplnil	-10.7185
▁karetní	-10.7185
ťa	-10.7191
▁babiš	-10.7191
grad	-10.7192
▁club	-10.7197
▁připravili	-10.7198
▁aj	-10.7201
▁biskup	-10.7203
▁výborně	-10.7204
▁požádat	-10.7207
▁tour	-10.7209
▁vybrané	-10.721
sport	-10.7212
▁odvolání	-10.7215
▁příběhy	-10.7215
▁převzal	-10.7216
▁nepodařilo	-10.722
▁vyřešit	-10.722
▁zaměstnavatele	-10.7221
anti	-10.7222
▁odolnost	-10.7223
▁usd	-10.7224
dlo	-10.7224
▁přípravě	-10.7225
ána	-10.7226
▁čtvrtletí	-10.7227
▁starších	-10.7229
▁narozenin	-10.7235
▁drát	-10.7236
▁klíče	-10.7236
▁bíl	-10.7237
▁ranní	-10.7239
▁češi	-10.7242
▁proudu	-10.7243
▁nábytek	-10.7245
▁pen	-10.7251
▁občerstvení	-10.7254
razit	-10.7255
▁posledního	-10.7257
▁měsíčně	-10.7258
▁odpovědnost	-10.7259
▁kore	-10.7259
▁sekce	-10.726
▁terénu	-10.726
cin	-10.7262
▁úspěšné	-10.7264
kej	-10.7264
▁chat	-10.7266
▁navzájem	-10.7269
hry	-10.727
▁rozpočet	-10.727
▁poskytne	-10.7271
▁drahé	-10.7271
sah	-10.7271
▁zš	-10.7273
▁krb	-10.7274
lis	-10.7275
nicí	-10.7277
▁podrobnosti	-10.7279
▁pořádá	-10.728
▁dejte	-10.7281
▁ostravě	-10.7281
bs	-10.7282
▁předměty	-10.7288
▁původu	-10.7289
▁bílá	-10.7289
áři	-10.7291
▁postava	-10.7292
eli	-10.7298
▁kasinových	-10.7298
ávat	-10.7301
ves	-10.7304
eta	-10.7304
▁velkém	-10.7304
▁dokumentů	-10.7305
▁internetový	-10.7306
▁skončení	-10.7307
▁lesa	-10.7309
avé	-10.7312
▁aktiv	-10.7317
▁lodí	-10.7318
▁sehnat	-10.7319
aná	-10.7321
▁seminář	-10.7327
▁doporučit	-10.7327
▁sportu	-10.7327
ham	-10.733
▁zpočátku	-10.7331
▁nedělá	-10.7331
▁umístěny	-10.7331
▁bývalé	-10.7333
▁studií	-10.7333
kde	-10.7335
▁popř	-10.7336
▁ozdob	-10.7337
▁mod	-10.7338
▁odmítl	-10.7339
ser	-10.7344
▁větších	-10.7344
▁polovina	-10.7348
▁zbývající	-10.7348
#.#	-10.735
▁miluje	-10.7354
▁policisté	-10.7354
▁medi	-10.7355
▁zmizel	-10.7358
▁obdiv	-10.7359
nějším	-10.736
▁britské	-10.7365
▁radnice	-10.7366
▁potřebu	-10.7368
▁výklad	-10.7368
▁navštívil	-10.7369
▁otázek	-10.7371
zra	-10.7372
▁wo	-10.7379
▁francouz	-10.738
▁nosí	-10.738
▁autora	-10.738
▁dozvíte	-10.7381
▁zpěvák	-10.7383
▁zbavit	-10.7384
▁zjistili	-10.7386
▁pocity	-10.7388
▁pád	-10.7389
▁současný	-10.739
▁výšky	-10.7391
▁spor	-10.7394
▁dvojice	-10.7394
▁vybraných	-10.7394
▁návratu	-10.74
▁skvělou	-10.7401
jím	-10.7401
▁dávky	-10.7402
pil	-10.7403
▁comp	-10.7405
▁pěst	-10.7407
vrat	-10.7407
▁ev	-10.7408
▁objevila	-10.741
▁databáze	-10.741
▁ochraně	-10.741
▁prodejce	-10.7411
řad	-10.7411
▁našla	-10.7414
▁doprovod	-10.7416
▁hrob	-10.742
▁ted	-10.7423
tim	-10.7428
sol	-10.7428
▁rocknrollu	-10.7429
▁přečtěte	-10.7432
▁tenis	-10.7434
▁tur	-10.7435
▁plech	-10.7436
což	-10.7436
▁zadávací	-10.7438
▁exkluzivní	-10.744
▁pití	-10.7442
wer	-10.7443
zv	-10.7445
▁vedlejší	-10.7446
ánek	-10.7447
▁šaty	-10.7448
▁ukáže	-10.7448
▁audio	-10.745
▁těmto	-10.745
▁představil	-10.7452
▁jednot	-10.7453
▁novější	-10.7453
▁cas	-10.7456
▁výstup	-10.7457
hnal	-10.7457
▁válka	-10.7458
▁padesát	-10.7458
▁poruch	-10.7459
▁pit	-10.7459
▁registr	-10.746
▁personál	-10.746
▁klikněte	-10.746
▁nároky	-10.7461
ňovat	-10.7464
▁iv	-10.7469
▁zuby	-10.747
ap	-10.7471
▁fáze	-10.7471
ley	-10.7472
gel	-10.7474
▁děd	-10.7479
▁mládeže	-10.7482
▁parkovací	-10.7484
▁kuchyň	-10.7484
▁jiřího	-10.7485
▁vysvětlit	-10.7488
▁býval	-10.7489
▁kostky	-10.749
stro	-10.749
▁míře	-10.749
▁použil	-10.7492
▁veřejně	-10.7494
▁vytvářet	-10.7494
▁značek	-10.7495
▁soli	-10.7495
bla	-10.7497
dro	-10.7498
čist	-10.75
▁nezapomeňte	-10.7501
▁základem	-10.7501
▁tvé	-10.7503
▁upozornil	-10.7503
▁studio	-10.7505
▁rozhodující	-10.7505
▁situací	-10.7506
▁vip	-10.7507
▁příjemně	-10.7508
▁lokální	-10.7513
▁spuštění	-10.7515
▁zastavil	-10.7515
▁snižuje	-10.752
▁nestačí	-10.752
▁golf	-10.7527
▁zisku	-10.7528
▁zaplatí	-10.7529
▁kuchař	-10.7529
▁dění	-10.7532
▁šroub	-10.7533
▁oblíbený	-10.7534
▁vedou	-10.7534
▁hvězdy	-10.7535
sáz	-10.7536
▁alkoholu	-10.7539
kládají	-10.754
▁bla	-10.7542
pé	-10.7545
▁horách	-10.7551
tku	-10.7554
▁čtenář	-10.7556
▁dokonalé	-10.7556
▁prodloužení	-10.7556
▁bližší	-10.7558
▁uvést	-10.7558
▁písk	-10.756
tis	-10.7561
▁řešením	-10.7564
▁inzerát	-10.7564
bíral	-10.7566
tedy	-10.7566
▁kolegy	-10.7567
▁přál	-10.7567
tická	-10.7567
xx	-10.7567
▁dvanáct	-10.7569
▁zákazníkům	-10.7569
▁najdeme	-10.7571
▁krku	-10.7572
níku	-10.7572
dž	-10.7575
řídí	-10.7577
▁architekt	-10.7578
▁karla	-10.7579
hat	-10.7579
▁přijímá	-10.7581
▁grand	-10.7583
▁známých	-10.7584
▁pravý	-10.7585
bož	-10.7587
▁ovlivnit	-10.7588
▁organizaci	-10.759
▁instalaci	-10.759
▁červnu	-10.7592
▁portál	-10.7596
▁bit	-10.7603
pre	-10.7603
ečku	-10.7605
▁rusku	-10.7609
▁stupeň	-10.761
chod	-10.7611
▁dílu	-10.7611
▁favorit	-10.7612
nal	-10.7612
▁německo	-10.7613
▁souborů	-10.7613
▁nemůžete	-10.7614
▁poskytl	-10.7617
▁lásku	-10.7617
▁vyhnout	-10.7618
▁parkoviště	-10.7619
▁world	-10.7619
ip	-10.762
▁live	-10.7621
ise	-10.7623
▁rizik	-10.7624
▁starosta	-10.7626
íčka	-10.7627
▁říjnu	-10.7629
kých	-10.7629
cho	-10.7633
kového	-10.7636
▁květnu	-10.7637
ms	-10.7638
▁zvládne	-10.7644
▁jakýkoliv	-10.7644
jedna	-10.7647
ura	-10.7649
▁zkušený	-10.765
ovic	-10.765
▁ekonomiky	-10.7651
▁stres	-10.7653
▁tradice	-10.7654
▁technických	-10.7654
čar	-10.7656
ložil	-10.7658
che	-10.7661
html	-10.7662
▁nahoře	-10.7664
▁disponuje	-10.7665
▁vrch	-10.7666
▁%.	-10.7666
▁hracích	-10.767
▁sezony	-10.767
▁neb	-10.7674
▁chorob	-10.7675
▁přijat	-10.7679
▁jemné	-10.768
gh	-10.768
▁intenzivní	-10.7681
cca	-10.7681
▁fen	-10.7682
řa	-10.7683
jem	-10.7685
bert	-10.7686
▁microgaming	-10.7687
▁potěšení	-10.7688
▁předchozích	-10.7691
plň	-10.7693
dil	-10.7694
▁king	-10.7696
▁váha	-10.7698
▁mobilních	-10.7699
▁veřejného	-10.7704
ovicích	-10.771
▁neboli	-10.771
áno	-10.7711
▁něž	-10.7716
die	-10.7716
▁rána	-10.7718
klá	-10.7719
▁tlaku	-10.772
▁neviděl	-10.772
▁starého	-10.7722
▁must	-10.7726
▁metr	-10.7726
▁sad	-10.7726
▁penny	-10.7727
▁dovoz	-10.7727
▁link	-10.7728
plav	-10.7728
▁podnět	-10.7728
▁orgánů	-10.7729
▁craps	-10.7736
▁bed	-10.7737
▁stanovené	-10.7741
▁novin	-10.7742
hlásit	-10.7742
▁splnění	-10.7744
▁fungování	-10.7745
▁sídlem	-10.7748
▁samotného	-10.7748
jev	-10.775
▁brání	-10.7751
▁technologii	-10.7757
▁vysokým	-10.7758
ováni	-10.776
▁kate	-10.7763
▁potřeboval	-10.7765
ring	-10.7767
▁nádherný	-10.777
▁rotace	-10.7773
▁pracoviště	-10.7774
gl	-10.7774
▁půdy	-10.7776
chot	-10.7776
▁úspor	-10.7778
▁úžasný	-10.7778
▁telefony	-10.7781
▁řádku	-10.7781
▁nor	-10.7782
▁šik	-10.7783
▁nesou	-10.7784
íš	-10.7784
▁zvolen	-10.7785
patr	-10.7786
▁vln	-10.779
▁obrat	-10.7792
jedou	-10.7795
stoup	-10.7796
▁zlaté	-10.7796
▁kontaktu	-10.7798
▁propojení	-10.7803
▁uk	-10.7803
▁uzavřel	-10.7803
of	-10.7804
▁cítil	-10.7804
dor	-10.7804
▁sekci	-10.7805
▁snažím	-10.7806
▁pověst	-10.7811
▁spustí	-10.7811
▁letadla	-10.7812
▁konat	-10.7814
▁objednat	-10.7816
ďte	-10.782
▁tváří	-10.7824
▁odmítá	-10.7826
▁dovolit	-10.783
▁moz	-10.7831
▁marek	-10.7831
▁oběma	-10.7834
▁tre	-10.7834
▁zákonů	-10.7834
▁klaus	-10.7835
▁soustav	-10.7835
▁extrémně	-10.7835
▁nemělo	-10.7838
▁poháru	-10.7841
▁tebou	-10.7844
▁dodávky	-10.7846
▁východ	-10.7847
žij	-10.7849
▁inteligentní	-10.7851
▁kmen	-10.7854
ona	-10.7854
▁čip	-10.7854
▁respektive	-10.7855
▁budoucna	-10.7857
škrt	-10.7861
▁záchran	-10.7864
▁galerie	-10.7864
ken	-10.7865
▁spát	-10.7866
ovacích	-10.7866
▁testy	-10.7867
trá	-10.7867
čítá	-10.7869
▁cítím	-10.7871
▁legendární	-10.7875
▁občanské	-10.7878
▁zákazníci	-10.7878
▁tvorby	-10.788
▁svobod	-10.7881
tím	-10.7881
rr	-10.789
part	-10.789
▁pokračoval	-10.7892
přes	-10.7892
ting	-10.7894
▁návštěva	-10.7895
▁generál	-10.7896
▁kreditní	-10.7896
▁rozvod	-10.7897
▁pronájem	-10.7898
šení	-10.7902
▁fer	-10.7904
▁ukázalo	-10.7906
▁zkusil	-10.7907
▁meta	-10.7907
▁bazénu	-10.7907
ava	-10.7911
▁neplatí	-10.7912
▁plánování	-10.7912
jíždí	-10.7912
▁složky	-10.7914
vít	-10.7915
▁třída	-10.792
táhnout	-10.7921
▁totéž	-10.7921
dává	-10.7922
▁doubledown	-10.7923
ete	-10.7923
▁metal	-10.7924
▁účastníky	-10.7925
mraz	-10.7926
▁obe	-10.7927
sse	-10.793
▁obdržel	-10.793
lk	-10.7933
▁zabránit	-10.7936
▁fla	-10.7938
▁jízdu	-10.7938
▁adrese	-10.7942
▁klienta	-10.7943
ud	-10.7946
ung	-10.7946
▁ploch	-10.7946
▁průmyslové	-10.7949
▁poplatků	-10.7949
php	-10.795
▁vlastností	-10.7951
▁měří	-10.7951
one	-10.7951
aných	-10.7954
▁podmínkou	-10.7955
▁používám	-10.7955
▁export	-10.7955
ovek	-10.7956
▁obrazovky	-10.7958
sadí	-10.7964
▁znalostí	-10.7965
▁praktik	-10.7966
▁jaro	-10.7968
▁mezitím	-10.7969
▁večerní	-10.797
bírá	-10.7971
▁kluk	-10.7975
▁koš	-10.7975
▁založil	-10.7976
▁konkurenci	-10.7982
▁orgán	-10.7983
ram	-10.7984
▁existence	-10.7986
▁ruska	-10.7986
▁strategii	-10.7989
ada	-10.7989
▁mapy	-10.7991
▁podlah	-10.7992
▁znáte	-10.7993
▁bílý	-10.7994
dře	-10.7995
▁krajské	-10.7995
lové	-10.7997
vet	-10.7997
▁interaktivní	-10.8003
nova	-10.8005
▁církev	-10.8005
▁běž	-10.8011
▁upravit	-10.8011
▁severu	-10.8014
▁spotřeba	-10.8017
▁zážitky	-10.8018
▁seznámit	-10.8018
▁stěny	-10.8019
▁rozporu	-10.802
▁nikomu	-10.8021
max	-10.8021
▁pojetí	-10.8021
▁kampaň	-10.8023
kluz	-10.8027
▁občany	-10.8028
kládání	-10.8029
tika	-10.8029
▁podezření	-10.803
▁kompaktní	-10.803
▁rud	-10.8032
press	-10.8035
▁francouzské	-10.8035
▁zjistí	-10.8036
▁předmětů	-10.8037
▁konání	-10.804
nička	-10.8042
▁bytě	-10.8043
▁kan	-10.8044
▁bonusových	-10.8044
red	-10.8046
stává	-10.8046
▁taj	-10.8046
ee	-10.8047
▁divadle	-10.8049
lh	-10.8052
▁vlivem	-10.8055
▁objevují	-10.8057
▁moři	-10.806
▁evropa	-10.8063
▁představen	-10.8068
▁témata	-10.807
▁úvahu	-10.807
▁potenciální	-10.8072
▁zlo	-10.8074
▁amerického	-10.8074
árně	-10.8076
▁piva	-10.8078
▁autoři	-10.8083
▁kousky	-10.8084
▁určitý	-10.8085
▁operaci	-10.8085
▁přidáme	-10.8086
▁tomhle	-10.8088
▁suché	-10.8091
▁nejlevnější	-10.8092
▁koupi	-10.8093
▁klade	-10.8095
▁plochu	-10.8099
tisk	-10.8099
▁př	-10.8099
▁výrazné	-10.81
▁podnikatel	-10.81
▁obří	-10.81
▁upozornění	-10.8103
▁jízdní	-10.8105
▁podniků	-10.8106
bod	-10.8108
▁zveřejněn	-10.8109
pozor	-10.8113
měň	-10.8113
dali	-10.8114
▁orchestr	-10.812
▁daném	-10.8121
vedou	-10.8124
padl	-10.8126
žen	-10.8128
▁květ	-10.8131
▁recenzi	-10.8134
▁čez	-10.8137
▁boční	-10.8139
▁prozatím	-10.814
▁čili	-10.814
▁slovensku	-10.8141
▁poznámka	-10.8142
růst	-10.8142
▁penzion	-10.8146
▁podobného	-10.8146
▁čtyřech	-10.8146
▁stahuj	-10.8147
▁aneb	-10.8148
▁pleti	-10.8148
▁ipad	-10.8148
▁úrovní	-10.8149
zkou	-10.8151
▁průvod	-10.8156
▁pořad	-10.8157
▁předpisy	-10.816
▁elektřiny	-10.8161
▁partnera	-10.8164
▁balíček	-10.8165
▁prostorách	-10.8165
▁žádá	-10.8165
▁iphone	-10.8167
▁vesnice	-10.8168
▁rychlá	-10.8169
▁kaš	-10.817
▁ploše	-10.8174
haj	-10.8178
art	-10.8185
itelné	-10.8185
išť	-10.8187
▁loňského	-10.8187
cký	-10.8188
▁znak	-10.8189
▁nejvhodnější	-10.8192
▁neváhejte	-10.8194
▁rozdělení	-10.8194
▁návštěvníků	-10.8195
▁reakci	-10.8196
▁zadarmo	-10.8196
▁papež	-10.8197
pos	-10.8197
▁fanoušky	-10.8199
▁učinit	-10.8199
▁lázně	-10.8199
▁ir	-10.8202
▁skok	-10.8202
▁vytvořen	-10.8204
▁specifik	-10.8211
větr	-10.8213
▁okraji	-10.8214
izované	-10.8219
▁voz	-10.8221
▁sál	-10.8222
▁tvrdé	-10.8223
▁zvýšené	-10.8224
▁hl	-10.8225
▁demokrat	-10.8225
▁ras	-10.8225
▁bojí	-10.8226
▁páté	-10.8227
▁daný	-10.8228
▁jíst	-10.8228
▁pokusil	-10.8229
▁vzrostl	-10.8231
▁nahradit	-10.8231
▁trvat	-10.8232
daných	-10.8233
▁brankář	-10.8235
▁figur	-10.8239
▁použité	-10.824
eru	-10.8243
▁baru	-10.8244
▁nemůžeme	-10.8247
▁obchodních	-10.8249
ndr	-10.8249
▁manželka	-10.825
▁poradí	-10.8251
▁využit	-10.8253
▁udělala	-10.8253
▁ujistěte	-10.8255
táč	-10.8255
▁nebezpečné	-10.8257
▁cyklo	-10.8258
nič	-10.826
▁salonu	-10.8264
▁moč	-10.8265
▁nadšení	-10.8267
▁krále	-10.8268
lad	-10.8269
▁informovat	-10.8274
▁vrchní	-10.8274
▁kouč	-10.8275
▁vadí	-10.8278
mor	-10.8283
vací	-10.8283
vej	-10.8285
tvrz	-10.8285
tiky	-10.8287
▁nejenom	-10.8287
▁řádně	-10.8288
▁mix	-10.829
▁povedlo	-10.829
▁beru	-10.8291
▁detail	-10.8294
▁čte	-10.8294
▁rou	-10.8295
ením	-10.8295
▁hlav	-10.8298
▁politických	-10.8301
tažení	-10.8303
▁volit	-10.8307
▁odkazy	-10.8308
▁vítr	-10.8312
▁nato	-10.8314
jan	-10.8315
▁linie	-10.8315
▁fotek	-10.8318
▁cy	-10.8319
▁beton	-10.8319
▁chyt	-10.8322
▁zapojení	-10.8323
ef	-10.8327
hodil	-10.8328
▁úplné	-10.8328
▁tvorba	-10.8329
▁dražší	-10.833
tit	-10.8336
▁okruhu	-10.8341
jděte	-10.8341
▁hodinky	-10.8342
▁patnáct	-10.8344
čková	-10.8349
kar	-10.835
▁varianty	-10.8354
▁ukazují	-10.8355
▁ples	-10.8355
čín	-10.8357
▁jar	-10.8357
▁snímku	-10.8358
▁mont	-10.8361
▁vytvoří	-10.8368
cům	-10.8368
▁dokumentu	-10.837
▁budově	-10.837
▁patřil	-10.837
▁proběhla	-10.8373
▁orgány	-10.8376
dnes	-10.8377
▁dáme	-10.8379
▁kámen	-10.8381
žil	-10.8383
▁čtěte	-10.8384
▁náboženství	-10.8385
▁hlasů	-10.8386
▁centr	-10.8388
▁pořadu	-10.8388
▁pomáhají	-10.8392
▁an	-10.8395
▁zve	-10.8396
▁politici	-10.8397
▁demo	-10.8399
sion	-10.8402
▁loňském	-10.8403
▁přímé	-10.8404
▁sleduje	-10.8405
▁odpovědět	-10.8406
▁celostátní	-10.8406
▁záhad	-10.8406
▁vyšel	-10.8408
▁nabízet	-10.8408
štění	-10.8409
▁svoboda	-10.8411
daná	-10.8412
▁postele	-10.8412
cc	-10.8415
▁stromy	-10.8415
▁uměl	-10.8417
▁uvidíte	-10.8419
pon	-10.842
klo	-10.8421
▁podobných	-10.8425
▁plzni	-10.8425
▁testu	-10.8426
▁rozdíly	-10.8426
▁výpis	-10.8426
kryt	-10.8429
▁čet	-10.8429
▁seděl	-10.8431
tlač	-10.8435
▁řetěz	-10.8438
ara	-10.844
tec	-10.8442
▁možných	-10.8443
▁stačilo	-10.8444
▁vyrobené	-10.8446
▁snažíme	-10.8446
histor	-10.8448
hn	-10.845
▁povolání	-10.8452
▁naproti	-10.8453
▁kombinací	-10.8454
▁holka	-10.8459
▁psycholog	-10.8462
dám	-10.847
rky	-10.8472
▁platné	-10.8473
▁viděla	-10.8475
▁minulých	-10.8476
▁is	-10.8488
▁souboj	-10.8488
vor	-10.8488
▁hmotnosti	-10.8489
▁adresa	-10.8491
anci	-10.8492
▁líbit	-10.8492
▁něhož	-10.8493
▁dluh	-10.8494
▁fre	-10.8498
▁hp	-10.8499
▁analýzy	-10.8502
▁stanovení	-10.8505
▁energetické	-10.8507
bíd	-10.8507
▁oko	-10.8508
rka	-10.8509
rub	-10.8511
▁stat	-10.8515
áka	-10.8517
sluš	-10.8522
▁získává	-10.8525
▁obsadil	-10.8529
▁pracovníci	-10.8533
▁výkonný	-10.8533
olu	-10.8533
▁dnem	-10.8535
▁kri	-10.8536
▁podstatné	-10.8537
▁sony	-10.8537
▁zmínil	-10.8538
▁hledáme	-10.854
▁hrou	-10.8541
tický	-10.8542
▁viktor	-10.8543
▁ski	-10.8546
▁otáčí	-10.8546
▁tisku	-10.8546
▁považovat	-10.8547
▁institucí	-10.855
▁večeře	-10.855
▁mast	-10.8551
▁léčba	-10.8552
▁advokát	-10.8553
klid	-10.8555
ráz	-10.8557
▁prováděl	-10.8557
▁bmw	-10.8557
mod	-10.8558
▁dětství	-10.8559
▁pojišťovny	-10.856
▁not	-10.8562
▁automatu	-10.8562
rán	-10.8565
▁zeptal	-10.8565
▁daňové	-10.8566
boh	-10.8566
liš	-10.8569
ína	-10.857
▁eli	-10.857
▁normy	-10.8571
▁konektor	-10.8572
▁had	-10.8572
▁pohon	-10.8574
▁střediska	-10.8574
▁touží	-10.8575
znam	-10.8576
▁věděli	-10.8576
▁průměrná	-10.8579
dej	-10.858
tickou	-10.8581
▁vnitra	-10.8581
▁závěrečné	-10.8581
▁ču	-10.8583
▁přímý	-10.8584
píše	-10.8584
▁hád	-10.8585
▁slabší	-10.8589
▁červená	-10.8589
▁reg	-10.859
▁orl	-10.8593
daný	-10.8593
uč	-10.8594
▁malíř	-10.8595
dění	-10.8596
▁skutečný	-10.86
▁srb	-10.86
▁stimul	-10.8601
▁ovládací	-10.8601
▁správa	-10.8601
▁dubnu	-10.8603
▁branku	-10.8608
iss	-10.8609
ičkou	-10.8609
▁strop	-10.8611
▁povinné	-10.8616
▁úvěrů	-10.8616
▁soukromí	-10.8618
▁členství	-10.8618
▁úkolem	-10.8619
▁taktéž	-10.862
▁zájemci	-10.8621
▁záření	-10.8621
▁použit	-10.8621
▁každým	-10.8623
▁praktický	-10.8626
ove	-10.8627
pot	-10.8627
▁nabídl	-10.8627
▁koupí	-10.8627
čím	-10.863
vku	-10.8632
▁svobodu	-10.8632
tik	-10.8634
▁reklamy	-10.8635
tri	-10.8639
▁okno	-10.8639
▁vědci	-10.8641
▁jas	-10.8641
ix	-10.8644
▁vyšlo	-10.865
ub	-10.8652
▁větším	-10.8652
▁stopy	-10.8652
▁novinka	-10.8653
▁tón	-10.8656
ens	-10.8657
ičtí	-10.8658
▁stromů	-10.8659
▁svědomí	-10.8664
řízené	-10.8664
ňoval	-10.8665
gra	-10.8667
▁odměnu	-10.867
▁fakulty	-10.8671
▁stra	-10.8672
▁investovat	-10.8673
organiz	-10.8675
▁salát	-10.8678
▁ztrácí	-10.8679
▁oblé	-10.8681
▁rezervace	-10.8681
▁územní	-10.8682
▁zkoušel	-10.8683
zz	-10.8685
▁určit	-10.8691
▁dokázali	-10.8692
▁scén	-10.8693
▁vyšla	-10.8693
▁vcelku	-10.8693
▁prof	-10.8694
▁znal	-10.8696
lost	-10.8697
▁blíže	-10.87
bat	-10.8709
▁českým	-10.8709
▁zachování	-10.8711
▁peter	-10.8711
▁sexu	-10.8712
▁skladem	-10.8712
▁takřka	-10.8718
▁konstrukci	-10.872
▁cla	-10.8722
gg	-10.8724
▁vážné	-10.8724
▁chi	-10.8725
▁nedošlo	-10.8727
▁něčím	-10.8727
▁podruhé	-10.8728
▁soutěžní	-10.8729
cal	-10.8731
▁ryby	-10.8732
▁iso	-10.8732
▁vyhlášen	-10.8737
▁plát	-10.8738
▁autorů	-10.8738
▁nejrůznější	-10.8741
▁kontextu	-10.8741
▁udržuje	-10.8742
pustil	-10.8746
▁jezdil	-10.8753
▁šok	-10.8754
▁zrak	-10.8755
kin	-10.8756
▁surovin	-10.8756
▁mono	-10.8758
ohled	-10.8758
▁umístěn	-10.876
krm	-10.876
▁zvýšil	-10.8763
▁finančně	-10.8765
▁nejpozději	-10.8765
▁požádal	-10.8766
▁spustit	-10.8767
▁příslušný	-10.8771
▁přáteli	-10.8772
▁úsměv	-10.8774
▁točí	-10.8774
▁obětí	-10.8775
vých	-10.8779
nická	-10.8779
▁uspořádání	-10.8781
▁vypadalo	-10.8782
laděn	-10.8783
▁pozdě	-10.8785
▁pláže	-10.8786
▁bránit	-10.879
jal	-10.8792
▁spí	-10.8794
▁popřípadě	-10.8794
▁rozumí	-10.8794
▁popsal	-10.8796
▁rovin	-10.8796
▁svato	-10.8796
▁podpořit	-10.8797
▁tvoje	-10.8799
▁zařazen	-10.8799
▁poskytovatele	-10.8802
▁přirozeně	-10.8803
ota	-10.8804
▁lékařů	-10.8808
▁nevz	-10.8808
▁stanici	-10.8809
▁ks	-10.881
▁zájmy	-10.881
▁výběrem	-10.881
▁vad	-10.8811
▁vrcholu	-10.8812
▁jet	-10.8814
▁řadí	-10.8815
▁státních	-10.8815
▁nemyslím	-10.8815
▁marketing	-10.8816
▁tváře	-10.882
▁bouř	-10.8821
▁skladby	-10.8821
▁mach	-10.8822
▁půjčku	-10.8822
▁mile	-10.8822
▁náplň	-10.8823
ávají	-10.8824
▁vyhlášení	-10.8824
▁kupní	-10.8824
▁řešen	-10.8826
ěné	-10.8826
▁nejčastější	-10.8826
lky	-10.8827
ologické	-10.8829
▁začínající	-10.8831
bírat	-10.8831
▁dobrého	-10.8833
▁závodů	-10.8834
▁želez	-10.8835
▁nález	-10.8835
▁uvědomit	-10.8835
▁fil	-10.8838
▁obrátit	-10.8839
▁vedl	-10.884
▁stála	-10.8841
šit	-10.8843
▁dovolená	-10.8844
▁agent	-10.8846
▁doklad	-10.8846
▁základním	-10.8849
▁svatý	-10.8854
▁správu	-10.8859
▁rysy	-10.8859
sit	-10.886
▁skla	-10.8861
▁sezóně	-10.8861
náší	-10.8862
▁expozice	-10.8864
▁využívají	-10.8866
▁výhodné	-10.8866
▁graf	-10.8866
▁hollywood	-10.8869
spěch	-10.8869
▁lokalit	-10.8873
▁nedostal	-10.8873
▁duši	-10.8874
hlo	-10.8874
dia	-10.8875
▁pardubice	-10.8876
▁planet	-10.8877
ink	-10.8878
▁kla	-10.8878
kryl	-10.8881
ovská	-10.8881
▁mozku	-10.8883
▁padl	-10.8883
▁zátěž	-10.8884
▁kre	-10.8885
▁vyměnit	-10.8885
oni	-10.8886
▁hodnotí	-10.8887
ovému	-10.8887
▁war	-10.8887
▁zdrojem	-10.889
▁vozidlo	-10.8891
low	-10.8891
▁úvěru	-10.8894
▁ložnice	-10.8894
bývá	-10.8894
▁trhy	-10.8895
▁narozeniny	-10.8897
▁moderátor	-10.8897
▁smluv	-10.8898
▁netradiční	-10.8898
▁sezoně	-10.8899
áte	-10.8901
▁neú	-10.8903
▁netu	-10.8904
▁ry	-10.8905
▁rozdělen	-10.8907
▁band	-10.8907
▁silniční	-10.8908
▁trestní	-10.8912
tří	-10.8912
▁zmíněné	-10.8913
▁předpokládá	-10.8917
▁coby	-10.8917
▁pomohl	-10.8917
▁uvědomil	-10.8919
náš	-10.8923
▁použitím	-10.8923
▁úrok	-10.8926
▁nechtějí	-10.893
▁příspěvků	-10.8931
▁školách	-10.8934
▁notebook	-10.8934
koval	-10.8935
dělá	-10.8935
bur	-10.8937
link	-10.8939
zná	-10.894
▁obecní	-10.8941
▁určeny	-10.8941
▁kostela	-10.8942
▁klášter	-10.8942
▁obyvatelé	-10.8943
chyb	-10.8943
vané	-10.8944
▁ústřední	-10.8944
▁navrhl	-10.8946
▁žák	-10.8947
▁zaznamenal	-10.8948
▁jízda	-10.8948
nad	-10.8948
if	-10.8949
▁hledám	-10.8951
▁maminka	-10.8954
škod	-10.8956
▁tzn	-10.8959
▁březnu	-10.8961
hrát	-10.8962
▁moravě	-10.8962
▁jazz	-10.8963
▁hrách	-10.8964
▁mnohokrát	-10.8964
▁arab	-10.8969
hav	-10.897
hnout	-10.897
těsn	-10.8974
sť	-10.8975
▁trvalo	-10.8975
▁zaslouží	-10.8977
klí	-10.8978
▁zaměření	-10.8978
▁edit	-10.8979
stein	-10.898
▁snídaně	-10.8981
▁pohodlně	-10.8983
člen	-10.8987
▁sponzor	-10.8987
▁#%	-10.8987
▁spokojenost	-10.8988
▁volání	-10.899
pet	-10.8992
▁platil	-10.8999
▁doporučil	-10.9001
▁ramen	-10.9002
▁dodání	-10.9002
▁off	-10.9003
▁slad	-10.9004
hraj	-10.9005
▁stanic	-10.9007
▁přípravek	-10.9008
▁známe	-10.901
▁pneumatiky	-10.901
cl	-10.9011
▁důkladně	-10.9012
▁zajistil	-10.9014
▁solární	-10.9015
▁pokrok	-10.9015
▁vpravo	-10.9017
▁er	-10.9017
▁správního	-10.9017
▁zima	-10.902
▁pec	-10.9021
nesl	-10.9024
▁průzkumu	-10.9025
rání	-10.9026
▁ped	-10.9027
▁provádění	-10.903
▁boku	-10.9031
▁úder	-10.9032
▁říkat	-10.9034
▁bri	-10.9034
▁spokojený	-10.9035
číst	-10.904
▁úseku	-10.9041
▁pojem	-10.9041
aře	-10.9042
▁staly	-10.9047
▁nedělní	-10.9048
▁trasy	-10.9049
rna	-10.9049
▁vlád	-10.9051
protože	-10.9054
▁týmů	-10.9054
▁kategorií	-10.9055
nů	-10.9057
▁posezení	-10.9057
rob	-10.9058
▁zahrada	-10.9058
hyb	-10.9059
plet	-10.906
▁postupem	-10.906
▁najevo	-10.906
tice	-10.9061
▁moji	-10.9062
ske	-10.9066
▁střešní	-10.9068
▁člověku	-10.907
▁patent	-10.9071
▁#.##.####	-10.9073
▁norma	-10.9075
▁patrně	-10.9075
▁řadou	-10.9077
▁sloužil	-10.9077
ecká	-10.9078
▁občané	-10.9079
▁dráhy	-10.9083
▁benzín	-10.9083
▁vlastnost	-10.9086
▁psy	-10.9087
▁potěší	-10.9088
▁mléko	-10.9088
▁důkaz	-10.909
▁šv	-10.909
▁ruský	-10.9091
▁hyper	-10.9094
▁začínal	-10.9096
▁přiznal	-10.9099
▁zlom	-10.9101
▁vstříc	-10.9103
▁návštěvy	-10.9105
▁zobrazen	-10.9105
▁ženské	-10.9105
▁napadlo	-10.9109
car	-10.911
▁stranách	-10.911
▁lídr	-10.911
▁palce	-10.9112
▁odvod	-10.9116
▁přemýšlet	-10.9118
▁prac	-10.9119
hen	-10.9119
qui	-10.9127
▁hlásí	-10.913
nuté	-10.913
nci	-10.9131
tín	-10.9133
dané	-10.9134
▁jídel	-10.9137
rg	-10.9138
rů	-10.9138
suz	-10.9139
▁čeští	-10.9139
▁některý	-10.914
▁pozdravem	-10.914
▁poskytnutí	-10.9142
▁historických	-10.9146
▁časy	-10.9147
▁zásadně	-10.9151
▁diskusi	-10.9151
▁zatížení	-10.9151
nské	-10.9153
▁evropský	-10.9153
▁městech	-10.9154
▁formul	-10.9155
▁scénář	-10.9155
jme	-10.9155
▁ovládat	-10.9157
nicích	-10.9159
ovní	-10.9159
▁služební	-10.916
vač	-10.9161
▁podpis	-10.9164
▁případy	-10.9164
▁dokonalý	-10.9165
▁zlata	-10.9166
▁snímky	-10.9166
▁dlouhodobé	-10.9168
▁spotřebu	-10.9169
▁nebankovní	-10.917
hodin	-10.9172
▁vůle	-10.9173
▁patře	-10.9174
▁pochod	-10.9177
▁aero	-10.9177
▁ukončen	-10.9178
▁jersey	-10.918
▁trub	-10.9183
▁umístit	-10.9185
bere	-10.9186
trh	-10.9187
▁dostupný	-10.9187
▁obav	-10.9187
lič	-10.9188
▁katastrof	-10.9189
illa	-10.9191
čené	-10.9191
ivní	-10.9193
▁poznámky	-10.9194
for	-10.9194
▁najdou	-10.9194
▁svědčí	-10.9198
▁zřízení	-10.9199
▁ptal	-10.92
▁nápady	-10.92
▁necháme	-10.9201
▁jabl	-10.9201
▁pomohou	-10.9201
▁nevidím	-10.9203
▁prohlédnout	-10.9203
▁podporou	-10.9204
▁využil	-10.9204
▁tarif	-10.9206
▁obtížné	-10.9207
trop	-10.9208
▁příznaky	-10.9209
▁směn	-10.9209
▁zná	-10.921
chla	-10.9211
▁konečné	-10.9212
▁nutně	-10.9214
▁bázi	-10.9215
kládal	-10.9216
▁schválen	-10.9218
▁proběhl	-10.9218
▁baccarat	-10.9219
▁každoročně	-10.9219
potřeb	-10.9219
pit	-10.9219
▁poukaz	-10.922
mel	-10.922
▁řeči	-10.922
▁reálné	-10.9221
▁nejedná	-10.9222
▁výšce	-10.9223
cher	-10.9223
▁závisí	-10.9224
▁ocel	-10.9227
tele	-10.9228
▁milá	-10.9229
hlu	-10.923
čné	-10.9231
▁heslo	-10.9233
▁malým	-10.9233
dní	-10.9234
▁vybral	-10.9234
▁čí	-10.9235
▁vypadají	-10.9236
▁linux	-10.9239
▁světového	-10.9239
▁koupel	-10.924
andr	-10.9241
áním	-10.9242
▁zastoupení	-10.9244
▁přirozené	-10.9246
▁odtud	-10.9247
▁oper	-10.9248
▁hy	-10.9249
▁len	-10.925
▁čtvrtý	-10.9252
▁protokol	-10.9253
▁vid	-10.9255
▁příštího	-10.9256
avý	-10.9257
▁rozsáhlé	-10.9258
▁lize	-10.9259
▁vir	-10.9259
entní	-10.926
▁naději	-10.9261
▁nepřátel	-10.9261
▁nehod	-10.9265
▁pep	-10.9267
▁jisti	-10.9271
enz	-10.9273
nikl	-10.9275
▁dík	-10.9275
▁hovor	-10.9277
lt	-10.928
sis	-10.928
▁brod	-10.9281
▁bol	-10.9281
▁vzájemně	-10.9281
▁cenou	-10.9283
takže	-10.9284
▁organizační	-10.9287
▁stavebních	-10.9288
▁atmosféra	-10.9289
ovně	-10.929
▁úřední	-10.9291
▁formuláře	-10.9292
mont	-10.9294
▁tvrdil	-10.9296
cer	-10.9297
▁politiků	-10.9298
▁příkladem	-10.9298
▁předmětu	-10.93
▁kredity	-10.9303
▁dosah	-10.9305
▁nesmírně	-10.9307
▁objevuje	-10.9308
ině	-10.9308
▁majitelé	-10.9312
šen	-10.9312
▁hvězda	-10.9312
▁vodo	-10.9312
▁radi	-10.9314
▁bývají	-10.9315
▁vkladu	-10.9317
▁pokožku	-10.9317
▁log	-10.9321
▁zrušen	-10.9324
bank	-10.9328
bít	-10.9329
▁nemohli	-10.9333
▁center	-10.9336
▁přírodních	-10.9338
▁chráněn	-10.9339
▁samozřejmostí	-10.9339
▁ducha	-10.9341
dělí	-10.9341
▁červený	-10.9342
▁okres	-10.9342
▁užitečné	-10.9343
▁vlast	-10.9345
ski	-10.9345
roste	-10.9347
▁míří	-10.9348
▁zapotřebí	-10.9351
důvod	-10.9352
▁vyloučen	-10.9354
anou	-10.9354
regul	-10.9354
▁akcie	-10.9359
▁coververzí	-10.9359
itá	-10.9361
▁chová	-10.9362
▁herec	-10.9363
▁příležitostí	-10.9364
▁politiku	-10.9364
▁energií	-10.9365
▁protein	-10.9366
▁vín	-10.9367
ction	-10.9368
▁technik	-10.9372
▁lokalitě	-10.9372
▁kapsy	-10.9372
hub	-10.9376
▁přítele	-10.9377
▁bab	-10.9377
ckou	-10.9377
▁aktualizace	-10.9377
▁itálie	-10.9378
▁diváci	-10.9378
▁úpravu	-10.9379
▁prodejní	-10.9381
▁mj	-10.9381
átu	-10.9382
▁extrémní	-10.9382
čel	-10.9383
▁odjezd	-10.9385
▁středních	-10.9386
af	-10.9388
▁obchodů	-10.9389
▁technický	-10.9389
hloub	-10.9389
▁ošetření	-10.9391
ivá	-10.9397
org	-10.9397
wn	-10.94
▁region	-10.9401
▁kasíno	-10.9401
▁večera	-10.9402
služ	-10.9402
vah	-10.9402
▁blízké	-10.9402
▁natáčení	-10.9405
▁vezme	-10.941
ecký	-10.9413
▁brýle	-10.9414
▁chovatel	-10.9415
▁hora	-10.9418
padlo	-10.9419
pln	-10.942
▁transport	-10.9425
▁vložit	-10.9426
▁škodu	-10.9427
▁průměrný	-10.9428
▁trvale	-10.9428
▁napište	-10.9429
▁mgm	-10.9429
▁užívá	-10.9432
▁potká	-10.9433
▁oslavu	-10.9434
▁podstaty	-10.9434
▁odlišné	-10.9436
ickém	-10.9436
▁narozeninám	-10.944
bře	-10.9442
eme	-10.9444
▁světle	-10.9446
▁dodavatele	-10.9453
▁nízkou	-10.9453
▁abs	-10.9454
▁prodávat	-10.9454
har	-10.9455
▁musíš	-10.9456
sud	-10.9457
ah	-10.9457
zelen	-10.9459
▁youtube	-10.9461
▁žijící	-10.9461
▁hospodářství	-10.9462
▁stanoví	-10.9462
▁nucen	-10.9463
▁zdát	-10.9464
▁šach	-10.9466
ticky	-10.9466
▁###,##	-10.9469
▁paliva	-10.9469
▁hřbitov	-10.947
▁mistrů	-10.947
▁stejného	-10.947
▁games	-10.947
▁běžný	-10.9471
▁povolen	-10.9472
▁pruh	-10.9473
▁kopce	-10.9473
icko	-10.9474
▁předpokládám	-10.9475
mailem	-10.9476
gor	-10.9477
▁navštivte	-10.9478
▁sokol	-10.9481
▁doklady	-10.9481
▁lamp	-10.9482
dávat	-10.9486
ložený	-10.9488
▁mysl	-10.9489
▁kapacita	-10.9491
▁zelená	-10.9496
▁richard	-10.9499
▁uveden	-10.95
jdu	-10.95
▁použijte	-10.9501
izační	-10.9502
▁principu	-10.9503
děla	-10.9504
▁obvyklé	-10.9504
skému	-10.9505
padnout	-10.9505
▁omlouvám	-10.9506
▁svatební	-10.9507
▁zásah	-10.9507
plní	-10.9508
▁reklam	-10.9509
▁čtenáře	-10.9509
▁vědom	-10.951
▁spolehlivost	-10.9512
▁přidané	-10.9515
▁autě	-10.9517
▁značku	-10.9518
▁alba	-10.952
stát	-10.9521
▁plní	-10.9523
▁podobu	-10.9523
▁časopisu	-10.9526
▁obchody	-10.9526
▁společný	-10.9526
▁ekonom	-10.9528
▁užijte	-10.9528
▁řádek	-10.9532
▁dlouhodobý	-10.9534
tace	-10.9534
▁oprávnění	-10.9538
▁pp	-10.9539
▁výchozí	-10.9539
slo	-10.9541
▁konkurenční	-10.9541
krajin	-10.9545
▁uvítací	-10.9547
▁vzhůru	-10.9547
▁apartmán	-10.9547
▁židle	-10.9549
▁pozn	-10.9549
▁bát	-10.9549
▁nazývá	-10.955
áren	-10.9551
▁deníku	-10.9552
▁premiéra	-10.9553
▁turistické	-10.9553
▁vládě	-10.9555
▁řekli	-10.9555
ell	-10.9556
▁poslanec	-10.9556
podle	-10.9556
▁světových	-10.9556
▁zlepšit	-10.9557
▁slovenské	-10.9558
▁žalob	-10.9559
▁nevěděl	-10.9559
▁plod	-10.956
mr	-10.9561
▁hmot	-10.9562
▁nejsme	-10.9562
▁atlantic	-10.9564
▁pozemní	-10.9565
▁prochází	-10.9567
▁reprezentant	-10.9568
▁noviny	-10.9569
pul	-10.9569
▁slevy	-10.957
▁akademie	-10.9571
▁met	-10.9572
▁topení	-10.9572
▁dohodu	-10.9573
▁ptá	-10.9575
▁vědí	-10.9575
▁výrok	-10.9575
▁armáda	-10.9575
▁vzdálen	-10.9576
▁cor	-10.9576
▁sdělení	-10.9576
▁dostalo	-10.9578
▁sól	-10.9578
▁high	-10.9578
▁kytar	-10.9579
▁plemen	-10.958
▁tá	-10.958
leg	-10.958
▁povinností	-10.9587
cká	-10.9588
▁master	-10.9589
▁odchodu	-10.9589
veze	-10.959
▁kin	-10.9591
▁slev	-10.9597
▁krás	-10.9599
▁ukázala	-10.96
noc	-10.9601
▁stoly	-10.9601
▁umělecké	-10.9602
▁primární	-10.9609
▁obsahující	-10.9609
▁bylin	-10.9609
saz	-10.961
▁podpoře	-10.9613
▁lodě	-10.9613
áh	-10.9615
▁#:#,	-10.9616
▁prosinci	-10.9616
▁prst	-10.9618
▁uchazeče	-10.962
▁ča	-10.962
▁trápí	-10.9622
▁arm	-10.9622
▁zůstala	-10.9626
brán	-10.9628
▁dosti	-10.963
nis	-10.9631
▁svatého	-10.9634
telné	-10.9634
▁základy	-10.9635
▁tep	-10.9635
▁osobním	-10.9635
▁fanoušků	-10.9639
dvor	-10.9641
▁nákupní	-10.9641
▁hodlá	-10.9643
▁podílel	-10.9643
▁one	-10.9644
bin	-10.9645
▁zákrok	-10.9647
▁prsten	-10.9647
war	-10.965
▁samostatný	-10.9651
▁group	-10.9654
dělat	-10.9654
snad	-10.9654
▁sdělil	-10.9655
▁peněžní	-10.9656
▁sraz	-10.9657
▁oceli	-10.9659
▁izrael	-10.9659
▁senzor	-10.966
▁zvuku	-10.9661
▁tempo	-10.9663
▁tabulka	-10.9665
▁hodině	-10.9667
▁lucie	-10.9667
vědom	-10.9668
▁lok	-10.9674
▁celku	-10.9675
▁klíčové	-10.9675
▁expert	-10.9677
▁cestující	-10.9678
sní	-10.9679
čkách	-10.9682
kk	-10.9682
▁krom	-10.9682
▁obchodního	-10.9683
▁líbilo	-10.9685
▁che	-10.9686
▁čert	-10.9687
ickými	-10.9688
▁peč	-10.9688
▁fran	-10.9689
▁cestách	-10.9689
▁běžných	-10.9689
▁květen	-10.9689
▁štěpán	-10.969
▁spravedlnosti	-10.9695
▁nabízené	-10.9695
▁výnos	-10.9696
▁nechala	-10.9696
▁elektr	-10.97
hro	-10.97
▁lidu	-10.97
▁listu	-10.9702
árna	-10.9702
kce	-10.9703
ora	-10.9705
▁prsty	-10.9706
▁nerv	-10.9713
▁zachoval	-10.9713
▁mýt	-10.9715
lít	-10.9717
▁mezinárodního	-10.9718
▁požární	-10.9719
view	-10.9722
▁pokyny	-10.9722
▁léčby	-10.9724
▁balkon	-10.9725
prost	-10.9725
▁uvedeny	-10.9726
tj	-10.9727
▁komunikační	-10.9727
▁připravené	-10.9727
▁čest	-10.9727
▁verzí	-10.9728
▁příčinou	-10.9731
▁objekty	-10.9731
▁zákoníku	-10.9732
▁teplotu	-10.9735
klon	-10.9736
▁automobilů	-10.9736
▁massachusetts	-10.9738
▁konal	-10.974
▁domácího	-10.9741
start	-10.9741
▁lidové	-10.9742
▁považuji	-10.9743
jmu	-10.9746
▁žádostí	-10.9749
▁tabulce	-10.9749
ával	-10.9751
▁licenci	-10.9752
▁skříň	-10.9752
▁nedokáže	-10.9752
off	-10.9753
▁kontaktujte	-10.9754
valy	-10.9755
▁prvo	-10.9756
▁požár	-10.9758
▁konstrukcí	-10.976
▁jam	-10.9763
▁kvalitních	-10.9764
▁vojáků	-10.9766
▁pěší	-10.9767
▁dívka	-10.9768
▁variant	-10.9769
psaný	-10.9771
▁nádor	-10.9772
▁sněmovny	-10.9773
▁cu	-10.9776
▁wild	-10.9777
▁sboru	-10.9778
vající	-10.9778
▁producent	-10.9779
▁umožňující	-10.9781
▁připojen	-10.9783
▁výhoda	-10.9787
▁cl	-10.9788
▁lektor	-10.9788
▁bolí	-10.9788
io	-10.979
ula	-10.979
tru	-10.9793
▁sázky	-10.9793
▁ein	-10.9794
lých	-10.9795
▁následuje	-10.9795
nda	-10.9797
▁posílení	-10.9797
cke	-10.9798
▁komunity	-10.9798
▁existenci	-10.9801
▁titulu	-10.9802
▁prestižní	-10.9804
▁osn	-10.9806
▁večeři	-10.9806
▁sobotní	-10.9808
▁útvar	-10.981
▁chu	-10.981
▁zajímavou	-10.9812
▁mincí	-10.9812
▁napsala	-10.9813
dán	-10.9813
▁náskok	-10.9814
myslím	-10.9817
▁zapojit	-10.9817
dala	-10.9821
▁vědecké	-10.9828
▁nestojí	-10.9829
▁sotva	-10.9831
▁samy	-10.9833
▁vejce	-10.9833
▁tru	-10.9838
▁pevný	-10.9839
▁ztratí	-10.9839
▁úsek	-10.9839
▁lesk	-10.984
▁pražského	-10.9844
▁nastal	-10.9844
▁nízko	-10.9846
wan	-10.9846
▁dorazil	-10.9846
pc	-10.9847
▁brány	-10.9848
▁motocykl	-10.985
▁doplnění	-10.985
▁senátu	-10.9853
▁splnit	-10.9854
▁kalendář	-10.9858
▁motory	-10.9858
▁probíhat	-10.9862
pli	-10.9863
▁smlouvě	-10.9864
ety	-10.9867
▁zvýší	-10.9869
▁jedinci	-10.9869
▁ekologické	-10.987
▁finance	-10.9871
hz	-10.9872
kázal	-10.9873
▁komín	-10.9875
#:#	-10.9878
psat	-10.9878
▁sídlo	-10.9881
▁vidíme	-10.9882
kala	-10.9883
opak	-10.9884
▁kapitál	-10.9885
▁závodě	-10.9885
▁císař	-10.9888
▁otevřený	-10.9889
▁krevní	-10.9893
▁dráž	-10.9894
▁lidský	-10.9894
vést	-10.9896
▁způsobů	-10.9896
▁sestav	-10.99
lím	-10.99
ovna	-10.9901
▁ač	-10.9901
ša	-10.9901
▁spokojeni	-10.9903
▁pevnost	-10.9904
▁un	-10.9905
▁nábytku	-10.9905
▁vzkaz	-10.9906
▁politice	-10.9906
▁schválení	-10.9906
lor	-10.9907
stvo	-10.9908
▁zbraň	-10.9911
ovec	-10.9911
▁sortiment	-10.9912
▁vyšetřování	-10.9912
íčko	-10.9912
▁sportovních	-10.9915
▁střih	-10.9915
▁zkus	-10.9915
▁nepatří	-10.9915
hlas	-10.9917
▁záda	-10.9917
tlak	-10.9917
▁proběhlo	-10.9918
▁sektoru	-10.9919
▁dnešním	-10.9919
▁tržní	-10.9923
morav	-10.9923
▁minulém	-10.9924
▁palet	-10.9925
pravil	-10.9928
▁překvapivě	-10.9932
▁interní	-10.9934
▁opatřen	-10.9934
▁fungují	-10.9936
▁dostatečné	-10.9936
▁označil	-10.9938
▁literatury	-10.9938
ning	-10.9939
nar	-10.994
klam	-10.9944
ismem	-10.9946
▁působit	-10.9947
▁minutách	-10.9947
▁uč	-10.9948
▁putin	-10.9951
lip	-10.9952
▁doplň	-10.9952
plán	-10.9953
▁stavět	-10.9953
▁miloš	-10.9953
typ	-10.9954
▁způsobit	-10.9955
hnul	-10.9956
▁následky	-10.9958
▁epi	-10.9958
chat	-10.9959
▁napájení	-10.9959
▁používal	-10.9959
▁qua	-10.9961
lly	-10.9962
▁home	-10.9962
▁management	-10.9962
▁vyrazil	-10.9962
▁pap	-10.9964
▁italské	-10.9964
▁původ	-10.9964
▁kampaně	-10.9966
▁dědictví	-10.9969
▁dvořák	-10.9969
cké	-10.997
▁psů	-10.9973
▁pražském	-10.9973
zor	-10.9973
▁lcd	-10.9973
▁užít	-10.9975
▁přispívá	-10.9975
▁městského	-10.9975
▁šancí	-10.9976
vým	-10.9977
▁výuky	-10.9978
ačních	-10.9978
▁hospodaření	-10.9981
##.##.####	-10.9981
▁obdrží	-10.9982
▁hodnocen	-10.9982
▁dialog	-10.9985
bír	-10.9986
▁počítačů	-10.9986
▁pádem	-10.999
▁jedenáct	-10.999
istický	-10.9991
▁obránce	-10.9991
▁zůstávají	-10.9991
▁tref	-10.9991
▁přicházejí	-10.9993
▁vzala	-10.9993
▁krizi	-10.9994
▁důležitou	-10.9994
▁diváků	-10.9995
▁magnet	-10.9996
▁uživatelům	-10.9997
▁odborných	-10.9998
▁techniku	-11.0001
▁starat	-11.0002
▁zub	-11.0003
násob	-11.0004
▁obnov	-11.0004
▁duel	-11.0005
▁podává	-11.0005
▁přesun	-11.0005
san	-11.0006
▁dobrým	-11.0006
▁zaměřuje	-11.0006
▁lorna	-11.0006
▁vydali	-11.0007
▁procesor	-11.0007
ujícím	-11.0008
▁slušný	-11.001
▁lem	-11.001
▁hydro	-11.001
tov	-11.001
▁suchý	-11.0011
▁americe	-11.0013
▁kočky	-11.0015
▁ikony	-11.0018
▁nějakých	-11.0018
▁pravděpodobné	-11.0019
▁kolon	-11.0022
amp	-11.0023
▁srdci	-11.0025
▁slovensko	-11.0026
▁cílů	-11.0026
▁populace	-11.0028
▁smetan	-11.0033
▁postel	-11.0035
▁jindřich	-11.0036
▁předních	-11.0037
▁wifi	-11.0038
▁dovednost	-11.0039
▁brambor	-11.0039
počet	-11.0039
▁solidní	-11.0039
▁okresní	-11.0039
▁záři	-11.0044
▁vrstvy	-11.0044
▁přesvědčit	-11.0045
▁třikrát	-11.0045
▁zábavní	-11.0045
natý	-11.0049
▁zúčastnil	-11.0049
▁tepelné	-11.0049
▁obchodě	-11.005
▁podobná	-11.0051
čák	-11.0054
▁kle	-11.0055
▁památky	-11.0056
▁lince	-11.0058
▁perfektně	-11.0058
▁okay	-11.0059
▁katalog	-11.0061
▁objev	-11.0063
▁slyšel	-11.0063
elo	-11.0063
zl	-11.0065
▁garáž	-11.0067
▁zeď	-11.0068
▁prodat	-11.0069
▁jindy	-11.0071
▁make	-11.0071
může	-11.0074
▁vesmíru	-11.0074
nila	-11.0075
▁jízdě	-11.0075
▁tunel	-11.0077
▁lyžování	-11.008
právní	-11.0085
▁modrá	-11.0089
▁pravidlo	-11.009
nických	-11.009
▁obrazovce	-11.0091
cová	-11.0092
▁dohodě	-11.0093
▁vyjádřit	-11.0095
▁přiznat	-11.0095
▁dohled	-11.0095
▁kódu	-11.0099
▁česky	-11.0103
vra	-11.0105
▁místy	-11.0106
▁piv	-11.0107
zar	-11.0108
▁nářadí	-11.011
▁neposlední	-11.0113
las	-11.0113
▁cukru	-11.0113
▁pomáhat	-11.0114
▁pasivní	-11.0118
▁lékařské	-11.0119
▁komiks	-11.012
▁nestalo	-11.0121
▁porazil	-11.0121
▁sníh	-11.0121
ear	-11.0122
▁nema	-11.0123
▁trvání	-11.0123
▁úprav	-11.0123
▁dětská	-11.0123
▁výstavbu	-11.0124
▁poskytovat	-11.0126
▁akumulátor	-11.0129
▁studijní	-11.013
▁podpořil	-11.0135
▁tim	-11.0135
▁kartou	-11.0135
▁výměna	-11.0137
▁dynam	-11.0139
livý	-11.014
▁právních	-11.0141
▁základu	-11.0141
izoval	-11.0142
▁nádob	-11.0144
▁vaším	-11.0145
poru	-11.0148
▁náladu	-11.0148
try	-11.0148
klep	-11.0148
lák	-11.0149
pás	-11.0149
▁kompletně	-11.0149
▁oděv	-11.0151
▁původního	-11.0152
▁potřebujeme	-11.0155
něné	-11.0155
▁nakladatelství	-11.0157
▁držák	-11.0158
ess	-11.016
▁sezónu	-11.0161
▁běhu	-11.0161
▁def	-11.0164
▁dj	-11.0165
▁četné	-11.0167
▁vin	-11.017
▁rukáv	-11.0171
▁prošel	-11.0172
čat	-11.0172
eného	-11.0173
▁otevře	-11.0176
▁kontaktovat	-11.0177
dru	-11.0179
▁křesťan	-11.0183
bek	-11.0186
nský	-11.0187
níka	-11.019
kého	-11.0191
▁vět	-11.0191
▁smí	-11.0193
ld	-11.0198
▁osobního	-11.0198
▁dlužník	-11.0203
▁samotná	-11.0204
mlouvá	-11.0205
▁reklama	-11.0206
▁koukal	-11.0206
▁zabývat	-11.0207
inou	-11.0209
▁bezpečnostních	-11.0213
▁devíti	-11.0214
▁klesá	-11.0214
▁současného	-11.0215
▁stole	-11.0216
▁věcech	-11.0217
▁označen	-11.0219
tvořil	-11.0219
▁poplatku	-11.022
▁únoru	-11.022
▁představoval	-11.022
▁letadlo	-11.0223
▁nasekal	-11.0229
▁nošení	-11.0229
▁složitější	-11.023
vkou	-11.0232
▁chuti	-11.0232
▁točit	-11.0234
▁krásnou	-11.0235
▁efektivně	-11.0236
▁josefa	-11.0236
▁menších	-11.0238
▁mějte	-11.0238
tre	-11.0241
ari	-11.0249
▁cloud	-11.025
sad	-11.0253
▁pohybovat	-11.0253
▁policii	-11.0254
míst	-11.0254
▁tan	-11.0256
▁#.#.#	-11.0257
▁ukončil	-11.0257
hlášen	-11.0257
▁propad	-11.0258
▁hard	-11.026
▁těšíme	-11.0261
▁cyklu	-11.0262
▁duševní	-11.0263
▁desku	-11.0265
likvid	-11.0265
▁stupni	-11.0265
▁zakázek	-11.0266
▁upraven	-11.0268
▁zkrat	-11.0269
▁kře	-11.0269
▁zázrak	-11.0272
dával	-11.0272
▁servisní	-11.0272
▁charakteru	-11.0274
▁disciplín	-11.0275
▁zelený	-11.0277
ern	-11.0279
dd	-11.028
▁form	-11.0282
jas	-11.0283
▁mléka	-11.0285
▁upřímně	-11.0286
ero	-11.0286
▁desetiletí	-11.0287
kaž	-11.0287
brala	-11.0289
▁ochranné	-11.0293
tně	-11.0294
sadit	-11.0296
myslel	-11.0297
▁hmoty	-11.0297
ass	-11.0298
▁zaměstnanec	-11.0304
ňat	-11.0305
▁lidská	-11.0305
▁konflikt	-11.0306
▁emoce	-11.0306
▁životopis	-11.0308
▁německého	-11.0311
▁rozvoji	-11.0311
▁držel	-11.0312
▁celkovou	-11.0315
▁věta	-11.0316
▁církevní	-11.0317
tej	-11.0318
▁prostějov	-11.0318
▁ús	-11.0319
zákon	-11.032
barv	-11.032
oc	-11.0322
▁nepříjemné	-11.0323
taj	-11.0325
čík	-11.0331
▁past	-11.0331
▁půdě	-11.0332
ším	-11.0332
▁trenéra	-11.0332
▁trysky	-11.0336
gs	-11.0337
▁trendy	-11.0338
▁vyhovuje	-11.034
dávají	-11.034
▁sum	-11.0341
▁profesní	-11.0342
lic	-11.0343
tříd	-11.0343
▁přispěl	-11.0344
▁matrace	-11.0346
▁ropy	-11.0346
▁přeprav	-11.0347
▁tenkrát	-11.0347
▁psí	-11.0349
▁těžší	-11.0349
▁vlevo	-11.0351
▁středisko	-11.0352
▁škálu	-11.0354
▁absolvovali	-11.0356
▁krajského	-11.0357
éry	-11.0358
▁střechy	-11.0359
▁pot	-11.0361
▁vůli	-11.0362
▁akt	-11.0362
dáme	-11.0363
▁zdálo	-11.0365
▁věnoval	-11.0367
▁břehu	-11.0369
▁luc	-11.0369
stávají	-11.0369
▁vládu	-11.037
▁full	-11.0373
▁nebudeme	-11.0376
▁dámské	-11.0377
▁žal	-11.0379
spekt	-11.038
▁vzdálené	-11.0388
letého	-11.039
stoupí	-11.039
tlačen	-11.0392
hlížet	-11.0395
▁hluboké	-11.0395
vad	-11.0396
▁informoval	-11.0397
▁účinné	-11.0399
teri	-11.0399
▁střed	-11.0399
▁uklid	-11.04
▁lese	-11.0401
▁nechcete	-11.0401
▁reality	-11.0404
▁vystoupil	-11.0404
▁prachy	-11.0406
nského	-11.0407
▁střet	-11.0407
▁navržen	-11.0409
ht	-11.0411
nec	-11.0411
▁odraz	-11.0411
rich	-11.0413
ovkou	-11.0417
▁knihovna	-11.0418
▁kreditů	-11.0418
▁posléze	-11.0419
ure	-11.0419
▁životem	-11.042
▁dosahuje	-11.042
▁tomáše	-11.0422
▁čtenáři	-11.0424
▁celní	-11.0424
▁pozemky	-11.0425
▁líto	-11.0426
▁slušné	-11.0427
hřát	-11.0427
▁příštím	-11.0428
mana	-11.0429
ovanými	-11.0437
avě	-11.0437
▁investic	-11.0438
šle	-11.0441
▁týmem	-11.0441
▁červenci	-11.0442
lc	-11.0442
▁ford	-11.0443
▁mari	-11.0446
▁tradici	-11.0446
▁postaví	-11.0446
▁kmh	-11.0448
seznam	-11.0448
nickou	-11.0448
▁těžce	-11.0449
▁sever	-11.045
▁vozík	-11.045
▁prevence	-11.0451
▁portálu	-11.0454
řád	-11.0454
▁obsahovat	-11.0455
▁smluvní	-11.0457
▁rez	-11.0458
ory	-11.0459
chová	-11.046
▁retro	-11.0462
čů	-11.0465
▁umělé	-11.0466
ile	-11.0469
▁jádro	-11.0469
▁prahu	-11.047
▁inovativní	-11.0471
▁délky	-11.0472
▁uváděn	-11.0472
▁králov	-11.0473
▁vlny	-11.0473
▁starou	-11.0474
trén	-11.0477
▁dort	-11.0478
▁team	-11.0478
▁trenčíně	-11.048
▁letecké	-11.048
▁tet	-11.0481
▁muselo	-11.0481
▁hospoda	-11.0482
▁vypl	-11.0483
▁odsouzen	-11.0483
bylo	-11.0483
sem	-11.0484
platil	-11.0484
▁francouzský	-11.0487
rio	-11.0487
lám	-11.0489
▁modulu	-11.0489
▁třiceti	-11.0491
▁zbroj	-11.0493
▁brit	-11.0493
▁zachovat	-11.0494
▁zahrát	-11.0494
▁specifikace	-11.0497
řin	-11.0499
▁ikon	-11.05
lec	-11.05
▁speciálních	-11.05
▁záruka	-11.0501
ás	-11.0502
▁hoře	-11.0502
▁sociálně	-11.0504
▁účastní	-11.0507
ložit	-11.0508
▁třicet	-11.0509
▁socialisti	-11.0509
opis	-11.0509
▁dovnitř	-11.0509
▁sexy	-11.051
řeš	-11.0511
▁pres	-11.0512
▁učitele	-11.0512
▁sociálního	-11.0513
hýb	-11.0513
▁skříně	-11.0515
hrával	-11.0515
......	-11.0519
▁zažít	-11.052
▁chránit	-11.0521
▁omezit	-11.0521
▁poradce	-11.0522
▁myslíš	-11.0523
▁itálii	-11.0524
koupil	-11.0525
dár	-11.0526
▁nemusel	-11.0526
▁dna	-11.0529
orient	-11.0529
ovače	-11.053
▁anglický	-11.0531
trhl	-11.0531
▁současných	-11.0535
▁upozorňuje	-11.0536
▁matěj	-11.0536
▁kolín	-11.0537
▁pout	-11.0538
ať	-11.0539
▁rybník	-11.054
▁uvolnit	-11.0542
▁jó	-11.0542
▁regulace	-11.0545
▁pravou	-11.0545
▁trefil	-11.0545
▁kouzlo	-11.0546
▁lis	-11.0549
íci	-11.055
use	-11.0551
▁sestra	-11.0552
▁potřebuji	-11.0553
▁sdílet	-11.0554
ule	-11.0554
▁počítačové	-11.0554
ivě	-11.0555
▁dívat	-11.0556
vek	-11.0556
▁stravy	-11.0557
nášel	-11.0557
▁naplno	-11.0558
▁zemědělské	-11.0558
▁drak	-11.0559
▁evropskou	-11.056
▁kamene	-11.056
▁účetnictví	-11.0561
▁kamery	-11.0561
▁dnešního	-11.0562
▁eko	-11.0563
denní	-11.0563
slab	-11.0567
▁zaručen	-11.0567
zon	-11.0568
book	-11.0569
čt	-11.0571
▁pohádky	-11.0571
▁ráz	-11.0572
▁planety	-11.0574
▁partnerem	-11.0576
text	-11.0577
pálení	-11.0577
kovým	-11.0578
▁mol	-11.0579
▁scéně	-11.058
▁vyroben	-11.0581
▁vyhráli	-11.0582
▁vydá	-11.0583
▁hale	-11.0587
▁konečný	-11.059
▁omezené	-11.059
▁mojí	-11.0591
▁vedla	-11.0591
▁realizovat	-11.0593
financ	-11.0594
▁lži	-11.0594
▁obvodu	-11.0596
▁furt	-11.0596
▁leg	-11.0601
▁rudolf	-11.0602
▁daného	-11.0602
▁nejvýznamnější	-11.0603
▁sleva	-11.0604
▁zrušit	-11.0604
▁doplněn	-11.0605
▁potíží	-11.0605
žné	-11.0606
▁zbývá	-11.0611
▁nejpopulárnější	-11.0613
▁jihu	-11.0614
▁existující	-11.0617
▁skot	-11.0617
shopu	-11.0619
▁předvedl	-11.0619
lán	-11.0621
▁pneumatik	-11.0622
hledá	-11.0622
▁logické	-11.0622
▁číně	-11.0627
minut	-11.0627
▁provozovatel	-11.0627
chyl	-11.0629
nců	-11.0629
není	-11.063
▁něčem	-11.063
▁reagoval	-11.0631
odboč	-11.0633
▁léčbu	-11.0633
ráží	-11.0633
▁harry	-11.0635
sáhl	-11.0635
▁přihlásil	-11.0636
▁ladislav	-11.0636
▁přátele	-11.0639
▁převzetí	-11.0639
▁povol	-11.064
▁pláži	-11.0641
int	-11.0642
▁obyčejný	-11.0643
▁spojuje	-11.0645
▁budování	-11.0651
poč	-11.0653
vatel	-11.0654
▁ráj	-11.0655
pustit	-11.0656
▁doplnit	-11.0657
▁přesný	-11.0658
▁uložit	-11.0659
▁úkolů	-11.0659
▁akcií	-11.0659
▁oblíbenou	-11.0661
▁rozhoduje	-11.0661
čk	-11.0662
chal	-11.0663
▁porazit	-11.0663
▁příklady	-11.0663
▁čsn	-11.0667
▁svěřen	-11.0667
▁motorem	-11.0669
▁znaky	-11.0669
▁případu	-11.067
▁zvolil	-11.0671
▁přijel	-11.0671
▁zapomenout	-11.0672
▁omezen	-11.0672
▁obývací	-11.0674
▁následujícím	-11.0674
▁poznal	-11.0676
▁ledvin	-11.0676
▁mozek	-11.0677
▁kontakty	-11.0678
▁stačil	-11.0679
▁nezná	-11.0679
▁vzniklo	-11.068
▁pozdrav	-11.0681
▁spánku	-11.0681
▁tipsport	-11.0682
▁slep	-11.0682
▁nejrůznějších	-11.0683
▁členské	-11.0683
tých	-11.0684
▁nechali	-11.0685
well	-11.0685
▁srpnu	-11.0686
▁účinek	-11.0686
▁projevil	-11.0687
oh	-11.0687
bili	-11.0687
mus	-11.0689
jeli	-11.0689
háj	-11.069
propag	-11.0691
▁postupovat	-11.0693
▁slaví	-11.0695
▁lv	-11.0697
▁ocitl	-11.0699
hd	-11.0701
▁partnery	-11.0701
▁přinejmenším	-11.0702
▁špatná	-11.0702
dis	-11.0702
▁přiznání	-11.0703
▁setkal	-11.0705
▁##.#	-11.0706
▁stavebního	-11.0708
▁island	-11.0709
▁spotřeby	-11.0711
▁uplatnit	-11.0711
▁čtvrti	-11.0713
▁analýza	-11.0713
zkoušen	-11.0714
▁silná	-11.0715
ány	-11.0715
▁křiv	-11.0716
▁velitel	-11.0718
cet	-11.0718
glo	-11.0718
▁splnil	-11.0718
▁výstavby	-11.0719
čuje	-11.072
▁minutu	-11.072
▁antonín	-11.0721
▁dodavatel	-11.0722
▁gps	-11.0722
▁blá	-11.0723
▁zaručuje	-11.0723
▁zklamání	-11.0723
▁snížil	-11.0724
elných	-11.0725
▁skalní	-11.0725
dh	-11.0727
▁.....	-11.0728
▁reportáž	-11.0729
▁sw	-11.0732
▁mart	-11.0732
▁vrstev	-11.0732
▁přízemí	-11.0738
▁veletrhu	-11.0738
▁komunikovat	-11.0739
▁vyrobit	-11.0739
▁servisu	-11.0739
▁rodinou	-11.0739
plý	-11.0739
▁výcvik	-11.0742
izuje	-11.0743
▁násobitel	-11.0743
▁určeno	-11.0744
▁revoluce	-11.0747
▁děs	-11.0748
▁udržovat	-11.0748
▁snažili	-11.0748
▁shromáždění	-11.0749
▁zastavení	-11.0752
▁organismu	-11.0753
▁jakožto	-11.0753
▁nastoupil	-11.0755
▁komplet	-11.076
▁poslech	-11.076
▁zakladatel	-11.0763
tkem	-11.0764
▁frank	-11.0765
▁interpret	-11.0766
▁firmou	-11.0768
ničky	-11.077
▁řidiči	-11.0772
▁turnaji	-11.0772
▁objedná	-11.0773
▁účastník	-11.0774
▁knižní	-11.0774
▁zástupců	-11.0774
▁rybář	-11.0774
pisovat	-11.0776
bývají	-11.0776
▁řemesl	-11.0777
▁komunist	-11.0777
▁prvé	-11.0778
▁obsažen	-11.0779
▁nabízen	-11.0784
oň	-11.0784
▁brzo	-11.0784
▁veřejnou	-11.0786
elnou	-11.079
▁politik	-11.0791
▁salon	-11.0792
▁orgánu	-11.0792
##%	-11.0792
▁úvodu	-11.0794
▁slíbil	-11.0794
▁moderních	-11.0795
▁předsedy	-11.0796
▁počkat	-11.0796
▁workshop	-11.0799
▁ostrově	-11.0799
▁břez	-11.08
leb	-11.0801
▁způsobuje	-11.0801
▁činu	-11.0803
▁kamarády	-11.0804
▁státě	-11.0806
▁hračky	-11.0808
izován	-11.0808
▁fotbalové	-11.0808
▁audi	-11.0808
▁zahrál	-11.0809
▁tamní	-11.081
▁horké	-11.081
▁deklar	-11.0811
▁byznys	-11.0814
▁osborne	-11.0817
▁oznámila	-11.0817
inform	-11.0822
▁blbost	-11.0824
▁časté	-11.0824
▁vybrali	-11.0826
▁kříže	-11.0827
lování	-11.0828
▁telefonů	-11.0828
▁volbu	-11.0828
▁kostým	-11.0828
ph	-11.0829
▁struktury	-11.0829
▁řek	-11.083
▁držitel	-11.083
▁nizozem	-11.0832
▁nápoj	-11.0833
▁sledoval	-11.0835
▁doručení	-11.0837
▁poštovní	-11.0838
▁podobnou	-11.0838
zn	-11.0842
▁pomáhal	-11.0844
▁spokojená	-11.0845
▁stresu	-11.0846
▁svátek	-11.0846
▁připomněl	-11.0848
▁cenné	-11.0848
lů	-11.0849
▁příjemná	-11.0849
tovat	-11.085
▁číslem	-11.085
▁schopností	-11.0851
jat	-11.0851
▁del	-11.0852
▁nepochybně	-11.0853
▁mand	-11.0854
▁zaměřen	-11.0855
▁otočil	-11.0855
▁uvolnění	-11.0857
▁dán	-11.0857
▁zničen	-11.0859
▁předsedou	-11.0859
▁přemýšlel	-11.0859
▁mostu	-11.086
▁poptáv	-11.0862
▁nosit	-11.0863
tvor	-11.0864
▁absolvent	-11.0865
▁mříž	-11.0866
▁jaderné	-11.0868
rovna	-11.0871
ved	-11.0873
▁prohrál	-11.0875
▁skončit	-11.0877
▁pronájmu	-11.0877
▁pokojů	-11.0878
▁zastupitel	-11.0879
▁rodinného	-11.088
▁international	-11.088
pálil	-11.0881
▁testovací	-11.0881
ovského	-11.0882
kuje	-11.0883
▁gro	-11.0884
ivou	-11.0886
▁jazyce	-11.0886
▁výdajů	-11.0886
▁půjček	-11.0887
▁dobrých	-11.0887
▁rychlo	-11.0888
▁spal	-11.0891
nin	-11.0892
▁chtělo	-11.0892
▁tvůrci	-11.0893
▁maximum	-11.0893
▁veterán	-11.0893
▁kocour	-11.0893
▁laser	-11.0894
▁čtvrté	-11.0897
plně	-11.09
▁rub	-11.09
▁rodinných	-11.0901
▁obrazy	-11.0901
▁kdekoliv	-11.0901
chůd	-11.0902
▁anna	-11.0902
▁displeje	-11.0904
▁vrstva	-11.0906
▁přístav	-11.0907
▁modrý	-11.0909
▁učinil	-11.0909
▁nerad	-11.0909
▁ovládá	-11.091
▁významu	-11.0911
ovaném	-11.0911
pravděpodobností	-11.0912
▁stihl	-11.0912
▁pravidelný	-11.0912
▁parametrů	-11.0912
▁sestavy	-11.0913
▁nádobí	-11.0914
▁zóny	-11.0919
▁krk	-11.0921
▁závěs	-11.0922
▁zahradu	-11.0925
▁olomouci	-11.0926
ight	-11.0928
▁sady	-11.0929
▁zjistila	-11.093
▁rol	-11.093
▁těles	-11.093
enka	-11.0933
▁výlety	-11.0935
▁nájemní	-11.0935
▁litrů	-11.0935
▁zastav	-11.0936
▁téhle	-11.0936
▁ohrožení	-11.0938
▁kruh	-11.0938
ňující	-11.0938
▁přijal	-11.0939
air	-11.0939
▁kohout	-11.094
▁projevuje	-11.094
▁listin	-11.0941
▁účinnost	-11.0943
▁doplňuje	-11.0944
▁nákladní	-11.0946
šte	-11.0946
▁jist	-11.0948
▁priorit	-11.0949
▁spis	-11.0949
eti	-11.095
▁výhledem	-11.0951
▁občanského	-11.0953
▁přirozený	-11.0955
▁přijďte	-11.0957
▁raket	-11.0957
rová	-11.0959
▁obrátil	-11.096
př	-11.096
▁ste	-11.0961
▁rozhodnete	-11.0962
▁pěkná	-11.0963
▁odejít	-11.0964
▁určitých	-11.0966
▁chov	-11.0967
ladit	-11.0968
▁blogu	-11.0969
ovité	-11.097
▁vypadal	-11.0972
▁papíru	-11.0973
ive	-11.0975
ery	-11.0976
▁spojil	-11.0976
▁řídící	-11.0976
▁ital	-11.0977
▁vytvořili	-11.0979
▁pin	-11.0979
blok	-11.098
jed	-11.0983
▁kalhoty	-11.0984
▁nežádoucí	-11.0985
▁vyvolá	-11.0985
▁slun	-11.0985
▁původním	-11.0985
▁ničemu	-11.0986
▁přátelství	-11.0986
síla	-11.0987
▁diagnostik	-11.0987
▁čechů	-11.0987
▁hluboko	-11.0988
staví	-11.0988
▁medvěd	-11.0989
▁dobrém	-11.0991
▁adres	-11.0993
▁zvíře	-11.0997
tat	-11.0998
▁hodnotit	-11.1
▁výtah	-11.1
▁šat	-11.1003
▁senátor	-11.1005
▁mezinárodních	-11.1007
bul	-11.101
ián	-11.1011
▁masáž	-11.1012
▁sousední	-11.1013
inter	-11.1013
rand	-11.1013
▁odboru	-11.1015
▁rozvíjet	-11.1015
▁předchozím	-11.1016
▁autorem	-11.1017
pravd	-11.1017
ert	-11.1019
krit	-11.1021
▁tha	-11.1021
▁výměnu	-11.1021
▁redaktor	-11.1025
▁operací	-11.1025
▁kvalifikace	-11.1028
▁karlovy	-11.1029
▁úp	-11.103
▁podal	-11.103
vost	-11.1031
▁rozhlas	-11.1032
▁chovat	-11.1032
▁elektrárny	-11.1034
ráže	-11.1034
▁krajský	-11.1034
▁řešil	-11.1034
▁pustil	-11.1035
▁výstavu	-11.1036
▁pořídil	-11.1037
▁prádlo	-11.1037
oper	-11.1038
▁říše	-11.1038
▁příjemnou	-11.1039
řed	-11.1041
tina	-11.1041
▁bill	-11.1041
▁hranic	-11.1042
▁odolné	-11.1043
hlásí	-11.1043
▁nabízím	-11.1044
▁údržbu	-11.1046
▁linka	-11.1047
▁jasno	-11.1048
▁definitivně	-11.1049
▁pražský	-11.105
▁sále	-11.1052
▁dohoda	-11.1053
▁hotovost	-11.1053
álu	-11.1054
▁radek	-11.1056
▁hřích	-11.1058
▁plánované	-11.1058
▁svěží	-11.1059
▁ocení	-11.106
▁splňuje	-11.1062
▁dělali	-11.1064
▁smích	-11.1066
▁nevidí	-11.1066
sat	-11.1067
▁bezpečí	-11.1069
▁roll	-11.1074
▁rohu	-11.1083
▁hasiči	-11.1084
▁stojan	-11.1084
▁čaje	-11.1085
ád	-11.1089
▁kvalitního	-11.1089
▁učil	-11.1092
▁prezentaci	-11.1094
▁ventilátor	-11.1094
▁bezpečně	-11.1094
ktor	-11.1095
hraje	-11.1096
idel	-11.1097
spí	-11.1098
idi	-11.1098
▁vybere	-11.1103
▁krajiny	-11.1103
▁dávám	-11.1103
▁vlek	-11.1104
▁novými	-11.1105
▁uv	-11.1107
▁hold	-11.111
tají	-11.111
ínek	-11.1111
▁pozemků	-11.1115
▁malém	-11.1117
▁španěl	-11.1118
▁poděkovat	-11.1118
▁krokem	-11.112
▁zájezd	-11.112
pus	-11.1123
▁vel	-11.1123
▁odpovědnosti	-11.1123
▁praž	-11.1129
▁nevada	-11.1131
inger	-11.1132
▁třetího	-11.1132
soud	-11.1136
▁důchodu	-11.1136
▁odpovídal	-11.1137
vaná	-11.1137
teče	-11.1138
▁slušně	-11.1138
win	-11.1141
▁činil	-11.1142
▁portugal	-11.1143
▁písní	-11.1149
▁konzerv	-11.1149
▁semináře	-11.1151
▁nalezen	-11.1152
íka	-11.1152
▁současná	-11.1152
▁očekával	-11.1152
▁tapety	-11.1153
▁profilu	-11.1154
▁spolupracuje	-11.1154
▁znamenat	-11.1155
▁studovat	-11.1161
▁prima	-11.1161
▁pojďme	-11.1162
▁jel	-11.1163
▁obrázků	-11.1163
▁vyhrála	-11.1165
nutím	-11.1168
▁podrobné	-11.1168
▁###,#	-11.1171
erie	-11.1171
▁koalice	-11.1171
▁setká	-11.1172
▁sním	-11.1173
ust	-11.1174
▁zdravotním	-11.1175
▁radosti	-11.1176
▁stadionu	-11.1176
tvrd	-11.1177
kvalifik	-11.1177
▁hostů	-11.1178
▁grant	-11.1179
rož	-11.1179
▁pozdější	-11.118
▁kontrole	-11.1183
▁beze	-11.1184
▁kos	-11.1184
▁čísle	-11.1187
mícháme	-11.1187
▁bul	-11.1188
platit	-11.1189
▁absolvoval	-11.1189
▁čtk	-11.119
▁góly	-11.119
▁družstva	-11.119
▁street	-11.119
▁symbolů	-11.1191
idy	-11.1191
▁zaveden	-11.1193
▁zakázku	-11.1193
▁nízká	-11.1193
▁elektronických	-11.1194
tová	-11.1194
▁výborná	-11.1194
▁náhradu	-11.1197
▁metodu	-11.1199
▁pojišťovna	-11.12
tlačit	-11.1202
▁časů	-11.1202
▁němci	-11.1203
▁smr	-11.1206
▁garant	-11.1207
rus	-11.1207
▁očích	-11.1207
▁popel	-11.1207
▁volno	-11.1212
▁napříč	-11.1212
▁zařadil	-11.1212
▁poslanecké	-11.1213
▁příjezd	-11.1213
▁lidského	-11.1215
▁spojit	-11.1215
▁místním	-11.1215
▁koukám	-11.1216
enské	-11.1216
▁zkontrolovat	-11.1218
▁kávy	-11.122
▁mit	-11.1221
▁neutral	-11.1222
▁zásady	-11.1222
▁tráví	-11.1222
▁slovní	-11.1223
▁uzavřené	-11.1224
▁myši	-11.1224
ivně	-11.1227
▁texas	-11.123
▁vitamin	-11.1231
▁plac	-11.1231
kovy	-11.1233
čan	-11.1234
▁sektor	-11.1235
▁prostředek	-11.1237
▁antén	-11.1239
šlap	-11.1239
▁koření	-11.124
íčky	-11.124
▁silnic	-11.1242
▁náraz	-11.1243
▁mak	-11.1246
▁dokumentaci	-11.1248
▁diplom	-11.125
enu	-11.125
stři	-11.1251
▁brad	-11.1251
tinu	-11.1251
▁drob	-11.1252
dav	-11.1252
▁kariéru	-11.1253
▁nutnost	-11.1256
▁nefunguje	-11.1256
▁redakce	-11.1256
▁myš	-11.1257
▁aspekt	-11.126
▁správná	-11.126
▁logicky	-11.126
střih	-11.1261
▁údaj	-11.1261
▁prázdnin	-11.1264
▁zádech	-11.1264
▁významných	-11.1265
▁podzemní	-11.1266
pán	-11.1267
▁ren	-11.1267
ire	-11.1267
▁pneu	-11.1268
itelný	-11.1269
▁mah	-11.1269
▁vazby	-11.127
▁zdravotnické	-11.1272
▁kaz	-11.1274
▁budějovice	-11.1278
▁kamenné	-11.1281
▁soupeři	-11.1282
autor	-11.1284
tiku	-11.1284
▁volá	-11.1285
latin	-11.1287
▁kamer	-11.1287
▁turistů	-11.1289
▁írán	-11.129
▁chyběl	-11.1292
▁bá	-11.1293
▁myslela	-11.1293
iš	-11.1293
práv	-11.1294
▁bydliště	-11.1294
▁česnek	-11.1295
ping	-11.1295
▁zubní	-11.1298
ric	-11.1298
▁přípravky	-11.1298
▁manžela	-11.1299
ače	-11.1299
▁otevírá	-11.1303
▁díle	-11.1306
▁administrativní	-11.1307
▁gt	-11.1308
▁zavře	-11.131
▁krá	-11.1311
▁smart	-11.1316
▁cat	-11.1318
▁obličej	-11.1319
▁běl	-11.132
▁vyprávění	-11.132
krýt	-11.132
átoři	-11.1321
▁zápor	-11.1322
inka	-11.1322
▁uprav	-11.1323
▁zaplatil	-11.1323
čísl	-11.1323
▁ide	-11.1327
▁variantu	-11.1328
▁naučí	-11.1329
▁miminko	-11.1336
▁polohy	-11.1336
▁omyl	-11.1337
▁kroku	-11.1337
▁koncepce	-11.134
▁osobností	-11.134
▁oprava	-11.134
▁palm	-11.1341
▁jemně	-11.1342
▁zvládnout	-11.1345
▁statistiky	-11.1349
▁dodržování	-11.1349
▁někdejší	-11.1351
▁středně	-11.1353
▁fyzicky	-11.1355
▁dceru	-11.1356
▁partnerů	-11.1357
▁přehrávač	-11.1358
▁stavbě	-11.1361
▁fotografii	-11.1361
▁raj	-11.1362
▁vytesaný	-11.1364
▁reprezentace	-11.1365
▁kouzel	-11.1365
áme	-11.1365
svítil	-11.1366
▁národa	-11.1369
▁pozná	-11.137
▁vyrobena	-11.137
sedl	-11.137
▁keno	-11.1372
▁bel	-11.1372
gal	-11.1372
▁funkčnost	-11.1374
▁léčiv	-11.1375
▁snahu	-11.1376
▁výpočet	-11.1376
▁kláves	-11.1376
▁ostrova	-11.1378
▁snímků	-11.1381
▁fra	-11.1382
▁významně	-11.1383
▁kras	-11.1384
▁zahrádk	-11.1386
▁takzvané	-11.1387
▁úzké	-11.1387
▁listopad	-11.1387
los	-11.1389
▁plném	-11.139
map	-11.1391
▁brigád	-11.1391
▁studené	-11.1391
▁mise	-11.1392
čo	-11.1394
▁bru	-11.1394
▁stáří	-11.1397
▁začnete	-11.14
▁audit	-11.1402
▁klobouk	-11.1403
▁dětských	-11.1403
▁prodávající	-11.141
▁málem	-11.1416
▁pádu	-11.1417
#######	-11.1418
cové	-11.1418
▁nezbývá	-11.1421
▁ur	-11.1421
▁minerální	-11.1423
včetně	-11.1424
▁léčbě	-11.1425
▁jakém	-11.1426
▁krou	-11.1428
▁kompatibilní	-11.1429
třeba	-11.1429
▁bonusem	-11.143
drží	-11.143
▁zdravotních	-11.1431
ložené	-11.1432
▁procesů	-11.1432
tráv	-11.1432
energ	-11.1435
▁zaujal	-11.1436
▁dostatečný	-11.1436
▁živý	-11.1436
pec	-11.1436
▁diskuzi	-11.1436
▁vznikají	-11.1439
▁představa	-11.144
▁generaci	-11.1442
▁kloub	-11.1443
▁citron	-11.1444
▁vyloučení	-11.1445
▁kostele	-11.1446
▁fondy	-11.1447
▁jejímž	-11.1448
ere	-11.1448
▁opatrně	-11.1448
▁danou	-11.1448
▁hodit	-11.1449
▁mld	-11.1449
▁nedokázal	-11.145
▁pánové	-11.1451
vého	-11.1455
▁kanceláří	-11.1455
▁nátěr	-11.1458
▁víry	-11.1458
vlákn	-11.1459
▁holt	-11.146
▁postih	-11.146
▁ničím	-11.1461
▁slotů	-11.1463
anda	-11.1463
▁vašemu	-11.1464
▁živě	-11.1464
▁přesvědčení	-11.1465
íčku	-11.1466
▁office	-11.1466
▁db	-11.1467
▁asfalt	-11.1467
▁otrav	-11.1468
▁saun	-11.1468
lux	-11.147
▁maria	-11.1472
▁klip	-11.1473
▁zasloužil	-11.1475
▁přestal	-11.1477
▁system	-11.1478
pom	-11.1481
▁vchod	-11.1483
▁právem	-11.1484
▁množ	-11.1486
▁penzijní	-11.1487
vok	-11.1487
▁nima	-11.1488
▁dělala	-11.1488
bon	-11.1492
▁uvedený	-11.1492
▁sdílení	-11.1493
▁placení	-11.1495
▁řep	-11.1496
▁lab	-11.1497
rtu	-11.1501
▁příspěvkem	-11.1503
▁kusy	-11.1503
povídal	-11.1505
▁atom	-11.1505
▁jičín	-11.1506
▁motivy	-11.1506
▁nejznámější	-11.1506
▁plastové	-11.1507
lejší	-11.1507
rag	-11.1508
▁jedinečnou	-11.1509
▁hrůz	-11.151
▁čep	-11.1511
▁fix	-11.1511
elně	-11.1512
▁plnit	-11.1513
▁pochopil	-11.1513
▁soc	-11.1514
bio	-11.1514
▁víru	-11.1515
▁životu	-11.1516
například	-11.1519
cent	-11.1519
▁vznikne	-11.152
dál	-11.152
▁panelu	-11.1521
▁všemu	-11.1523
▁batoh	-11.1524
▁kotouč	-11.1526
▁záležitosti	-11.1527
▁nečekal	-11.1528
▁důvěru	-11.1529
▁kru	-11.1532
▁produkci	-11.1532
▁gólman	-11.1534
▁vyrábět	-11.1535
▁nokia	-11.1536
▁finální	-11.1536
▁nápis	-11.1536
▁ticho	-11.1538
▁centů	-11.1538
▁osobě	-11.1542
▁bohem	-11.1544
▁ohrožen	-11.1545
▁klienti	-11.1545
děj	-11.1545
▁komory	-11.1545
poz	-11.1546
▁uvidí	-11.1546
nášet	-11.1547
▁gl	-11.1548
▁svaté	-11.1549
▁ránu	-11.1551
tav	-11.1551
kdy	-11.1552
▁motivem	-11.1554
▁neni	-11.1555
▁galaxy	-11.1555
▁divize	-11.1558
▁ekonomický	-11.1559
▁cre	-11.156
sz	-11.156
aktual	-11.1562
▁rodič	-11.1564
▁nimiž	-11.1564
▁psycho	-11.1565
▁buňky	-11.1565
prostřed	-11.1566
▁důsledky	-11.1568
▁mimořádné	-11.1568
▁byty	-11.1571
▁odpovědí	-11.1571
▁představila	-11.1571
▁koupelna	-11.1571
▁tekutin	-11.1571
▁zpoždění	-11.1575
▁evidence	-11.1575
▁logo	-11.1578
▁cigaret	-11.1578
▁šířka	-11.1578
▁úl	-11.1578
▁těšil	-11.158
▁neuvěřitelně	-11.1581
lustr	-11.1582
▁výskyt	-11.1583
život	-11.1585
▁větru	-11.1586
▁kritéria	-11.1588
▁odpadu	-11.1589
▁určuje	-11.1589
▁uživatelské	-11.1589
▁dozor	-11.159
▁jaksi	-11.159
▁ab	-11.159
▁provedl	-11.1591
▁něčeho	-11.1594
▁divočiny	-11.1597
▁vojáci	-11.1598
vám	-11.1599
hrn	-11.1599
▁cap	-11.1601
▁musejí	-11.1604
▁říkala	-11.1606
▁vylepšení	-11.1607
láka	-11.1607
drob	-11.1608
program	-11.1609
▁stanislav	-11.1611
▁strava	-11.1611
cit	-11.1613
telný	-11.1618
▁aroma	-11.162
▁potvrzuje	-11.1621
▁otvor	-11.1622
ačku	-11.1623
nika	-11.1625
▁předání	-11.1628
▁oblíbená	-11.1629
▁grafika	-11.1629
▁vietnam	-11.163
▁sr	-11.1631
střed	-11.1633
▁kamera	-11.1634
▁sezonu	-11.1635
ečka	-11.1635
▁uznání	-11.1635
▁moto	-11.1636
▁neměly	-11.1637
správ	-11.1638
▁doplněk	-11.164
▁debut	-11.1644
▁music	-11.1644
▁záležitostí	-11.1649
▁principy	-11.1651
▁klíčových	-11.1651
ish	-11.1651
▁rozmezí	-11.1653
tm	-11.1654
▁brus	-11.1655
▁skutečnou	-11.1657
▁pivovar	-11.1657
▁spustil	-11.1661
▁samý	-11.1662
eng	-11.1662
▁zařízením	-11.1665
▁pohlaví	-11.1667
▁ovladač	-11.1668
▁bos	-11.1669
▁vydala	-11.167
▁neko	-11.167
▁kabát	-11.167
uška	-11.1671
▁zápasech	-11.1671
▁dozví	-11.1671
▁čerpání	-11.1671
▁bomb	-11.1672
▁menšin	-11.1673
dlu	-11.1676
▁robin	-11.1676
▁očkování	-11.1677
▁hejtman	-11.1678
▁klasických	-11.1681
čila	-11.1681
▁jezera	-11.1683
polit	-11.1684
▁zodpovědnost	-11.1685
dý	-11.1688
▁zaměřené	-11.1689
▁pel	-11.169
víra	-11.1694
▁množstvím	-11.1694
▁vážení	-11.1695
▁všeobecné	-11.1696
▁nedávné	-11.1696
íku	-11.1697
▁dolar	-11.1697
▁editor	-11.1699
▁příštích	-11.1703
▁kosti	-11.1703
▁připravena	-11.1703
▁bou	-11.1703
stu	-11.1704
▁zoufale	-11.1704
▁navazuje	-11.1704
▁subjekt	-11.1706
▁parádní	-11.1706
▁hluk	-11.1707
plynul	-11.1708
óz	-11.1709
▁zastaví	-11.1709
▁potkal	-11.171
▁kun	-11.1712
ella	-11.1712
▁odborník	-11.1713
▁ant	-11.1714
byla	-11.1715
▁big	-11.1716
▁historický	-11.1716
▁kovové	-11.1717
▁pravdou	-11.1717
▁písničky	-11.172
▁boleslav	-11.172
▁účinnosti	-11.1722
▁srdeční	-11.1723
žď	-11.1723
▁mladík	-11.1724
▁sparta	-11.1725
▁volí	-11.1726
▁zjištěn	-11.1728
▁vlhkost	-11.173
znám	-11.173
▁odpoč	-11.1733
hodí	-11.1735
▁týdnech	-11.1736
jít	-11.1738
kultur	-11.1738
bot	-11.1739
▁uši	-11.1739
old	-11.174
▁žid	-11.1741
balit	-11.1742
▁tablety	-11.1742
▁barevných	-11.1742
▁délku	-11.1743
▁moravské	-11.1744
▁navrhuje	-11.1745
▁podíval	-11.1745
tla	-11.1746
▁věže	-11.1748
stev	-11.1748
▁nemovitost	-11.1748
▁staro	-11.1748
▁sídlí	-11.1749
▁oblouk	-11.1751
▁kameny	-11.1754
▁vydržel	-11.1754
doporuč	-11.1754
▁programem	-11.1757
▁přivedl	-11.1757
▁čekání	-11.1758
čkem	-11.1758
▁dostávají	-11.1759
pište	-11.1762
▁ušetřit	-11.1763
nz	-11.1763
hrají	-11.1765
vní	-11.1766
▁detailní	-11.1769
▁novinkou	-11.1769
▁snídani	-11.1769
▁názvy	-11.1769
▁britský	-11.177
▁závad	-11.1772
klub	-11.1772
▁sešit	-11.1773
▁metra	-11.1773
▁zařazení	-11.1773
pin	-11.1774
▁kupovat	-11.1774
▁vrátila	-11.1775
▁začátečníky	-11.1775
▁těsto	-11.1777
▁neřekl	-11.1778
film	-11.1778
▁přejít	-11.1778
▁cash	-11.1779
▁poslanci	-11.1779
▁příprav	-11.178
▁pracovníky	-11.1785
▁zájmů	-11.1785
▁barevný	-11.1786
▁nemožné	-11.1786
▁oh	-11.1787
▁chrudim	-11.1789
▁přenosu	-11.179
▁připravený	-11.179
▁jediného	-11.1791
kva	-11.1792
▁manuál	-11.1792
▁vybrán	-11.1792
▁udržení	-11.1793
▁kompozice	-11.1793
▁ger	-11.1795
sazení	-11.1795
▁hlasy	-11.1795
▁sbírky	-11.1796
víz	-11.1797
▁kompromis	-11.1799
▁soudce	-11.18
počítá	-11.1801
▁právního	-11.1804
▁#########	-11.1806
zuje	-11.1806
▁průběžně	-11.1809
▁stovek	-11.1811
▁horské	-11.1811
▁slavné	-11.1812
▁opravu	-11.1812
▁plamen	-11.1814
rena	-11.1814
▁průměrné	-11.1815
▁páteční	-11.1819
▁sladké	-11.1821
▁zahájen	-11.1823
stol	-11.1824
▁podporují	-11.1824
žila	-11.1825
▁dopadne	-11.1826
foto	-11.1827
▁frekvence	-11.1829
back	-11.183
▁divoký	-11.1831
váží	-11.1832
##,#	-11.1833
▁premier	-11.1833
▁lom	-11.1834
▁level	-11.1836
▁neudělal	-11.1837
▁medicín	-11.1839
▁maminky	-11.184
▁!!!	-11.184
rf	-11.1844
▁významnou	-11.1844
▁potřebný	-11.1845
▁vyrazit	-11.1845
xe	-11.1845
▁cokoli	-11.1846
kři	-11.1846
ácké	-11.1846
▁ovlivněn	-11.1849
▁ovlivňuje	-11.1849
▁městský	-11.1849
mot	-11.185
▁výdrž	-11.1851
▁vědy	-11.1851
▁game	-11.1851
stavil	-11.1852
▁zjevně	-11.1853
hrád	-11.1854
▁nedal	-11.1855
jetí	-11.1855
izací	-11.1855
▁arch	-11.1856
▁geo	-11.1856
▁nova	-11.1858
▁vrh	-11.1858
▁rozhodovat	-11.1859
▁letních	-11.1859
ivost	-11.1859
▁okamžité	-11.186
▁tajné	-11.1862
špi	-11.1864
naté	-11.1864
▁tvrdý	-11.1865
gram	-11.1866
▁rozumné	-11.1866
▁rum	-11.1866
▁naplněn	-11.1867
▁výt	-11.1868
web	-11.1868
mé	-11.1868
▁nejsilnější	-11.187
▁rošt	-11.1871
▁nabídkou	-11.1871
▁některým	-11.1872
▁dítěti	-11.1874
▁faktur	-11.1874
rac	-11.1874
ploš	-11.1874
tle	-11.1876
▁odlišný	-11.1881
▁dílem	-11.1881
▁hřeben	-11.1881
▁tem	-11.1882
▁svobodné	-11.1883
▁lenka	-11.1883
▁hum	-11.1883
▁luxus	-11.1884
▁oborů	-11.1885
▁remíz	-11.1887
▁umět	-11.1887
▁slevu	-11.1888
▁různá	-11.189
▁dílny	-11.189
▁lešení	-11.1891
▁koupila	-11.1892
▁schopný	-11.1892
▁textů	-11.1893
▁pověřen	-11.1893
▁jazykové	-11.1894
▁honza	-11.1894
▁realitní	-11.1897
▁iniciativ	-11.1897
▁novinář	-11.1898
▁chutí	-11.1899
▁dávku	-11.19
▁uživateli	-11.1901
oj	-11.1902
▁alb	-11.1904
▁angel	-11.1905
▁hon	-11.1905
▁stačit	-11.1905
▁celkového	-11.1906
▁vyrobeno	-11.1908
která	-11.191
▁zvyšování	-11.191
vše	-11.1911
▁inženýr	-11.1912
sie	-11.1913
mluví	-11.1915
▁dalšímu	-11.1916
▁změnou	-11.1918
pír	-11.1918
▁veliký	-11.1918
hodná	-11.1919
▁překonat	-11.192
▁maturit	-11.1921
▁kalendářní	-11.1921
▁neřeší	-11.1927
▁poslání	-11.1928
▁prohlížeč	-11.1929
▁zlé	-11.1929
▁celých	-11.1931
▁leda	-11.1932
▁znamenalo	-11.1932
▁strávit	-11.1934
▁berou	-11.1935
▁tituly	-11.1935
▁komplik	-11.1935
▁řádky	-11.1936
káže	-11.1936
hygien	-11.1937
▁zajištěn	-11.1937
▁pokročilé	-11.1938
▁kariéry	-11.1938
způsob	-11.1938
▁termo	-11.1939
▁čerstvý	-11.1939
▁brá	-11.194
▁postavu	-11.1941
užit	-11.1942
komunik	-11.1943
ivo	-11.1943
▁spoustou	-11.1944
▁procesy	-11.1944
▁neuvěřitelné	-11.1947
▁pdf	-11.1948
▁náhle	-11.1948
vez	-11.1948
▁teoreticky	-11.1951
▁přítomnosti	-11.1953
vracel	-11.1954
vent	-11.1954
▁intenzivně	-11.1958
▁turné	-11.1959
ičtější	-11.1962
▁primárně	-11.1965
▁domén	-11.1965
▁silou	-11.1966
▁náročnější	-11.1968
▁ekonomika	-11.1968
▁dějiny	-11.1968
▁třetiny	-11.1968
čár	-11.1969
▁prá	-11.1971
▁barokní	-11.1971
sim	-11.1974
▁dokáží	-11.1975
▁věty	-11.1976
▁spousty	-11.1978
cle	-11.1979
▁relevantní	-11.1981
▁výzvy	-11.1981
▁našimi	-11.1984
▁konkrétních	-11.1984
▁kateřina	-11.1985
▁náhodné	-11.1985
▁poznatky	-11.1986
▁mike	-11.1986
bírají	-11.1986
▁dostupných	-11.1988
▁jaromír	-11.1989
▁písemné	-11.1991
kan	-11.1993
▁klientům	-11.1994
▁úpravě	-11.1994
▁ztráta	-11.1994
▁pustit	-11.1998
▁vlivu	-11.1998
▁hasičů	-11.1998
▁norm	-11.2001
dávali	-11.2002
kel	-11.2002
▁sázek	-11.2002
ies	-11.2005
▁kondicionálu	-11.2005
▁označuje	-11.2008
▁barvách	-11.2009
▁bezplatná	-11.2012
▁spolehlivé	-11.2012
▁souhrn	-11.2013
▁zvítězil	-11.2013
▁iron	-11.2014
▁zrušil	-11.2014
▁tvůrčí	-11.2015
▁šíření	-11.2016
▁mikrofon	-11.2016
▁report	-11.2017
▁nechává	-11.2017
▁jistá	-11.2018
▁perl	-11.2018
▁vybírá	-11.2018
▁navijáky	-11.2018
▁ostrý	-11.2019
▁astronom	-11.2019
▁přístrojů	-11.2022
▁agresivní	-11.2023
▁parlament	-11.2024
ičce	-11.2027
komp	-11.2028
shi	-11.2029
▁urč	-11.203
▁kontejner	-11.203
▁koncerty	-11.2032
▁noví	-11.2032
wh	-11.2032
▁obrovskou	-11.2033
přesvědč	-11.2034
▁front	-11.2034
▁technického	-11.2034
▁revoluční	-11.2035
▁přestat	-11.2035
▁záznamy	-11.2035
▁včerejší	-11.2036
▁reaguje	-11.2037
▁zrcadlo	-11.204
▁stížnosti	-11.204
▁vybaveny	-11.2041
▁odpověd	-11.2041
lovat	-11.2045
▁jeví	-11.2045
▁spolehlivě	-11.2046
▁díval	-11.2046
▁ang	-11.2048
▁objevily	-11.2048
mohl	-11.205
ními	-11.2052
▁znova	-11.2053
▁fitness	-11.2053
šet	-11.2058
▁stěn	-11.2058
▁popisu	-11.2059
měsíční	-11.206
lepš	-11.206
cia	-11.2061
fest	-11.2063
▁bronz	-11.2064
▁líbil	-11.2064
▁pozitivně	-11.2066
▁podoby	-11.2067
▁zúčastnit	-11.207
▁přednášky	-11.207
spir	-11.2073
▁směsi	-11.2073
inku	-11.2075
▁ztrát	-11.2075
▁kotel	-11.2078
▁dres	-11.2081
▁účastnil	-11.2082
▁píšu	-11.2082
žije	-11.2084
▁děkuju	-11.2085
▁vstoupil	-11.2087
▁efekty	-11.2088
▁babička	-11.209
bb	-11.2091
ware	-11.2091
▁opustit	-11.2094
▁jasná	-11.2095
▁parti	-11.2095
▁dam	-11.2096
ony	-11.2097
▁hnus	-11.2098
▁výsad	-11.21
wo	-11.21
▁uvedena	-11.2103
▁soustředění	-11.2104
klas	-11.2108
▁simul	-11.2109
schop	-11.2109
▁hradci	-11.211
kama	-11.211
roze	-11.2113
▁prokázal	-11.2114
▁poloze	-11.2114
▁milovat	-11.2114
▁šumav	-11.2115
▁trvalé	-11.2115
place	-11.2117
▁zastupitelstva	-11.2119
▁vlk	-11.2119
valo	-11.212
počte	-11.2121
▁fial	-11.2122
▁pozorování	-11.2122
▁lyž	-11.2123
turist	-11.2124
české	-11.2126
árny	-11.2126
▁tratí	-11.2126
▁zimu	-11.2128
ban	-11.2128
▁navýšení	-11.2128
pij	-11.2129
▁herečka	-11.213
▁pru	-11.213
▁vyskytuje	-11.2132
▁ženský	-11.2132
pouštět	-11.2134
▁výjezd	-11.2136
▁dvanácti	-11.2137
hm	-11.2139
▁nejrychlejší	-11.2139
▁thunderstruck	-11.2139
▁nejvyššího	-11.2141
lp	-11.2142
▁výš	-11.2144
▁penězi	-11.2144
▁kladen	-11.2145
▁fb	-11.2146
▁objednal	-11.2148
▁úraz	-11.2149
▁listů	-11.2149
▁technická	-11.215
šov	-11.215
▁láskou	-11.2151
▁vyrobeny	-11.2151
▁dív	-11.2154
▁mládí	-11.2155
lech	-11.2155
▁zahájil	-11.2156
kázání	-11.2157
▁stahovat	-11.2158
ební	-11.2161
▁čechy	-11.2162
▁nutná	-11.2164
▁zisky	-11.2166
hran	-11.2167
▁np	-11.2169
▁žár	-11.217
▁koupání	-11.2171
▁německých	-11.2172
▁poloh	-11.2172
▁servery	-11.2174
▁bezplatných	-11.2174
tlačil	-11.2174
▁george	-11.2175
▁poradil	-11.2177
áva	-11.2178
▁kapacity	-11.218
▁dokončil	-11.2181
peče	-11.2184
▁pravdy	-11.2185
sten	-11.2186
▁nesl	-11.2188
▁prvotřídní	-11.2188
▁rozšířit	-11.2188
▁službách	-11.2188
▁špičkové	-11.2188
▁chápe	-11.2188
čr	-11.2189
▁nenechá	-11.219
▁gal	-11.2191
has	-11.2194
▁zbytky	-11.2195
▁položil	-11.2196
▁gre	-11.2198
▁problematiku	-11.2198
▁přečetl	-11.2199
▁zajímat	-11.2199
▁amd	-11.2199
▁dálnice	-11.2199
tál	-11.22
▁veškerá	-11.2202
▁#####,	-11.2202
▁vstupenky	-11.2202
▁předpokladu	-11.2202
▁zkusím	-11.2203
▁dámy	-11.2205
stan	-11.2206
▁přechodu	-11.2206
▁nálada	-11.2207
▁trasa	-11.2208
▁divit	-11.2211
▁věděla	-11.2215
▁baterií	-11.2216
▁specifické	-11.2217
▁minimal	-11.222
jmout	-11.2221
▁spaní	-11.2223
▁účinný	-11.2224
▁výhra	-11.2227
▁dotací	-11.2229
▁váží	-11.2233
▁sestry	-11.2234
▁trutnov	-11.2236
▁dorazí	-11.2237
cro	-11.2237
▁meč	-11.2238
▁fantasy	-11.224
fyz	-11.224
▁příroda	-11.2243
▁nevim	-11.2244
▁tábora	-11.2245
▁vyšších	-11.2246
▁brněnské	-11.2248
▁otevřen	-11.2249
▁náhod	-11.2249
tam	-11.2251
▁vyváže	-11.2252
▁nahradil	-11.2253
▁mercedes	-11.2254
▁cíli	-11.2254
▁krista	-11.2255
▁spolku	-11.2255
▁kroků	-11.2257
▁výzva	-11.2257
▁talíř	-11.2259
▁rukama	-11.2261
▁vyvolal	-11.2261
▁rozměrů	-11.2263
▁kolej	-11.2264
▁dostupná	-11.2265
▁media	-11.2266
▁vnímání	-11.2266
▁družstvo	-11.2268
▁pouhé	-11.2268
▁minimum	-11.2268
brali	-11.2268
▁videu	-11.227
▁váhu	-11.227
▁operátor	-11.2271
▁skladatel	-11.2272
dokonal	-11.2273
▁bay	-11.2274
▁mhd	-11.2276
▁odborníky	-11.2277
▁dej	-11.2277
▁čtyřmi	-11.2277
▁gold	-11.2277
▁důkazy	-11.2277
▁vyhla	-11.2278
▁focení	-11.2279
ori	-11.228
▁potvrzen	-11.2281
▁dopadlo	-11.2281
▁káva	-11.2281
ěj	-11.2282
▁soukromých	-11.2283
▁nhl	-11.2283
▁poloha	-11.2284
psych	-11.2285
▁vůdce	-11.2286
▁velikostí	-11.2288
ture	-11.2289
▁mód	-11.2291
▁lásce	-11.2292
▁písku	-11.2293
▁nahrazen	-11.2293
▁svaly	-11.2294
▁silnou	-11.2294
▁republikán	-11.2295
ložených	-11.2295
board	-11.2297
▁víceméně	-11.2297
▁kart	-11.23
▁plakát	-11.23
▁člena	-11.2303
▁postupů	-11.2303
pf	-11.2304
▁green	-11.2305
▁pozorovat	-11.2306
▁obsazení	-11.2306
▁spolupracovat	-11.2308
áb	-11.2308
▁londýně	-11.2309
▁různě	-11.2309
▁rakouské	-11.2311
▁vnímá	-11.2312
▁návštěv	-11.2314
▁personální	-11.2316
▁miliónů	-11.2317
▁skrývá	-11.2319
▁opěr	-11.232
▁komisí	-11.2321
▁přilákat	-11.2321
▁vizuální	-11.2321
▁kapacitou	-11.2321
povídat	-11.2322
▁sedět	-11.2323
cker	-11.2324
▁ameriky	-11.2325
▁poznamenal	-11.2326
rav	-11.2326
▁trpělivost	-11.2326
blo	-11.2327
▁special	-11.233
cka	-11.2331
strou	-11.2332
hráli	-11.2332
▁plošin	-11.2332
▁pořízení	-11.2336
▁reel	-11.2337
▁radar	-11.2337
▁číny	-11.2337
ačního	-11.2337
▁problematice	-11.2342
▁výtvarné	-11.2342
tější	-11.2344
dnou	-11.2345
sb	-11.2346
▁milovníky	-11.2347
▁vydané	-11.2348
▁slavný	-11.2348
▁wal	-11.2349
row	-11.235
▁obchodování	-11.2353
▁obyvatele	-11.2353
▁touha	-11.2356
kra	-11.2357
▁polsku	-11.2358
▁vašim	-11.2359
▁buněk	-11.236
fot	-11.236
▁souhlasí	-11.2361
▁ztrátu	-11.2361
spon	-11.2361
lock	-11.2363
▁směrnice	-11.2363
▁pít	-11.2363
▁vyberete	-11.2364
▁plzně	-11.2367
▁dřívější	-11.2368
▁datové	-11.2368
▁mg	-11.2369
▁tvrdit	-11.2371
▁dav	-11.2371
kry	-11.2373
work	-11.2373
▁dceři	-11.2374
▁michaela	-11.2374
hromad	-11.2374
▁terminál	-11.2377
▁neznámý	-11.2377
▁mrzí	-11.2377
anu	-11.2377
▁nedostane	-11.2378
▁známky	-11.2378
ologii	-11.2378
lehl	-11.2381
▁pozdějších	-11.2382
▁dodala	-11.2383
poslouchá	-11.2384
označ	-11.2387
▁hitler	-11.2389
kém	-11.239
▁uzávěr	-11.2391
▁píseň	-11.2391
sche	-11.2392
▁nechtěla	-11.2394
▁voj	-11.2394
▁vzestup	-11.2395
tér	-11.2395
▁růžové	-11.2399
▁odehrává	-11.2399
šperk	-11.2399
▁námět	-11.24
▁komunistické	-11.24
▁vzp	-11.2403
▁rychlou	-11.2405
▁široká	-11.2405
▁snaze	-11.2406
nějšího	-11.2409
▁věříme	-11.2409
▁vyskytují	-11.2409
▁fasád	-11.2409
▁obojí	-11.2409
▁kontrast	-11.2411
▁národním	-11.2413
▁japonské	-11.2413
▁sedl	-11.2414
klád	-11.2415
▁zachránit	-11.2416
▁léků	-11.2417
fc	-11.2417
encí	-11.2417
gre	-11.2418
rel	-11.2418
▁madrid	-11.242
▁podíváme	-11.242
tických	-11.2422
word	-11.2423
▁založit	-11.2426
▁míra	-11.2427
vrátil	-11.2427
▁pohledem	-11.2428
▁dolaru	-11.2428
▁sud	-11.2429
▁německá	-11.243
▁prostorné	-11.2431
▁weby	-11.2431
▁nádrž	-11.2432
▁sázku	-11.2435
▁vyvinul	-11.2437
ball	-11.2438
▁zahrnují	-11.2438
▁odchází	-11.2441
▁využijte	-11.2441
fal	-11.2441
▁sestavě	-11.2441
hs	-11.2442
▁podíváte	-11.2444
▁jakých	-11.2445
▁výbornou	-11.2446
▁žadatel	-11.2447
▁uvedeného	-11.2448
▁opuštěn	-11.2448
eri	-11.2449
▁zabýval	-11.2453
▁radní	-11.2454
▁měkké	-11.2456
▁ostré	-11.2459
▁kur	-11.2459
▁schopna	-11.2459
hrává	-11.2459
▁přinesla	-11.246
▁útoky	-11.2462
▁potrubí	-11.2462
▁vypráví	-11.2466
▁opakovat	-11.2467
▁rozšířené	-11.2469
########	-11.2469
▁cihl	-11.247
zón	-11.247
des	-11.2472
▁necelých	-11.2473
▁elektromobil	-11.2474
▁dorost	-11.2474
▁považován	-11.2474
▁vybavena	-11.2474
▁moravy	-11.2476
▁prozradil	-11.2477
pie	-11.2478
▁požadujeme	-11.248
pov	-11.2481
▁pěšky	-11.2481
šk	-11.2481
▁bat	-11.2482
▁dělí	-11.2483
lom	-11.2483
▁drahý	-11.2484
spo	-11.2486
▁jednotlivými	-11.2486
ško	-11.2487
▁dluhy	-11.2487
▁morální	-11.2487
▁vytvářejí	-11.2487
vanou	-11.2489
▁voličů	-11.2489
▁příčin	-11.249
▁zpěvačka	-11.2491
wat	-11.2492
▁zažil	-11.2493
▁vstupné	-11.2494
▁přerov	-11.2494
▁vražd	-11.2495
▁urban	-11.2495
▁cool	-11.2496
čili	-11.2497
rej	-11.2498
ius	-11.2498
▁nenechte	-11.2498
▁významný	-11.2499
▁mate	-11.25
nas	-11.25
▁rot	-11.2501
▁olympiád	-11.2502
▁zachránil	-11.2502
dech	-11.2505
▁navrhovatel	-11.2505
▁struktur	-11.2506
▁há	-11.2506
▁šetření	-11.2506
▁pozvánka	-11.2506
▁novinek	-11.2507
▁izolace	-11.2509
▁řím	-11.2511
stva	-11.2511
▁obchodním	-11.2515
▁platnost	-11.2515
▁anglicky	-11.2516
▁ručení	-11.2517
vzdor	-11.2517
▁kontrolovat	-11.2519
▁pokožky	-11.252
▁jud	-11.252
▁rozbor	-11.2521
▁překvapen	-11.2522
▁posunul	-11.2522
sper	-11.2526
bre	-11.2526
▁vzadu	-11.2527
▁toalet	-11.2527
▁naprosté	-11.2528
rom	-11.2531
▁zón	-11.2533
vár	-11.2534
can	-11.2534
znamenal	-11.2536
▁chytit	-11.2537
▁vyhodnocení	-11.2537
▁všeobecně	-11.2538
jedu	-11.2538
▁příčiny	-11.2539
▁velkými	-11.2539
ďa	-11.2539
▁ostře	-11.2543
koupí	-11.2543
▁tras	-11.2544
jestli	-11.2546
▁mš	-11.2547
▁ukázka	-11.2547
https	-11.2547
▁kvalitou	-11.2548
▁klasickou	-11.2548
▁lidech	-11.2549
rid	-11.2551
▁uvědom	-11.2551
▁členských	-11.2552
▁chemické	-11.2552
▁mrav	-11.2554
▁vládou	-11.2555
skočí	-11.2556
chyt	-11.2558
▁adresy	-11.2559
▁souvisejících	-11.2559
ref	-11.256
▁vlna	-11.2562
▁rejstříku	-11.2562
▁umístil	-11.2562
▁upozornit	-11.2563
▁výstav	-11.2563
ákem	-11.2564
oviny	-11.2564
▁klima	-11.2564
▁parametr	-11.2566
▁primátor	-11.2566
▁šo	-11.2567
▁třebíč	-11.2567
▁spo	-11.2568
▁válku	-11.2568
▁zavedl	-11.257
▁evidentně	-11.257
▁sob	-11.2571
▁sled	-11.2572
▁žluté	-11.2576
▁dokázala	-11.2577
cor	-11.2578
▁zařízeních	-11.2581
▁pokut	-11.2582
▁chodím	-11.2584
▁informován	-11.2586
dávala	-11.2586
nder	-11.2587
▁popsán	-11.2588
▁wellness	-11.2588
▁fit	-11.2588
▁podnikatele	-11.2588
▁nikam	-11.2591
▁zásobník	-11.2593
▁hledal	-11.2593
▁hladiny	-11.2594
▁dem	-11.2594
▁#,###	-11.2595
▁tváři	-11.2596
hlá	-11.2597
▁diplomat	-11.2598
luh	-11.2601
▁has	-11.2604
▁kotle	-11.2604
▁rostou	-11.2605
▁bílkovin	-11.2606
blíž	-11.2607
▁veliké	-11.2609
▁vykonávat	-11.261
▁výživné	-11.2611
směje	-11.2611
knutí	-11.2611
▁may	-11.2615
▁poruchy	-11.2615
▁recepty	-11.2616
▁hc	-11.2617
▁chomutov	-11.2617
sr	-11.2618
▁brian	-11.262
▁třeb	-11.2621
▁volal	-11.2622
fek	-11.2624
▁slu	-11.2625
lace	-11.2628
▁vyrazili	-11.263
▁rozhod	-11.263
▁besed	-11.2631
vrstv	-11.2635
▁fenomén	-11.2635
▁románu	-11.2637
px	-11.2647
▁grafiku	-11.2648
tb	-11.265
▁zahrad	-11.265
▁černou	-11.2651
▁muslim	-11.2653
▁nemocí	-11.2657
ller	-11.2658
▁patnácti	-11.266
sha	-11.2662
▁kníže	-11.2662
▁elektronický	-11.2664
head	-11.2664
▁oběti	-11.2664
▁mf	-11.2665
slan	-11.2666
hře	-11.2668
▁dočkal	-11.267
▁přezdív	-11.2672
▁párty	-11.2673
psané	-11.2673
▁ot	-11.2674
▁medaile	-11.2679
▁prvotní	-11.2679
▁předpoklady	-11.268
▁zjev	-11.2681
bour	-11.2681
hlásil	-11.2682
▁strukturu	-11.2683
▁lesy	-11.2684
▁výstavba	-11.2686
▁významným	-11.2688
▁připraveno	-11.269
nkou	-11.269
▁dcery	-11.269
▁španělské	-11.2691
▁designem	-11.2692
hni	-11.2692
funk	-11.2693
musí	-11.2693
▁typický	-11.2694
▁vodních	-11.2694
▁trestu	-11.2697
▁vsadil	-11.2698
hlub	-11.2699
▁minulé	-11.27
##.##	-11.27
▁zapojen	-11.27
▁vít	-11.2703
▁mos	-11.2704
▁dlouhých	-11.2705
▁realita	-11.2706
▁dy	-11.2706
▁kým	-11.2706
kost	-11.2708
▁růže	-11.2708
▁epizod	-11.2708
▁památek	-11.2708
▁osazen	-11.2709
▁doporučené	-11.2711
▁obuv	-11.2712
rku	-11.2712
koř	-11.2712
▁vysílač	-11.2713
▁pracovním	-11.2714
▁technologické	-11.2714
▁krvi	-11.2715
▁rakousku	-11.2715
bec	-11.2718
▁multiplayer	-11.2719
▁zlepšuje	-11.2719
rozum	-11.272
zet	-11.272
▁spotřebitel	-11.272
ložen	-11.2721
▁krátkou	-11.2722
▁nemusím	-11.2726
▁utrpení	-11.2726
▁klasická	-11.273
gp	-11.273
▁stříbrné	-11.2732
▁trval	-11.2732
▁univerzitě	-11.2733
▁pacienta	-11.2735
▁ježíše	-11.2735
▁uchazeč	-11.2737
▁metodik	-11.2738
▁čtver	-11.274
▁ohně	-11.274
▁cs	-11.2741
▁elit	-11.2743
▁psi	-11.2744
▁získejte	-11.2745
▁tvořit	-11.2745
▁obličeje	-11.2747
vč	-11.2747
▁pěstování	-11.2747
▁pátý	-11.2748
play	-11.2749
▁šum	-11.275
!!!!	-11.275
íně	-11.2751
▁ohni	-11.2752
▁odolný	-11.2753
žad	-11.2754
hrdin	-11.2755
▁nezávislé	-11.2756
▁hovořil	-11.2756
▁trap	-11.2756
pracuje	-11.2757
proč	-11.2759
tura	-11.2759
▁úmrtí	-11.276
▁spojený	-11.276
▁rezervaci	-11.2763
▁přizpůsobit	-11.2764
▁vesnici	-11.2764
▁jednomu	-11.2765
▁malo	-11.2766
kru	-11.2766
▁vklady	-11.2766
▁malin	-11.2766
▁lyžařské	-11.2767
▁nepotřebuje	-11.2768
▁liberci	-11.2768
▁kapacitu	-11.2769
▁mechanik	-11.2769
▁výrazný	-11.2769
▁parlamentní	-11.277
▁vrah	-11.2773
▁prim	-11.2774
▁chleba	-11.2774
▁rd	-11.2777
▁nadace	-11.2777
▁světový	-11.2778
▁vztahuje	-11.2778
ned	-11.2778
hlédnutí	-11.278
▁desce	-11.2781
▁bezplatnou	-11.2782
ovacího	-11.2782
▁rozdělit	-11.2782
▁složen	-11.2782
▁zákaznické	-11.2783
▁snažila	-11.2783
kontrol	-11.2783
ssi	-11.2784
▁soustředit	-11.2785
▁dostaly	-11.2786
▁československé	-11.2787
▁zaujme	-11.2788
▁františka	-11.2789
▁architektury	-11.2789
▁adaptér	-11.2789
▁polské	-11.279
▁zeleniny	-11.279
krývají	-11.2791
▁kreativní	-11.2791
sílá	-11.2791
▁přežil	-11.2793
▁vyzval	-11.2793
▁obranu	-11.2794
▁popsat	-11.2795
▁haly	-11.2797
▁obzvlášť	-11.28
rest	-11.2803
▁chytré	-11.2804
lok	-11.2805
ndy	-11.2805
čov	-11.2806
▁přeměn	-11.2807
▁vyvíjí	-11.2807
čkové	-11.2809
vědomě	-11.2809
▁polštář	-11.281
▁kontrolou	-11.2811
▁vybavené	-11.2814
▁určená	-11.2815
▁rekordní	-11.2816
▁excel	-11.2817
lád	-11.2817
▁komfortní	-11.2818
▁náměstek	-11.2819
▁podílu	-11.2819
možná	-11.2819
pověd	-11.2822
▁oxid	-11.2822
▁projevy	-11.2824
▁politický	-11.2825
▁soft	-11.2826
pouta	-11.2827
▁odkazu	-11.2828
▁stěžovatel	-11.2829
▁výchovy	-11.283
▁přelomu	-11.2831
ray	-11.2832
pálí	-11.2833
▁linku	-11.2833
▁jara	-11.2833
chov	-11.2834
▁vzdal	-11.2834
▁plody	-11.2835
▁nejkrásnější	-11.2838
▁černého	-11.284
▁značkou	-11.2841
▁element	-11.2841
▁úmysl	-11.2841
kur	-11.2841
▁protivník	-11.2842
▁zprávě	-11.2842
▁pirát	-11.2844
▁prodávají	-11.2848
▁čína	-11.2849
stor	-11.2851
▁přidání	-11.2851
▁prohlížeče	-11.2853
▁diváky	-11.2853
▁školního	-11.2854
roč	-11.2855
jsou	-11.2855
▁lež	-11.2857
▁žánr	-11.2858
▁preventivní	-11.2859
▁vzpomínky	-11.2859
▁překonal	-11.286
▁náročný	-11.2861
▁vzpomíná	-11.2861
hé	-11.2863
▁zápisu	-11.2865
bie	-11.2867
▁navštívili	-11.2867
▁nejmodernější	-11.2867
řej	-11.2867
▁ža	-11.2868
▁satelitní	-11.2869
▁skutečností	-11.287
▁komentářů	-11.2871
▁městská	-11.2872
▁přeje	-11.2872
▁vítěze	-11.2873
slu	-11.2873
tví	-11.2875
▁světem	-11.2875
▁nechám	-11.2875
mazat	-11.2881
▁čistá	-11.2881
▁kulturních	-11.2882
▁žádat	-11.2882
sprch	-11.2883
▁wh	-11.2886
▁zaměřil	-11.2886
▁vzory	-11.2889
▁trzích	-11.289
▁zemní	-11.289
▁kad	-11.2892
▁finančního	-11.2894
▁rým	-11.2894
stejn	-11.2897
▁zvyklí	-11.2897
▁videoklip	-11.2901
▁psala	-11.2901
▁nemocenské	-11.2901
▁bublin	-11.2902
▁počátkem	-11.2904
▁osobou	-11.2904
▁napadá	-11.2905
vezl	-11.2905
▁pozornosti	-11.2908
▁spojen	-11.2909
▁souhlasit	-11.291
▁kolika	-11.2912
▁seniory	-11.2913
sadil	-11.2915
▁zlat	-11.2915
▁převeden	-11.2917
▁trav	-11.2918
▁pur	-11.292
▁kámoš	-11.2922
▁ukrajině	-11.2923
▁považoval	-11.2924
rážka	-11.2924
qua	-11.2925
▁plavání	-11.2927
▁informačních	-11.2928
▁snadný	-11.2929
▁plzeňský	-11.2931
ovatel	-11.2932
▁vyráběn	-11.2932
▁obyčejné	-11.2932
▁oční	-11.2933
▁nabízeny	-11.2934
▁aktivita	-11.2934
▁koupelny	-11.2935
▁zůstali	-11.2936
▁komunikací	-11.2936
▁zábavný	-11.2936
▁přidán	-11.2936
placení	-11.2937
▁ochranný	-11.2938
▁padesáti	-11.2938
▁hodil	-11.2938
hrab	-11.2941
▁moderním	-11.2944
lab	-11.2944
▁displeji	-11.2944
▁spár	-11.2945
▁cenově	-11.2946
▁paříži	-11.2946
▁buďte	-11.2946
▁ozval	-11.2947
▁vůni	-11.2948
▁kouření	-11.2949
▁věřící	-11.295
▁časový	-11.295
ovník	-11.2952
lion	-11.2952
▁čekala	-11.2952
▁licenční	-11.2953
▁zvýhodněn	-11.2953
▁bože	-11.2956
▁naučil	-11.2957
▁pokr	-11.296
▁osa	-11.2961
▁snů	-11.2966
▁státním	-11.2967
▁simon	-11.2967
hlížel	-11.2968
zobraz	-11.2968
▁spadl	-11.2971
▁bojuje	-11.2972
▁podobným	-11.2975
škou	-11.2975
▁manuální	-11.2975
▁opravit	-11.2976
▁pána	-11.2976
▁používáte	-11.2979
▁považují	-11.2979
▁doufal	-11.298
▁svobodny	-11.2981
▁buk	-11.2981
▁jinému	-11.2983
▁kolegů	-11.2983
▁propagační	-11.2984
▁indián	-11.2985
platí	-11.2988
▁vstoupit	-11.2991
▁sny	-11.2992
▁lich	-11.2993
▁anglické	-11.2993
▁potisk	-11.2993
▁pouzdro	-11.2994
▁důležitých	-11.2995
▁ostravy	-11.2998
výraz	-11.2998
nesou	-11.2998
ářské	-11.2999
▁společník	-11.3
gro	-11.3005
▁exekutor	-11.3005
kos	-11.3008
▁domluvit	-11.301
▁motorů	-11.3013
▁dotazu	-11.3016
▁dvojnásob	-11.3016
▁nech	-11.3018
fs	-11.3019
▁pojede	-11.3021
▁požádá	-11.3023
▁chicago	-11.3024
▁započne	-11.3024
▁doplní	-11.3025
třeš	-11.3025
▁strav	-11.3027
▁cost	-11.3027
▁časové	-11.3027
▁dřevěný	-11.3031
▁prohlídky	-11.3032
▁propojen	-11.3033
▁pump	-11.3033
ivit	-11.3034
▁stanoven	-11.3037
▁rozhodnutím	-11.3038
▁důležitým	-11.3038
mani	-11.3038
▁známého	-11.3039
▁slibuje	-11.3039
▁únik	-11.304
▁láká	-11.304
burg	-11.304
▁nástupu	-11.304
▁zněl	-11.304
▁udrží	-11.3041
▁doplňků	-11.3043
obr	-11.3043
▁držení	-11.3046
char	-11.3047
▁nedaleké	-11.3047
▁nemáš	-11.305
▁projevu	-11.305
ujícího	-11.3051
▁skupinou	-11.3051
sor	-11.3051
▁trase	-11.3052
▁jakož	-11.3052
▁dokola	-11.3053
▁skrz	-11.3053
tex	-11.3053
▁označován	-11.3055
▁stylů	-11.3055
▁lišit	-11.3055
▁udržel	-11.3055
▁legislativní	-11.3056
▁námořní	-11.3058
▁týdenní	-11.3058
▁česka	-11.3059
stě	-11.306
▁obvinění	-11.3065
▁dramat	-11.3066
eři	-11.3066
volání	-11.3068
▁dětského	-11.3068
alu	-11.3068
čokolád	-11.3068
plod	-11.307
▁gta	-11.3071
▁skončilo	-11.3071
▁milý	-11.3071
▁odměna	-11.3076
▁mimořádný	-11.3077
▁####:	-11.3077
▁médiích	-11.3079
▁prosadit	-11.308
nář	-11.308
▁dotaci	-11.308
▁marketingu	-11.3082
▁makro	-11.3082
▁cent	-11.3082
▁testů	-11.3083
▁teplotě	-11.3083
▁sokolov	-11.3084
▁business	-11.3085
obsazen	-11.3088
▁multiplikátory	-11.3088
▁kurzů	-11.309
▁tichý	-11.309
▁blan	-11.309
▁náleží	-11.3093
▁hrubé	-11.3093
padající	-11.3093
▁berlín	-11.3094
▁mad	-11.3095
▁nejmladší	-11.3096
▁tričko	-11.3098
čený	-11.31
▁desek	-11.31
field	-11.31
jíž	-11.3101
livé	-11.3101
utí	-11.3103
▁letišti	-11.3103
▁působící	-11.3103
▁požadovat	-11.3104
▁nynější	-11.3104
▁původních	-11.3104
stupuje	-11.3105
▁kouř	-11.3106
▁nápojů	-11.3106
▁pizz	-11.3107
mok	-11.3107
▁univerzit	-11.3109
▁zásoby	-11.3109
▁použity	-11.311
hodit	-11.311
▁nůž	-11.311
▁rozlišením	-11.3111
sád	-11.3112
ložení	-11.3112
▁unii	-11.3113
▁váhy	-11.3113
▁tělesné	-11.3114
▁nep	-11.3114
▁zvědav	-11.3115
▁service	-11.3115
▁sadu	-11.3116
▁řádků	-11.3118
ejší	-11.3119
▁alexandr	-11.3119
▁domnívám	-11.3119
▁regulační	-11.312
tus	-11.312
střelil	-11.3121
cast	-11.3123
▁komponenty	-11.3124
▁ruka	-11.3125
▁nezáleží	-11.3127
▁barvou	-11.3128
ťte	-11.3129
▁zásahu	-11.3132
▁vydáno	-11.3132
▁bílou	-11.3134
▁statistik	-11.3135
▁odhalil	-11.3136
▁brambory	-11.3137
▁utekl	-11.3138
▁četla	-11.3139
▁všiml	-11.314
▁seznámí	-11.3141
▁dekor	-11.3141
▁rodu	-11.3143
▁obyčej	-11.3143
žívá	-11.3144
▁alex	-11.3144
▁jinam	-11.3145
▁žebříčku	-11.3146
ču	-11.3147
▁požáru	-11.3149
▁místního	-11.3149
▁spotřeb	-11.3152
▁tramvaj	-11.3152
▁invest	-11.3153
▁faktorů	-11.3153
▁obsluha	-11.3153
▁dospělých	-11.3154
▁sur	-11.3156
▁propuštěn	-11.3156
šetřen	-11.3157
anta	-11.3157
▁příjezdu	-11.3157
▁národních	-11.3158
▁kluby	-11.3159
▁vymyslel	-11.3159
▁zem	-11.3159
íky	-11.316
▁loňský	-11.3161
▁odchod	-11.3162
▁ceník	-11.3165
▁alt	-11.3166
oly	-11.3167
▁křídla	-11.3167
▁klávesnice	-11.3174
spod	-11.3176
▁ústní	-11.3176
▁nemění	-11.3177
▁většího	-11.3177
▁poskytovatel	-11.3178
▁lg	-11.3178
▁apartmány	-11.3179
▁úřadů	-11.3179
▁divočině	-11.318
▁krumlov	-11.318
▁styku	-11.3181
lina	-11.3181
▁soustavy	-11.3182
▁odeslání	-11.3183
▁návrhů	-11.3185
até	-11.3186
▁centrem	-11.3186
▁vlasti	-11.3186
▁kolech	-11.3187
▁nože	-11.3187
▁novák	-11.3187
▁vydělal	-11.3191
▁umělec	-11.3192
▁zvolené	-11.3192
kraj	-11.3193
▁chodil	-11.3193
▁zdůraznil	-11.3196
▁půdu	-11.3196
kw	-11.3196
▁označením	-11.3199
▁schválila	-11.32
▁playtech	-11.3201
▁představy	-11.3201
▁komunální	-11.3204
nili	-11.3205
sak	-11.3208
▁zastoupen	-11.3215
▁síle	-11.3215
nechal	-11.3215
▁dodavatelů	-11.3215
▁věřil	-11.3216
▁svalů	-11.3217
nus	-11.3217
▁nájem	-11.3218
hart	-11.3222
▁upír	-11.3222
▁ideálním	-11.3223
▁soukromý	-11.3224
▁tvrdě	-11.3224
▁ivana	-11.3224
▁poměry	-11.3225
cy	-11.3227
▁těl	-11.3227
▁manželem	-11.3227
▁dotyk	-11.3228
▁hana	-11.3228
▁důležitější	-11.323
▁transakce	-11.323
▁kredit	-11.3231
▁specialist	-11.3233
▁otevřela	-11.3234
▁infrastruktury	-11.3234
cie	-11.3237
škem	-11.3237
▁čemuž	-11.3237
▁zapomněl	-11.3239
▁představitel	-11.324
▁kamarádi	-11.324
▁republiku	-11.324
▁oka	-11.3243
▁hrála	-11.3243
▁volná	-11.3244
▁skaut	-11.3244
▁připsal	-11.3245
▁výplatní	-11.3246
▁rozšiřuje	-11.3247
▁dp	-11.3249
stroj	-11.325
▁kauz	-11.325
kř	-11.3251
cykl	-11.3251
průměr	-11.3251
▁špičkový	-11.3253
▁politickou	-11.3254
▁rozliš	-11.3256
▁čipy	-11.3256
pne	-11.3256
áče	-11.3258
▁vážný	-11.3258
▁bílého	-11.3259
▁mírné	-11.326
▁světovládě	-11.3261
▁vytáhl	-11.3263
▁vzhledu	-11.3263
▁jdeme	-11.3264
▁distribuce	-11.3265
▁micro	-11.3265
▁podrobně	-11.3266
▁kod	-11.3267
▁kůr	-11.3267
▁bluetooth	-11.3269
▁službě	-11.3269
▁rakousko	-11.3269
▁čerpadla	-11.3269
▁pomohla	-11.327
▁posteli	-11.3271
▁palestin	-11.3273
▁časově	-11.3273
▁nagy	-11.3273
▁vyhrazen	-11.3273
▁bohuslav	-11.3274
▁operačního	-11.3275
▁app	-11.3275
▁ležel	-11.3276
ted	-11.3276
▁nájezd	-11.3276
▁přečtení	-11.3276
▁pis	-11.3276
down	-11.3277
▁zabil	-11.3278
▁chelsea	-11.328
▁potvrdit	-11.3281
▁čtu	-11.3285
zim	-11.3285
duš	-11.3285
lovi	-11.3286
▁trik	-11.3286
čištěn	-11.3288
▁fantastický	-11.3291
▁umístěna	-11.3291
▁drobných	-11.3291
▁klesl	-11.3292
▁ol	-11.3293
▁love	-11.3293
livost	-11.3293
▁signálu	-11.3294
▁pracovník	-11.3294
ney	-11.3294
▁zdánlivě	-11.3296
▁znají	-11.3298
▁položek	-11.3298
▁připravila	-11.3298
izol	-11.3298
mag	-11.3299
▁kolektiv	-11.3299
▁lokality	-11.33
▁umožnit	-11.33
▁pokusy	-11.3301
▁nejspíše	-11.3303
hmat	-11.3308
▁podoba	-11.3309
kář	-11.3309
▁tlakem	-11.331
▁atp	-11.3311
tlum	-11.3312
▁fascinující	-11.3312
▁obrovská	-11.3312
▁pozdní	-11.3313
▁stadion	-11.3313
▁gla	-11.3315
▁zvolte	-11.3316
▁veškerý	-11.3319
▁herních	-11.3321
▁američan	-11.3322
ore	-11.3323
▁muzikál	-11.3323
▁semifinále	-11.3323
▁obdržíte	-11.3324
▁autorka	-11.3324
ložíme	-11.3326
vaj	-11.3326
ary	-11.3327
▁následný	-11.3328
▁složek	-11.3328
ářů	-11.3328
▁horor	-11.3329
▁kolektivní	-11.333
▁přidejte	-11.333
▁rozložení	-11.3331
oru	-11.3331
▁rozsáhlý	-11.3331
▁vyšším	-11.3335
▁poslouchat	-11.3337
▁dvojí	-11.3337
etu	-11.3338
kreslen	-11.3338
▁vojsk	-11.3338
cr	-11.334
▁ukazatel	-11.3341
▁komisi	-11.3344
▁stylem	-11.3345
▁probíhající	-11.3345
▁rodiči	-11.3347
▁pujcka	-11.3347
▁vítězů	-11.335
▁kritérií	-11.335
▁dveřmi	-11.3351
ges	-11.3352
▁placen	-11.3355
▁učitelů	-11.3356
pař	-11.3357
▁výhře	-11.3357
▁stanovisko	-11.3358
▁silikon	-11.3359
jdi	-11.3363
▁hut	-11.3365
........	-11.3365
▁příloh	-11.3366
▁fotka	-11.3366
▁naznačuje	-11.3366
▁pomoct	-11.3366
▁ujal	-11.3367
▁nastaví	-11.3367
▁svačin	-11.3368
▁prsa	-11.337
▁demokratické	-11.3371
▁kuř	-11.3371
▁zák	-11.3373
▁telefonicky	-11.3375
▁vztek	-11.3378
▁odpoví	-11.3381
livě	-11.3384
cuje	-11.3385
mrtv	-11.3388
▁bloku	-11.3388
▁výpověď	-11.339
▁kterej	-11.339
▁fungoval	-11.339
táhla	-11.3391
▁refer	-11.3391
pnutí	-11.3394
integr	-11.3395
▁galerii	-11.3397
▁rodičům	-11.3398
▁ds	-11.3399
▁přinášíme	-11.3402
graf	-11.3402
▁dostih	-11.3402
▁sluchátka	-11.3405
▁náhled	-11.3406
▁těsné	-11.3406
ord	-11.3407
▁zveřejnění	-11.3407
▁nepří	-11.3408
▁dopravních	-11.3409
oko	-11.3409
▁dodržovat	-11.3409
▁masáže	-11.341
hají	-11.3412
▁kamion	-11.3413
▁majitelů	-11.3414
▁výzvu	-11.3414
antní	-11.3416
▁nádrže	-11.3416
▁správě	-11.3418
▁situacích	-11.3419
▁zažívá	-11.342
▁partnerství	-11.342
▁východě	-11.3422
▁domnívá	-11.3425
▁odpočinku	-11.3425
▁semen	-11.3425
ěný	-11.3426
▁samospráv	-11.3426
přibliž	-11.3428
▁stroji	-11.343
ward	-11.3431
▁útoků	-11.3433
▁muzikant	-11.3433
▁krav	-11.3434
▁rozhled	-11.3436
▁radostí	-11.3438
▁odbornou	-11.3438
▁roztok	-11.3441
▁povědomí	-11.3441
▁zap	-11.3442
▁dotčen	-11.3442
zené	-11.3443
▁zabývající	-11.3445
tter	-11.3446
▁kapitálu	-11.3447
▁argumenty	-11.3448
chtěl	-11.3449
▁cal	-11.3449
▁technicky	-11.3449
eu	-11.3451
▁litr	-11.3452
▁mandát	-11.3453
skop	-11.3454
▁cyklus	-11.3454
▁kapitola	-11.3459
▁skladeb	-11.3459
▁nositel	-11.346
▁prozkoumat	-11.346
▁úpravou	-11.3461
▁přenese	-11.3463
▁integrovaný	-11.3463
▁sobotka	-11.3464
▁vrb	-11.3467
▁hůl	-11.3468
▁skladu	-11.3468
▁bet	-11.3468
▁běžel	-11.3468
hořel	-11.3469
maj	-11.3469
▁vyrovnání	-11.347
▁nedělal	-11.347
zích	-11.3472
▁následovat	-11.3472
▁chlazení	-11.3475
▁panu	-11.3477
▁termíny	-11.3479
▁vysočina	-11.348
▁slez	-11.348
▁das	-11.3481
▁horký	-11.3484
čnou	-11.3485
▁nevěří	-11.3486
▁dálnici	-11.3487
▁kávu	-11.3488
▁získané	-11.3488
dne	-11.3489
▁metodou	-11.349
▁operátorů	-11.3491
▁vrtulník	-11.3492
▁kanceláři	-11.3492
tiny	-11.3493
kód	-11.3493
▁kyselin	-11.3494
▁teč	-11.3495
▁obecný	-11.3495
▁napsáno	-11.3495
▁reálný	-11.3496
▁nevýhod	-11.3497
▁blue	-11.3497
▁tygr	-11.3498
▁stojící	-11.35
▁lup	-11.35
žené	-11.3501
▁nervy	-11.3501
▁spuštěn	-11.3501
▁nestačil	-11.3502
▁pochopí	-11.3503
▁existovat	-11.3504
pálen	-11.3505
rovnat	-11.3505
áčka	-11.3507
▁aplikovat	-11.3508
▁následoval	-11.3508
počítal	-11.351
▁nutný	-11.3513
ložka	-11.3519
▁polska	-11.3519
▁eshop	-11.352
ografie	-11.3521
ovič	-11.3521
▁vracet	-11.3523
▁zásadě	-11.3523
▁názorů	-11.3526
▁lehčí	-11.3527
▁krásy	-11.3528
lepší	-11.3531
js	-11.3533
▁jader	-11.3535
▁leh	-11.3535
▁zač	-11.3536
▁nejenže	-11.3536
▁nějakém	-11.3538
▁způsoben	-11.3539
dé	-11.3539
▁otázce	-11.354
▁ideálně	-11.3543
▁hluboký	-11.3544
▁reproduktor	-11.3546
▁civilní	-11.3546
▁částech	-11.3547
▁školky	-11.3548
▁light	-11.3548
▁kolega	-11.3552
▁mechan	-11.3558
▁jádra	-11.3559
éra	-11.3559
▁vzápětí	-11.3559
▁havel	-11.356
▁šesté	-11.3561
▁santa	-11.3561
▁bonusovou	-11.3561
▁styk	-11.3562
▁držím	-11.3562
▁kolikrát	-11.3562
▁jezdec	-11.3563
obec	-11.3563
▁fotku	-11.3565
▁krytin	-11.3566
▁sociálním	-11.3566
▁komedie	-11.3567
▁vybavený	-11.3568
▁hostin	-11.3568
▁fun	-11.3568
▁folk	-11.3569
tera	-11.357
▁senior	-11.357
▁prázdné	-11.357
▁milión	-11.3571
▁lístky	-11.3571
▁stád	-11.3573
vézt	-11.3574
táz	-11.3578
▁slabé	-11.3578
stane	-11.3579
rab	-11.3581
tip	-11.3581
rium	-11.3582
▁bodem	-11.3583
▁pracující	-11.3584
lůžk	-11.3585
▁vále	-11.3588
ono	-11.3589
▁různým	-11.3589
▁poštou	-11.3592
▁cup	-11.3593
▁přišly	-11.3593
kole	-11.3594
▁prázdniny	-11.3596
▁napíše	-11.3597
▁subjektů	-11.3598
▁patrné	-11.36
▁kapsa	-11.3601
▁mobilního	-11.3602
▁core	-11.3602
padnou	-11.3603
▁aktivitu	-11.3605
▁pojištěn	-11.3605
▁md	-11.3606
dávané	-11.3607
▁psychiatr	-11.3607
▁samotném	-11.3608
▁vyhlásil	-11.3609
▁kočič	-11.3609
▁uzavřít	-11.3611
▁out	-11.3613
▁prosadil	-11.3615
▁indie	-11.3615
▁zničil	-11.3619
▁zkoušku	-11.362
▁fórum	-11.362
hli	-11.362
▁šíří	-11.3621
▁předpis	-11.3622
▁restartoval	-11.3622
▁flor	-11.3624
▁kořeny	-11.3625
▁okolních	-11.3626
▁dokončen	-11.363
▁struktura	-11.363
▁představitelé	-11.363
▁dozvědět	-11.3631
▁kysel	-11.3632
▁vystoupí	-11.3634
▁soudem	-11.3636
▁složit	-11.3637
▁domácností	-11.3637
▁úvěry	-11.3639
▁zvážit	-11.364
▁zařadit	-11.364
▁hotely	-11.364
yl	-11.3642
ářství	-11.3643
▁krásných	-11.3644
trav	-11.3644
evid	-11.3645
ong	-11.3646
▁metru	-11.3647
▁únor	-11.3648
▁rámec	-11.3648
▁kurt	-11.365
▁zveřejnil	-11.365
▁pokryt	-11.3652
▁bejt	-11.3653
▁seniorů	-11.3653
▁zim	-11.3654
▁textil	-11.3654
jednal	-11.3654
▁divné	-11.3655
▁křiž	-11.3655
▁ios	-11.3656
▁scéna	-11.3656
▁rozšířen	-11.3656
idu	-11.3657
▁pomůcky	-11.366
zou	-11.3661
▁provádíme	-11.3661
▁málokdo	-11.3662
▁úkor	-11.3663
▁jakési	-11.3665
▁sonia	-11.3665
▁faktor	-11.3665
▁podklady	-11.3666
něný	-11.3667
▁získají	-11.3668
▁zobrazuje	-11.3669
▁nabíjení	-11.367
▁užití	-11.367
átek	-11.3671
▁založený	-11.3671
▁obzvláště	-11.3672
▁slovan	-11.3674
▁chrom	-11.3675
▁libovolné	-11.3676
▁přinášejí	-11.3676
níkem	-11.3679
vážil	-11.3679
▁pravém	-11.3679
▁cihel	-11.368
▁takovéto	-11.3681
žití	-11.3681
▁oliv	-11.3681
▁bral	-11.3682
rko	-11.3682
bach	-11.3682
▁živin	-11.3685
▁probíhají	-11.3685
▁dohod	-11.3687
▁varování	-11.3688
hánět	-11.3688
ovny	-11.3688
▁světová	-11.3689
úz	-11.3691
▁přispět	-11.3692
▁sluníčko	-11.3692
▁paro	-11.3695
▁pohybují	-11.3695
▁úloh	-11.3699
▁vyjít	-11.3699
▁nebojte	-11.37
▁členům	-11.37
▁zadat	-11.3701
▁vzali	-11.3703
▁ohlas	-11.3703
▁spolehlivý	-11.3704
▁představenstva	-11.3704
▁obyvatelstva	-11.3705
▁čelní	-11.3705
drive	-11.3705
▁přijímat	-11.3707
▁úvazek	-11.3708
▁rituál	-11.3708
all	-11.3709
▁prs	-11.3709
▁cenové	-11.371
▁sestava	-11.3713
▁sítích	-11.3713
▁umělců	-11.3713
válečn	-11.3714
točit	-11.3714
▁chvil	-11.3714
odpověd	-11.3715
▁jazyků	-11.3716
▁opozice	-11.3719
▁cosi	-11.3719
telná	-11.3721
ometr	-11.3721
▁dv	-11.3723
▁řidičů	-11.3723
▁zastávka	-11.3724
▁řádné	-11.3724
▁triky	-11.3728
lus	-11.3728
žívají	-11.3728
rig	-11.3731
▁závodech	-11.3732
▁končetin	-11.3732
▁pojistné	-11.3733
▁kdekoli	-11.3735
▁královské	-11.3735
lůžkový	-11.3736
ličky	-11.3737
▁letu	-11.3737
▁našemu	-11.3739
▁snižování	-11.3739
▁záchod	-11.374
▁chůze	-11.374
▁vodopád	-11.3741
▁včelař	-11.3741
ely	-11.3741
▁básník	-11.3741
▁stu	-11.3741
▁zaměřením	-11.3742
▁cur	-11.3743
▁proměnil	-11.3744
ase	-11.3747
▁ponor	-11.3747
▁vlhkosti	-11.3747
▁konzol	-11.3748
▁dír	-11.3748
▁tyč	-11.375
▁hostující	-11.375
▁kolegové	-11.3753
▁objednávku	-11.3753
▁přivítal	-11.3753
▁masaryk	-11.3757
serv	-11.3758
▁národů	-11.3758
▁bus	-11.3758
▁šampionátu	-11.376
vrátit	-11.376
zp	-11.3762
▁druhému	-11.3762
válec	-11.3762
▁hrozné	-11.3763
červen	-11.3763
▁lhůta	-11.3764
▁ovlivňují	-11.3765
▁příšer	-11.3765
▁jimi	-11.3766
▁motivace	-11.3769
jímá	-11.3772
▁reakcí	-11.3773
▁připraveni	-11.378
auto	-11.3782
▁faktory	-11.3785
▁zajímavější	-11.3786
▁houb	-11.3787
neu	-11.3787
▁přístupem	-11.3788
▁prezidentem	-11.3789
▁konstatoval	-11.3793
▁marně	-11.3795
▁výrobou	-11.3796
▁sortimentu	-11.3796
▁stali	-11.3796
▁výprav	-11.3796
těh	-11.3797
chytá	-11.3799
▁teplý	-11.3799
nutý	-11.3799
▁lad	-11.38
▁červenou	-11.38
ěná	-11.3802
puštěn	-11.3802
▁zdravotního	-11.3805
nez	-11.3807
▁klap	-11.3808
▁neznal	-11.3809
itelná	-11.3809
▁přítelem	-11.3809
▁vosk	-11.3809
▁záběry	-11.381
íků	-11.3811
ital	-11.3812
▁slabý	-11.3812
ivější	-11.3813
▁blahoslavené	-11.3814
▁pokusí	-11.3814
▁zpívá	-11.3815
mini	-11.3816
▁králík	-11.3817
▁nenašel	-11.3817
bas	-11.3818
▁neobsahuje	-11.3818
▁kategoriích	-11.3818
▁zmizí	-11.3818
▁chlup	-11.382
▁jejímu	-11.3822
▁united	-11.3822
▁koruny	-11.3823
▁pozval	-11.3823
▁kočka	-11.3825
▁nejúspěšnější	-11.3826
▁poslanců	-11.3826
▁světu	-11.3827
▁obchodech	-11.3828
▁prostřední	-11.3829
▁člověkem	-11.3829
▁účty	-11.383
▁jedince	-11.383
▁unibet	-11.3831
▁politická	-11.3831
▁používané	-11.3832
▁kluky	-11.3833
ějí	-11.3834
▁kvalifikační	-11.3835
▁češtině	-11.3838
taci	-11.3839
spěl	-11.384
▁odběru	-11.384
▁kožní	-11.3841
▁pamětní	-11.3842
via	-11.3843
▁běžného	-11.3843
sin	-11.3843
▁realizován	-11.3846
▁posoudit	-11.3847
álních	-11.3847
▁ztrátě	-11.3847
▁studoval	-11.3847
▁čtenářů	-11.3848
▁oslavy	-11.3848
▁šar	-11.3849
▁strategické	-11.3851
▁ocenil	-11.3852
▁inovace	-11.3855
▁viditelné	-11.3855
tas	-11.3857
▁výher	-11.3858
▁interval	-11.3863
▁rozšířil	-11.3863
▁drobný	-11.3864
▁pošty	-11.3864
▁detektiv	-11.3865
▁kombi	-11.3865
▁vesnic	-11.3866
▁krystal	-11.3867
▁záchranné	-11.3868
▁šéfa	-11.3869
▁změnila	-11.3871
▁křeč	-11.3871
▁dával	-11.3872
▁lhůty	-11.3873
▁úhlu	-11.3873
▁složitý	-11.3875
▁záložník	-11.3875
▁nedaří	-11.3875
▁přivést	-11.3875
▁jedny	-11.3879
adlo	-11.3879
▁tvůrce	-11.3879
▁vycházel	-11.388
▁kupón	-11.388
▁ověřit	-11.3882
▁vaz	-11.3882
▁triumf	-11.3883
▁ostrav	-11.3884
▁obalu	-11.3884
▁počítal	-11.3885
▁zajímal	-11.3887
ovné	-11.3887
▁sezení	-11.3888
▁trvalý	-11.3888
▁historik	-11.3889
▁květy	-11.3889
▁grafiky	-11.389
▁stream	-11.389
▁řeknu	-11.3892
▁mot	-11.3892
▁odpolední	-11.3893
fen	-11.3894
▁vyd	-11.3895
▁posloužit	-11.3896
▁sebevědomí	-11.3896
▁vyloženě	-11.3896
▁vnímat	-11.3897
čný	-11.3897
▁hospody	-11.3898
pínací	-11.3898
▁hesla	-11.3899
álek	-11.3902
▁okraje	-11.3903
▁výměře	-11.3904
▁prohlídku	-11.3904
▁vedlo	-11.3905
▁sází	-11.3905
▁strachu	-11.3906
▁suv	-11.3907
▁vlaku	-11.3912
▁západu	-11.3912
▁pokusu	-11.3912
▁scho	-11.3915
▁nadcházející	-11.3916
▁požaduje	-11.3917
dvacet	-11.3918
▁anonym	-11.3919
▁segment	-11.392
▁oheň	-11.3921
▁připojil	-11.3921
▁blo	-11.3922
▁italský	-11.3922
▁společnou	-11.3925
▁podnikatelů	-11.3926
▁nehody	-11.3926
▁čela	-11.3927
lyn	-11.3927
fotil	-11.3928
▁hrdina	-11.3929
▁volkswagen	-11.3929
▁iráku	-11.393
památ	-11.393
▁zvykl	-11.3931
▁tvor	-11.3932
▁bariér	-11.3938
▁žetony	-11.3939
▁vzniknout	-11.394
▁nenechal	-11.394
stál	-11.394
▁kunhuty	-11.3941
▁výrobních	-11.3942
▁určitá	-11.3944
▁metro	-11.3944
gas	-11.3945
▁investor	-11.3945
▁výstavě	-11.3946
▁mapa	-11.3946
▁onen	-11.3947
▁beat	-11.3948
▁kartáč	-11.395
▁terén	-11.395
prs	-11.3951
▁zlatá	-11.3953
▁fakta	-11.3955
▁ledě	-11.3956
celý	-11.3956
▁slyší	-11.3957
▁zimních	-11.3957
▁oddělen	-11.3957
▁sluch	-11.3958
▁radě	-11.3958
▁účinně	-11.396
▁prodal	-11.3961
▁úvah	-11.3962
▁úsměvem	-11.3963
eným	-11.3964
▁uvažuje	-11.3965
▁xp	-11.3965
▁veškerou	-11.3966
▁téhož	-11.3966
▁hladinu	-11.3968
▁nedostatky	-11.397
▁zmrzlin	-11.397
▁úspěchy	-11.397
▁výšku	-11.3972
▁postižené	-11.3972
▁mechanické	-11.3973
▁bufetu	-11.3975
▁objevovat	-11.3976
▁příjmení	-11.3976
centrum	-11.3976
▁seznámil	-11.398
▁nástupce	-11.3981
▁vydělá	-11.3981
oven	-11.3981
éři	-11.3981
▁jmenoval	-11.3984
lova	-11.3986
etické	-11.3986
▁současnou	-11.3987
▁výjimečný	-11.3987
▁děčín	-11.3987
▁volant	-11.3988
▁nevíme	-11.3989
▁sporu	-11.3989
▁konfliktu	-11.399
▁voják	-11.399
▁kapitol	-11.3991
▁jakéhokoliv	-11.3992
▁internetového	-11.3993
▁setkat	-11.3994
▁kot	-11.3994
▁reprezentační	-11.3995
▁psychické	-11.3996
▁pejs	-11.3997
řila	-11.3998
▁rs	-11.3999
tul	-11.4003
maz	-11.4003
▁hotelů	-11.4004
▁trpěl	-11.4004
▁neumím	-11.4006
aného	-11.4006
▁dobách	-11.4007
▁slovenska	-11.4008
▁analytik	-11.4008
▁posílá	-11.401
▁stoupá	-11.4011
zla	-11.4011
jíždět	-11.4012
▁plen	-11.4014
cena	-11.4015
▁skript	-11.4016
stavba	-11.4017
▁prachu	-11.4017
our	-11.4018
▁natočil	-11.4018
▁natož	-11.402
▁schůze	-11.402
▁akcích	-11.4021
▁válečné	-11.4022
▁mistra	-11.4022
▁vyřízení	-11.4024
▁bezpečný	-11.4025
▁výtvar	-11.4026
▁prototyp	-11.4028
▁hloubky	-11.4029
▁právník	-11.4032
▁vévod	-11.4032
▁akutní	-11.4033
gue	-11.4033
▁vyzkoušejte	-11.4034
mezi	-11.4036
quote	-11.4037
gie	-11.4037
zek	-11.4037
▁stálé	-11.4039
▁umožnil	-11.4039
▁ochotni	-11.4039
▁vytvořené	-11.4041
slyš	-11.4041
▁europe	-11.4043
▁part	-11.4045
▁lekce	-11.4048
▁podílí	-11.4049
▁vykon	-11.4051
▁stoj	-11.4053
ogen	-11.4056
▁zálohy	-11.4057
▁reklamu	-11.4058
ini	-11.4058
▁zástup	-11.4058
áčku	-11.4059
▁distribu	-11.4062
▁vyrovnat	-11.4062
bab	-11.4063
▁dno	-11.4065
▁ovzduší	-11.4066
▁azyl	-11.4067
▁lepším	-11.4068
▁singl	-11.407
▁nezaměstnanosti	-11.407
▁designér	-11.4072
▁indi	-11.4073
▁vesmír	-11.4074
▁souhlasil	-11.4074
▁nějakej	-11.4075
▁rovné	-11.4075
▁vele	-11.4076
laj	-11.4077
▁hous	-11.4079
▁poptávka	-11.408
dry	-11.4082
▁bytost	-11.4082
hád	-11.4083
▁praktická	-11.4083
▁propagace	-11.4083
rez	-11.4084
▁rodné	-11.4087
▁každej	-11.4087
▁spoření	-11.4088
▁označit	-11.4088
volal	-11.4089
▁neudělá	-11.409
▁vážený	-11.4091
češ	-11.4097
▁vyvolat	-11.4097
▁sedmé	-11.4097
▁lesů	-11.4097
▁suroviny	-11.4097
▁fotbalový	-11.4098
▁konkrétního	-11.4099
ečné	-11.4099
kre	-11.41
▁demon	-11.4101
ečnou	-11.4102
▁fantazie	-11.4104
▁přidělen	-11.4105
▁uchazečů	-11.4106
▁ukázky	-11.4106
info	-11.4107
▁ukáz	-11.4108
▁kopie	-11.4108
▁scénu	-11.4108
▁vystupoval	-11.4109
▁hotové	-11.411
transform	-11.4112
▁konala	-11.4114
▁menším	-11.4114
▁záhy	-11.4115
▁veselý	-11.4115
▁kuk	-11.4115
▁zkouška	-11.4117
fp	-11.4118
▁pic	-11.4119
▁benešov	-11.4119
▁ničeho	-11.4121
psání	-11.4122
▁někým	-11.4122
▁překladu	-11.4124
▁nezdá	-11.4124
▁kolena	-11.4125
▁nedostatku	-11.4125
zk	-11.4125
▁mezinárodním	-11.4125
▁generátor	-11.4126
▁fóra	-11.4127
▁tabletu	-11.4128
▁pred	-11.413
▁informuje	-11.413
▁juli	-11.413
▁městských	-11.4131
▁lhůtě	-11.4132
hodný	-11.4133
▁platný	-11.4134
▁zajišťují	-11.4134
▁dostaneme	-11.4134
▁křesťanské	-11.4135
▁rádio	-11.4135
▁sav	-11.4135
▁zbytku	-11.4136
třel	-11.4136
▁libor	-11.4137
▁dávkování	-11.4138
▁obřad	-11.4138
nále	-11.4141
tán	-11.4141
bet	-11.4141
▁televizor	-11.4142
▁snadná	-11.4144
tc	-11.4144
▁zaplacení	-11.4146
▁maxim	-11.4146
▁hlubší	-11.4146
myslet	-11.4148
cul	-11.4148
zde	-11.4149
nického	-11.415
▁utrpěl	-11.4151
▁šetří	-11.4151
▁relativní	-11.4151
▁bezprostředně	-11.4151
▁davida	-11.4152
▁import	-11.4152
▁signal	-11.4152
▁dobrovolně	-11.4155
čních	-11.4156
▁ptát	-11.4156
▁střelec	-11.4157
▁příhod	-11.4157
inek	-11.4158
▁abys	-11.4158
▁otáčení	-11.4158
ičkami	-11.416
▁červ	-11.4161
▁hell	-11.4162
▁sportovního	-11.4162
▁hand	-11.4163
▁ukládání	-11.4163
▁odjel	-11.4164
oři	-11.4165
▁zpracován	-11.4165
▁šťastná	-11.4166
▁vojtěch	-11.4167
▁sobota	-11.4168
▁rpg	-11.4171
▁download	-11.4172
▁rovině	-11.4172
#,##	-11.4173
▁sbírat	-11.4175
ovacím	-11.4175
▁best	-11.4175
pouštění	-11.4178
▁bibli	-11.4179
▁klubů	-11.4179
▁dodáván	-11.4179
čsl	-11.418
▁dokážou	-11.418
▁marcel	-11.4181
▁sníží	-11.4182
▁přestane	-11.4183
▁kapli	-11.4184
▁bytové	-11.4185
▁hele	-11.4189
▁položka	-11.419
zin	-11.4191
▁titulů	-11.4191
▁stejných	-11.4192
tori	-11.4193
lol	-11.4193
▁vybojoval	-11.4193
▁soutěžící	-11.4196
▁ivo	-11.4197
enec	-11.4197
▁divu	-11.4199
▁nechtě	-11.4199
▁smrtí	-11.4199
▁terénní	-11.42
▁přiznává	-11.4201
▁yared	-11.4201
oč	-11.4202
▁slavia	-11.4202
▁mnichov	-11.4205
▁gynekolog	-11.4206
▁výuku	-11.4206
▁vhodnou	-11.4207
jela	-11.4207
▁organizátor	-11.4208
▁získávání	-11.4211
▁kamaráda	-11.4211
spal	-11.4212
▁dálkové	-11.4213
▁vizi	-11.4213
▁eine	-11.4214
▁předpokládat	-11.4214
▁kino	-11.4216
▁citlivost	-11.4217
tol	-11.4217
▁konstrukční	-11.4218
▁nabízel	-11.4219
▁omezený	-11.4219
vedu	-11.4221
novou	-11.4221
▁kemp	-11.4221
▁výjimky	-11.4223
▁zachytit	-11.4223
▁odráží	-11.4223
▁otisk	-11.4223
▁jirka	-11.4224
▁prodloužen	-11.4224
▁stromu	-11.4225
▁vzniklé	-11.4226
hospodář	-11.4227
▁handicap	-11.4227
▁inspiraci	-11.4227
▁selhání	-11.4227
▁centimetrů	-11.4228
řené	-11.4228
▁klí	-11.4228
▁vil	-11.4231
▁brankáře	-11.4232
▁vsetín	-11.4233
ovaně	-11.4235
▁kombinovat	-11.4235
▁knihovně	-11.4236
bírání	-11.4237
lili	-11.4237
db	-11.4239
▁zle	-11.4239
▁vybudovat	-11.424
▁cestovatel	-11.424
▁konkurent	-11.424
▁milé	-11.4241
orig	-11.4241
▁benzin	-11.4241
▁sci	-11.4242
▁zvládá	-11.4243
▁fakulta	-11.4244
▁luž	-11.4244
▁prohlídka	-11.4244
▁tanec	-11.4245
▁nečas	-11.4245
▁zpravodaj	-11.4245
▁fotbalisté	-11.4247
▁exekuce	-11.4248
mrk	-11.4249
▁hladké	-11.4249
zpomal	-11.4251
▁uvede	-11.4251
▁pomocník	-11.4254
▁land	-11.4255
tisíc	-11.4258
cku	-11.4258
▁šim	-11.426
▁anglii	-11.4262
▁objeven	-11.4263
pce	-11.4265
▁jeseník	-11.4265
▁myšlenku	-11.4266
▁nebojí	-11.4272
▁vymyslet	-11.4273
▁prdel	-11.4273
▁vzácné	-11.4274
▁temp	-11.4274
▁fungující	-11.4274
▁občanům	-11.4276
▁legend	-11.4276
▁pís	-11.4277
▁dělo	-11.4279
▁srdečně	-11.4279
▁hrami	-11.428
cími	-11.4282
▁zloděj	-11.4284
▁lyže	-11.4284
▁jahod	-11.4285
▁jedl	-11.4286
▁spolupracoval	-11.4287
▁slovenský	-11.4288
▁doručen	-11.4289
povídají	-11.4289
říka	-11.429
▁demokracii	-11.4291
▁prodavač	-11.4292
▁will	-11.4293
▁mála	-11.4294
▁rak	-11.4297
▁rameno	-11.4298
▁tradičních	-11.4299
▁zmínit	-11.43
▁užíval	-11.4301
▁projeví	-11.4302
▁konkrétním	-11.4304
▁amazon	-11.4304
ancí	-11.4305
▁teplot	-11.4306
▁pásma	-11.4306
chlad	-11.4307
▁odpovídat	-11.4308
▁cli	-11.4308
▁pohlavní	-11.431
light	-11.4312
▁komunismem	-11.4312
▁zaplacen	-11.4316
▁páry	-11.4316
▁nerez	-11.4316
sedmdesát	-11.4317
▁jednoduchost	-11.4317
enční	-11.4319
▁historicky	-11.432
▁vyhledat	-11.4321
▁etap	-11.4322
▁máslo	-11.4323
▁lázní	-11.4325
ovci	-11.4325
▁jur	-11.4325
▁šál	-11.4326
▁bavor	-11.4327
▁lind	-11.4328
▁baz	-11.4328
▁svobodný	-11.4329
▁koncentrace	-11.433
cla	-11.433
hem	-11.433
istických	-11.433
▁vyřešen	-11.4332
▁spekul	-11.4333
▁příp	-11.4334
▁point	-11.4334
▁traktor	-11.4335
▁ind	-11.4339
▁barák	-11.4339
▁pražských	-11.4339
mix	-11.4341
▁ubytovací	-11.4343
▁každých	-11.4345
šim	-11.4346
▁bezesporu	-11.4347
▁nainstalovat	-11.4347
svícen	-11.435
▁nejzajímavější	-11.4351
▁třídu	-11.4351
▁suši	-11.4352
▁ulicích	-11.4354
▁zlepšil	-11.4356
▁replik	-11.4361
▁hodnotou	-11.4361
▁kapel	-11.4363
▁notebooku	-11.4363
▁pult	-11.4365
▁chytil	-11.4366
rock	-11.4366
▁definice	-11.4367
šené	-11.4367
▁vrátili	-11.4367
▁kultura	-11.4368
▁uspořádal	-11.4368
▁výměny	-11.4373
▁rally	-11.4373
dokument	-11.4374
▁objektivní	-11.4375
▁kamarádka	-11.4376
hřívá	-11.4377
▁zvýšenou	-11.4377
zda	-11.4377
vice	-11.4378
▁čp	-11.4379
▁táta	-11.438
▁postižením	-11.438
▁cer	-11.4383
▁dotek	-11.4383
▁sme	-11.4386
▁ateliér	-11.4386
▁filosof	-11.4388
▁předchozího	-11.4389
▁nebezpečný	-11.4389
▁kongres	-11.4389
▁snazší	-11.439
▁koncertu	-11.439
▁kužel	-11.4391
idla	-11.4392
▁event	-11.4393
▁image	-11.4393
▁připomenout	-11.4393
▁premiéru	-11.4394
▁meziročně	-11.4394
▁jeskyně	-11.4396
lijeme	-11.4396
isti	-11.4396
▁londýn	-11.4399
▁stisk	-11.44
▁děláme	-11.44
▁vzdělan	-11.44
▁osobám	-11.44
▁ksčm	-11.4403
▁puk	-11.4403
▁přestěhoval	-11.4404
▁út	-11.4406
▁mapu	-11.4406
▁hala	-11.4408
▁vlakem	-11.4409
eh	-11.4409
▁cvičit	-11.441
▁pravomoc	-11.4411
barvení	-11.4411
▁návštěvník	-11.4411
▁kapalin	-11.4413
▁okrese	-11.4414
níček	-11.4416
▁pochlubit	-11.442
▁takzvaný	-11.4422
▁bál	-11.4423
▁kliknutím	-11.4425
▁relax	-11.4426
▁chodník	-11.4426
▁radikální	-11.4426
▁sakra	-11.4428
▁veletrh	-11.4429
▁hlášení	-11.4429
zřejm	-11.4429
šová	-11.4431
▁kvalifikaci	-11.4433
▁likvidaci	-11.4433
nám	-11.4435
▁ověření	-11.4436
jinak	-11.4437
ještě	-11.4437
▁státem	-11.4437
hrávat	-11.4437
▁tuku	-11.4438
▁derby	-11.4441
▁dozvěděl	-11.4441
oid	-11.4441
eckého	-11.4443
▁výživ	-11.4443
▁zhodnocení	-11.4444
zvlášt	-11.4445
▁impuls	-11.4446
▁ruského	-11.4448
▁beta	-11.4448
sic	-11.4449
praví	-11.4449
▁společných	-11.445
▁odborná	-11.4452
▁samotnou	-11.4452
▁kočár	-11.4453
▁oceněn	-11.4454
▁přijímač	-11.4454
▁průmyslových	-11.4456
▁zaslání	-11.4457
▁uskutečnil	-11.4461
▁čnb	-11.4462
▁společenských	-11.4463
▁podlaží	-11.4464
▁tabulek	-11.4464
▁hlavičk	-11.4464
▁sýrii	-11.4467
▁pacienty	-11.447
▁knížky	-11.4473
▁odpočinek	-11.4473
jpg	-11.4473
▁úhrad	-11.4474
psaná	-11.4475
praha	-11.4476
▁pokojích	-11.4477
▁čerpadlo	-11.4477
▁bazar	-11.4478
▁gui	-11.448
▁hudebních	-11.448
▁odeslat	-11.4481
tého	-11.4482
▁herci	-11.4484
▁dnešních	-11.4484
tury	-11.4484
▁diod	-11.4485
▁vybudování	-11.4485
ložkou	-11.4485
▁světel	-11.4487
čkám	-11.449
▁bojoval	-11.4491
▁plan	-11.4494
háněl	-11.4494
▁nepříjemný	-11.4495
▁úzkost	-11.4497
▁představovat	-11.4497
▁komponent	-11.4497
▁kolekci	-11.4499
▁jedinců	-11.4499
▁hůř	-11.4501
▁přesvědčil	-11.4502
▁pořádání	-11.4504
▁potřebovala	-11.4504
▁takovej	-11.4506
▁poklesu	-11.4506
▁táboře	-11.4508
enský	-11.4508
▁you	-11.4508
▁vkus	-11.4509
▁novináři	-11.451
▁videí	-11.451
mobil	-11.4511
▁dvůr	-11.4512
rea	-11.4513
▁evropu	-11.4513
▁věnován	-11.4514
uješ	-11.4514
▁draho	-11.4516
▁databázi	-11.4516
▁veřejná	-11.4516
▁nepůjde	-11.4516
▁civilizace	-11.4517
▁kolečka	-11.4517
bc	-11.452
▁andrej	-11.452
▁šňůr	-11.4521
stabiliz	-11.4522
▁uh	-11.4524
▁stavitel	-11.4524
antů	-11.4525
▁zúčastnili	-11.4525
▁předán	-11.4529
▁parfém	-11.453
bis	-11.453
▁mapě	-11.4531
▁ovladače	-11.4532
▁vitamín	-11.4532
▁záv	-11.4532
žek	-11.4533
▁muzic	-11.4533
▁ředitelka	-11.4536
▁jednotlivce	-11.4537
ivých	-11.4538
▁jun	-11.4538
▁bota	-11.4539
aři	-11.4541
▁zpracovává	-11.4543
▁stání	-11.4543
áčky	-11.4545
▁detailů	-11.4546
▁liga	-11.4548
▁branek	-11.4549
▁vzpomínám	-11.4549
přístup	-11.455
ujou	-11.4551
far	-11.4553
bití	-11.4553
tko	-11.4554
▁vaří	-11.4554
▁formální	-11.4554
▁kyseliny	-11.4555
▁displejem	-11.4555
hlás	-11.4556
▁údržba	-11.4556
hru	-11.4559
toč	-11.456
▁dokazuje	-11.4561
jedete	-11.4561
ačním	-11.4562
▁klín	-11.4562
▁olymp	-11.4563
▁záměru	-11.4563
průhled	-11.4564
gio	-11.4565
▁obdobné	-11.4565
▁jezero	-11.4565
▁zn	-11.4566
fix	-11.4571
▁družstev	-11.4572
▁sop	-11.4574
▁připraví	-11.4576
▁vymezen	-11.4576
▁pustí	-11.4579
elnost	-11.4579
lila	-11.4579
áni	-11.4579
znal	-11.458
pověděl	-11.4581
▁průchod	-11.4583
hrub	-11.4586
▁rozvíjí	-11.4587
▁přejeme	-11.4588
▁rumun	-11.4588
▁opera	-11.4589
▁komunismu	-11.4589
▁otcem	-11.459
▁záběr	-11.459
▁tance	-11.4591
ečný	-11.4592
▁kdybyste	-11.4593
▁severo	-11.4594
▁využíván	-11.4596
▁totální	-11.4598
▁čekali	-11.4599
▁zasáhl	-11.4599
fol	-11.4599
haz	-11.46
▁okouzlující	-11.46
▁jaroslava	-11.46
▁renault	-11.46
zně	-11.46
ectví	-11.4601
▁kněž	-11.4601
▁nováček	-11.4602
vaný	-11.4602
▁přehrávače	-11.4605
▁švéd	-11.4605
▁chybějící	-11.4606
▁manévr	-11.4609
▁pravá	-11.4609
itý	-11.4611
▁padá	-11.4611
▁komplikace	-11.4611
▁zelených	-11.4611
▁hdp	-11.4612
pravit	-11.4613
▁volejbal	-11.4613
▁zasáhnout	-11.4613
▁orientační	-11.4614
▁povrchů	-11.4615
▁surf	-11.4615
leze	-11.4615
▁přesunul	-11.4616
▁právním	-11.4618
▁fóru	-11.4618
▁chr	-11.4618
▁time	-11.4618
aru	-11.4619
▁tmavé	-11.4619
▁vznikly	-11.462
neš	-11.4621
▁vystudoval	-11.4622
▁celodenní	-11.4623
▁letadel	-11.4623
mazání	-11.4627
▁obklopen	-11.4627
▁forem	-11.4627
▁jakýkoli	-11.463
▁spolupracovník	-11.4631
▁svítí	-11.4631
▁závěrečný	-11.4632
▁šm	-11.4633
▁obviněn	-11.4634
ávka	-11.4634
▁rob	-11.4635
▁diamond	-11.4636
izovaný	-11.4638
▁snahy	-11.4638
▁knížka	-11.464
▁stabilitu	-11.464
▁odvahu	-11.464
▁trn	-11.4641
bro	-11.4641
▁aktivist	-11.4641
▁pasu	-11.4642
▁pramen	-11.4644
▁plyne	-11.4644
točí	-11.4644
ících	-11.4646
▁penzionu	-11.4648
▁opraven	-11.465
▁paříž	-11.4651
bíhá	-11.4651
▁zanechal	-11.4651
▁vítězný	-11.4652
duch	-11.4653
▁gibraltar	-11.4653
▁postoje	-11.4654
▁zřetel	-11.4654
žíval	-11.4655
krad	-11.4656
▁patro	-11.4656
▁homo	-11.4657
▁zajímavého	-11.4657
▁flexibilní	-11.4658
▁povahy	-11.4658
chytal	-11.4659
▁agentur	-11.4659
květ	-11.4661
▁šedé	-11.4661
boha	-11.4662
▁závěrem	-11.4663
▁drama	-11.4664
ford	-11.4664
▁relaxační	-11.4665
cházeli	-11.4665
▁vydavatel	-11.4666
▁neh	-11.4667
▁dosáhla	-11.4668
▁bratislav	-11.4668
▁říjen	-11.4668
oun	-11.4669
▁uzná	-11.467
▁vyjadřuje	-11.4671
pracované	-11.4671
▁značení	-11.4671
▁vrácení	-11.4673
▁zvané	-11.4674
▁vařit	-11.4675
▁vývoz	-11.4676
▁úspory	-11.4677
▁výživa	-11.4677
sleduj	-11.4678
▁koupím	-11.468
▁pomohlo	-11.468
▁násiln	-11.4681
▁aqua	-11.4681
▁čistí	-11.4682
ativ	-11.4683
▁rozchod	-11.4684
▁šestnáct	-11.4686
▁kritické	-11.4686
tta	-11.4687
▁standardně	-11.469
▁hej	-11.4691
hna	-11.4691
▁pachatel	-11.4692
▁nemluvě	-11.4693
▁komor	-11.4694
▁veden	-11.4694
▁vloni	-11.4696
▁jakýsi	-11.4698
▁splátky	-11.4698
▁zmíněný	-11.4698
▁vyřešil	-11.4698
▁drah	-11.4698
▁šíp	-11.4699
niční	-11.47
last	-11.4702
▁kabin	-11.4703
dc	-11.4704
▁zúčastnilo	-11.4704
cházej	-11.4705
▁podnikatelské	-11.4705
kdyby	-11.4706
▁anonymní	-11.4706
▁zastávky	-11.4707
▁uvedená	-11.4707
▁sankce	-11.4707
▁poškozen	-11.4708
alizaci	-11.471
terapii	-11.4711
▁vypnout	-11.4712
▁zavede	-11.4712
▁pozic	-11.4712
žal	-11.4715
▁okolnosti	-11.4716
▁studentům	-11.4717
▁příchodu	-11.4718
▁oběť	-11.4718
▁pražská	-11.472
▁dřev	-11.472
▁neskutečně	-11.472
▁fle	-11.4723
▁portrét	-11.4725
▁orientaci	-11.4725
▁skleník	-11.4725
▁záznamu	-11.4725
▁přidaný	-11.4727
▁zpracovat	-11.4728
▁závodník	-11.4728
▁jablonec	-11.4729
lici	-11.4734
▁předat	-11.4734
▁ltd	-11.4734
▁cibul	-11.4735
▁schod	-11.4735
▁víta	-11.4736
uri	-11.4737
▁zateplení	-11.4737
▁servír	-11.4739
▁dítětem	-11.474
▁slovem	-11.474
káza	-11.474
▁ulic	-11.4742
chnout	-11.4747
▁teplá	-11.4747
▁nádherná	-11.4747
▁značný	-11.4747
▁judr	-11.4747
▁řízen	-11.4748
▁slavie	-11.4748
▁uznat	-11.4748
▁spokojenosti	-11.4749
krimi	-11.4749
▁paliv	-11.4749
▁hud	-11.4751
kryje	-11.4752
▁podílet	-11.4754
▁koment	-11.4756
pracoval	-11.4756
nj	-11.4757
▁diamant	-11.4757
tvoř	-11.476
tha	-11.4761
▁syndrom	-11.4761
▁parní	-11.4761
éru	-11.4761
anů	-11.4762
kaly	-11.4762
▁lehká	-11.4762
▁postoupil	-11.4763
▁žili	-11.4764
▁čern	-11.4764
▁angličtině	-11.4765
stop	-11.4767
▁tvary	-11.4769
▁přesnost	-11.4772
hnut	-11.4772
▁právu	-11.4772
hodnot	-11.4774
▁organismus	-11.4775
▁šťastné	-11.4775
▁west	-11.4776
ckého	-11.4776
luje	-11.4776
▁manipulaci	-11.4778
▁poškozené	-11.4779
▁zavazadl	-11.4779
▁zubů	-11.4779
▁pozvání	-11.4783
▁příbram	-11.4785
▁senát	-11.4787
pnout	-11.4788
▁patron	-11.4788
mluvil	-11.479
pn	-11.4791
▁inf	-11.4792
▁lístek	-11.4792
▁naplnění	-11.4792
▁závěry	-11.4794
▁podzimu	-11.4797
▁plánů	-11.4797
▁léčení	-11.4798
▁záloh	-11.4799
▁kontrakt	-11.4801
▁dráze	-11.4801
▁přistání	-11.4801
izující	-11.4802
nge	-11.4803
▁určených	-11.4803
▁magazín	-11.4803
king	-11.4804
▁potah	-11.4805
▁publikum	-11.4805
▁lap	-11.4806
terapie	-11.4809
íd	-11.481
▁stánku	-11.481
▁věnována	-11.4814
mmer	-11.4814
▁zabít	-11.4817
acích	-11.4818
▁kruhu	-11.4819
▁volat	-11.482
▁turisty	-11.4823
▁provedené	-11.4823
▁ukončit	-11.4824
▁dovolil	-11.4824
▁levný	-11.4825
▁půlnoci	-11.4828
▁statutární	-11.4828
time	-11.4828
▁trasu	-11.4829
▁yaz	-11.4831
▁betlém	-11.4833
▁rybí	-11.4833
▁mhz	-11.4835
▁vari	-11.4836
osa	-11.4836
▁tratě	-11.4838
cyklist	-11.4838
▁kilo	-11.4839
▁dekorace	-11.4839
▁dřevin	-11.4839
▁písek	-11.484
ložená	-11.484
čků	-11.4842
▁úložiště	-11.4842
▁posílat	-11.4842
▁sazeb	-11.4842
▁prudce	-11.4842
▁uznává	-11.4842
▁otevřených	-11.4842
klik	-11.4843
▁soudy	-11.4843
▁zachován	-11.4844
erem	-11.4845
čice	-11.4847
▁stávají	-11.4848
▁světovou	-11.4848
zatím	-11.485
▁přijede	-11.485
▁krmení	-11.4851
▁katoli	-11.4853
▁autobusy	-11.4855
vec	-11.4855
mobile	-11.4857
▁poskytujeme	-11.486
▁hypoték	-11.4861
hněte	-11.4862
▁dutin	-11.4863
én	-11.4864
▁uvažovat	-11.4864
▁domácnost	-11.4865
sazuje	-11.4866
▁domem	-11.4866
#%	-11.487
▁čelit	-11.487
▁vyuč	-11.4871
▁beneš	-11.4872
pouštějí	-11.4872
▁loupež	-11.4874
▁pokrytí	-11.4874
▁zmaten	-11.4875
▁chirurg	-11.4875
▁radí	-11.4876
▁zůstalo	-11.4879
▁ptám	-11.4879
zdě	-11.488
rv	-11.4881
▁agend	-11.4882
▁ideolog	-11.4882
▁revoluci	-11.4883
▁poštovné	-11.4883
▁hrnce	-11.4885
▁vykonává	-11.4885
mark	-11.4886
▁ostří	-11.4886
▁náročná	-11.4887
▁thomas	-11.4887
▁vstupem	-11.4888
▁pevnou	-11.4888
▁jemný	-11.4889
šák	-11.4889
▁otřes	-11.489
tové	-11.4891
▁bruselu	-11.4891
▁správného	-11.4894
▁nejvyšším	-11.4895
realiz	-11.4896
▁vlákna	-11.4897
▁subjekty	-11.4898
▁house	-11.4899
▁občanský	-11.4899
▁dolu	-11.49
álního	-11.49
ws	-11.49
▁rozpad	-11.4901
▁legální	-11.4903
litr	-11.4903
▁tabu	-11.4905
než	-11.4905
▁fab	-11.4906
▁vývojem	-11.4907
▁světlé	-11.4907
▁krátká	-11.4909
rozhod	-11.491
▁sůl	-11.4912
▁harmon	-11.4912
kart	-11.4913
▁užitečný	-11.4914
▁#.##.	-11.4916
▁průjezd	-11.4916
▁panely	-11.4917
▁vodič	-11.4918
řizuj	-11.4918
▁klimatizace	-11.4919
▁sestavení	-11.4921
▁ženám	-11.4921
▁destinací	-11.4921
▁odběratel	-11.4924
▁offline	-11.4925
▁shrnutí	-11.4925
díky	-11.4926
▁html	-11.4928
▁novému	-11.4928
jit	-11.4929
forum	-11.4929
▁pohyby	-11.493
▁modern	-11.493
ležet	-11.4931
▁starém	-11.4933
▁nekončí	-11.4933
▁osad	-11.4933
▁panny	-11.4934
▁nemocnic	-11.4935
▁odnesl	-11.4935
▁chráněné	-11.4937
▁startovní	-11.4938
▁smutné	-11.4938
▁albert	-11.4939
▁bramborové	-11.4939
▁fc	-11.494
▁policistů	-11.4942
▁existoval	-11.4942
▁montážní	-11.4944
lia	-11.4945
▁ruchu	-11.4946
▁odstavce	-11.4947
▁neuro	-11.4947
▁úplný	-11.4947
▁vánoc	-11.4948
▁návštěvníkům	-11.4948
▁pokusit	-11.4949
▁souhlasu	-11.4949
▁nekonečn	-11.4949
▁neustálé	-11.4951
▁maraton	-11.4951
▁diskutovat	-11.4951
▁analýzu	-11.4953
▁gor	-11.4953
▁pup	-11.4955
▁svědectví	-11.4956
[...]
